{
  "version": "1.0",
  "truncation": null,
  "padding": null,
  "added_tokens": [
    {
      "id": 30000,
      "content": "[PAD]",
      "single_word": false,
      "lstrip": false,
      "rstrip": false,
      "normalized": false,
      "special": true
    },
    {
      "id": 30001,
      "content": "[CLS]",
      "single_word": false,
      "lstrip": false,
      "rstrip": false,
      "normalized": false,
      "special": true
    },
    {
      "id": 30002,
      "content": "[SEP]",
      "single_word": false,
      "lstrip": false,
      "rstrip": false,
      "normalized": false,
      "special": true
    },
    {
      "id": 30003,
      "content": "[MASK]",
      "single_word": false,
      "lstrip": false,
      "rstrip": false,
      "normalized": false,
      "special": true
    },
    {
      "id": 30004,
      "content": "[UNK]",
      "single_word": false,
      "lstrip": false,
      "rstrip": false,
      "normalized": false,
      "special": true
    }
  ],
  "normalizer": null,
  "pre_tokenizer": {
    "type": "WhitespaceSplit"
  },
  "post_processor": null,
  "decoder": null,
  "model": {
    "type": "BPE",
    "dropout": null,
    "unk_token": null,
    "continuing_subword_prefix": null,
    "end_of_word_suffix": null,
    "fuse_unk": false,
    "byte_fallback": false,
    "ignore_merges": false,
    "vocab": {
      "!": 0,
      "\"": 1,
      "#": 2,
      "$": 3,
      "%": 4,
      "&": 5,
      "'": 6,
      "(": 7,
      ")": 8,
      "*": 9,
      "+": 10,
      ",": 11,
      "-": 12,
      ".": 13,
      "/": 14,
      "0": 15,
      "1": 16,
      "2": 17,
      "3": 18,
      "4": 19,
      "5": 20,
      "6": 21,
      "7": 22,
      "8": 23,
      "9": 24,
      ":": 25,
      ";": 26,
      "<": 27,
      "=": 28,
      ">": 29,
      "?": 30,
      "@": 31,
      "A": 32,
      "B": 33,
      "C": 34,
      "D": 35,
      "E": 36,
      "F": 37,
      "G": 38,
      "H": 39,
      "I": 40,
      "J": 41,
      "K": 42,
      "L": 43,
      "M": 44,
      "N": 45,
      "O": 46,
      "P": 47,
      "Q": 48,
      "R": 49,
      "S": 50,
      "T": 51,
      "U": 52,
      "V": 53,
      "W": 54,
      "X": 55,
      "Y": 56,
      "Z": 57,
      "[": 58,
      "\\": 59,
      "]": 60,
      "^": 61,
      "_": 62,
      "`": 63,
      "a": 64,
      "b": 65,
      "c": 66,
      "d": 67,
      "e": 68,
      "f": 69,
      "g": 70,
      "h": 71,
      "i": 72,
      "j": 73,
      "k": 74,
      "l": 75,
      "m": 76,
      "n": 77,
      "o": 78,
      "p": 79,
      "q": 80,
      "r": 81,
      "s": 82,
      "t": 83,
      "u": 84,
      "v": 85,
      "w": 86,
      "x": 87,
      "y": 88,
      "z": 89,
      "{": 90,
      "|": 91,
      "}": 92,
      "~": 93,
      "": 94,
      "": 95,
      "": 96,
      "": 97,
      "": 98,
      "": 99,
      "": 100,
      "": 101,
      "": 102,
      "": 103,
      "": 104,
      "": 105,
      "": 106,
      "": 107,
      "¡": 108,
      "¢": 109,
      "£": 110,
      "¤": 111,
      "¥": 112,
      "¦": 113,
      "§": 114,
      "¨": 115,
      "©": 116,
      "ª": 117,
      "«": 118,
      "¬": 119,
      "­": 120,
      "®": 121,
      "¯": 122,
      "°": 123,
      "±": 124,
      "²": 125,
      "³": 126,
      "´": 127,
      "µ": 128,
      "¶": 129,
      "·": 130,
      "¸": 131,
      "¹": 132,
      "º": 133,
      "»": 134,
      "¼": 135,
      "½": 136,
      "¾": 137,
      "¿": 138,
      "Á": 139,
      "Â": 140,
      "Å": 141,
      "Æ": 142,
      "Ç": 143,
      "É": 144,
      "Ì": 145,
      "Í": 146,
      "Î": 147,
      "Ð": 148,
      "Ó": 149,
      "Õ": 150,
      "Ö": 151,
      "×": 152,
      "Ø": 153,
      "Ü": 154,
      "Þ": 155,
      "ß": 156,
      "à": 157,
      "á": 158,
      "â": 159,
      "ã": 160,
      "ä": 161,
      "å": 162,
      "æ": 163,
      "ç": 164,
      "è": 165,
      "é": 166,
      "ê": 167,
      "ë": 168,
      "ì": 169,
      "í": 170,
      "î": 171,
      "ï": 172,
      "ð": 173,
      "ñ": 174,
      "ò": 175,
      "ó": 176,
      "ô": 177,
      "õ": 178,
      "ö": 179,
      "÷": 180,
      "ø": 181,
      "ù": 182,
      "ú": 183,
      "û": 184,
      "ü": 185,
      "ý": 186,
      "þ": 187,
      "ā": 188,
      "ă": 189,
      "ą": 190,
      "Ć": 191,
      "ć": 192,
      "ĉ": 193,
      "Č": 194,
      "č": 195,
      "ď": 196,
      "Đ": 197,
      "đ": 198,
      "ē": 199,
      "ė": 200,
      "ę": 201,
      "ě": 202,
      "ğ": 203,
      "Ģ": 204,
      "ī": 205,
      "İ": 206,
      "ı": 207,
      "ķ": 208,
      "Ľ": 209,
      "ľ": 210,
      "Ł": 211,
      "ł": 212,
      "ń": 213,
      "ņ": 214,
      "ň": 215,
      "ŉ": 216,
      "ŋ": 217,
      "ō": 218,
      "Ő": 219,
      "ő": 220,
      "Œ": 221,
      "œ": 222,
      "ŕ": 223,
      "Ř": 224,
      "ř": 225,
      "Ś": 226,
      "ś": 227,
      "Ş": 228,
      "ş": 229,
      "Š": 230,
      "š": 231,
      "Ţ": 232,
      "ţ": 233,
      "ť": 234,
      "ū": 235,
      "ů": 236,
      "ų": 237,
      "ŵ": 238,
      "ź": 239,
      "Ż": 240,
      "ż": 241,
      "Ž": 242,
      "ž": 243,
      "ſ": 244,
      "Ɔ": 245,
      "Ɖ": 246,
      "Ɛ": 247,
      "Ƒ": 248,
      "ƒ": 249,
      "ǁ": 250,
      "ǎ": 251,
      "ǔ": 252,
      "ǝ": 253,
      "Ʌ": 254,
      "ɑ": 255,
      "ɔ": 256,
      "ɛ": 257,
      "ɣ": 258,
      "ɩ": 259,
      "ʊ": 260,
      "ʰ": 261,
      "ʳ": 262,
      "ʹ": 263,
      "ʼ": 264,
      "ʽ": 265,
      "ˆ": 266,
      "ˑ": 267,
      "˘": 268,
      "˙": 269,
      "˚": 270,
      "˜": 271,
      "˝": 272,
      "ˡ": 273,
      "ˢ": 274,
      "ˣ": 275,
      "̀": 276,
      "́": 277,
      "̂": 278,
      "̃": 279,
      "̄": 280,
      "̅": 281,
      "̆": 282,
      "̇": 283,
      "̈": 284,
      "̉": 285,
      "̊": 286,
      "̋": 287,
      "̌": 288,
      "̓": 289,
      "̔": 290,
      "̛": 291,
      "̠": 292,
      "̣": 293,
      "̦": 294,
      "̧": 295,
      "̨": 296,
      "̸": 297,
      "͂": 298,
      "ͅ": 299,
      "͎": 300,
      "͞": 301,
      "͵": 302,
      "ͺ": 303,
      "΄": 304,
      "Ά": 305,
      "Έ": 306,
      "Ή": 307,
      "Ί": 308,
      "Ό": 309,
      "Ύ": 310,
      "Ώ": 311,
      "ΐ": 312,
      "Α": 313,
      "Β": 314,
      "Γ": 315,
      "Δ": 316,
      "Ε": 317,
      "Ζ": 318,
      "Η": 319,
      "Θ": 320,
      "Ι": 321,
      "Κ": 322,
      "Λ": 323,
      "Μ": 324,
      "Ν": 325,
      "Ξ": 326,
      "Ο": 327,
      "Π": 328,
      "Ρ": 329,
      "Σ": 330,
      "Τ": 331,
      "Υ": 332,
      "Φ": 333,
      "Χ": 334,
      "Ψ": 335,
      "Ω": 336,
      "Ϊ": 337,
      "Ϋ": 338,
      "ά": 339,
      "έ": 340,
      "ή": 341,
      "ί": 342,
      "ΰ": 343,
      "α": 344,
      "β": 345,
      "γ": 346,
      "δ": 347,
      "ε": 348,
      "ζ": 349,
      "η": 350,
      "θ": 351,
      "ι": 352,
      "κ": 353,
      "λ": 354,
      "μ": 355,
      "ν": 356,
      "ξ": 357,
      "ο": 358,
      "π": 359,
      "ρ": 360,
      "ς": 361,
      "σ": 362,
      "τ": 363,
      "υ": 364,
      "φ": 365,
      "χ": 366,
      "ψ": 367,
      "ω": 368,
      "ϊ": 369,
      "ϋ": 370,
      "ό": 371,
      "ύ": 372,
      "ώ": 373,
      "ϐ": 374,
      "ϑ": 375,
      "ϖ": 376,
      "Ϙ": 377,
      "ϙ": 378,
      "Ϛ": 379,
      "ϛ": 380,
      "ϝ": 381,
      "Ϟ": 382,
      "ϟ": 383,
      "Ϡ": 384,
      "ϡ": 385,
      "ϥ": 386,
      "ϰ": 387,
      "ϲ": 388,
      "Ϲ": 389,
      "Є": 390,
      "І": 391,
      "Ј": 392,
      "Џ": 393,
      "А": 394,
      "Б": 395,
      "В": 396,
      "Г": 397,
      "Д": 398,
      "Е": 399,
      "Ж": 400,
      "З": 401,
      "И": 402,
      "К": 403,
      "Л": 404,
      "М": 405,
      "Н": 406,
      "О": 407,
      "П": 408,
      "Р": 409,
      "С": 410,
      "Т": 411,
      "У": 412,
      "Ф": 413,
      "Х": 414,
      "Ц": 415,
      "Ч": 416,
      "Ш": 417,
      "Ъ": 418,
      "Ы": 419,
      "Ь": 420,
      "Э": 421,
      "Ю": 422,
      "Я": 423,
      "а": 424,
      "б": 425,
      "в": 426,
      "г": 427,
      "д": 428,
      "е": 429,
      "ж": 430,
      "з": 431,
      "и": 432,
      "й": 433,
      "к": 434,
      "л": 435,
      "м": 436,
      "н": 437,
      "о": 438,
      "п": 439,
      "р": 440,
      "с": 441,
      "т": 442,
      "у": 443,
      "ф": 444,
      "х": 445,
      "ц": 446,
      "ч": 447,
      "ш": 448,
      "щ": 449,
      "ъ": 450,
      "ы": 451,
      "ь": 452,
      "э": 453,
      "ю": 454,
      "я": 455,
      "є": 456,
      "ѕ": 457,
      "і": 458,
      "ј": 459,
      "ѣ": 460,
      "ѵ": 461,
      "Ҁ": 462,
      "ҁ": 463,
      "ҏ": 464,
      "ҙ": 465,
      "ҫ": 466,
      "ү": 467,
      "Һ": 468,
      "һ": 469,
      "ӄ": 470,
      "ӕ": 471,
      "Ө": 472,
      "ө": 473,
      "Ա": 474,
      "Ե": 475,
      "Է": 476,
      "Թ": 477,
      "Լ": 478,
      "Կ": 479,
      "Հ": 480,
      "Ղ": 481,
      "Ո": 482,
      "Պ": 483,
      "Ս": 484,
      "Ր": 485,
      "Փ": 486,
      "Ք": 487,
      "ա": 488,
      "բ": 489,
      "գ": 490,
      "դ": 491,
      "ե": 492,
      "է": 493,
      "ը": 494,
      "թ": 495,
      "ի": 496,
      "լ": 497,
      "կ": 498,
      "ղ": 499,
      "մ": 500,
      "յ": 501,
      "ն": 502,
      "ո": 503,
      "չ": 504,
      "պ": 505,
      "ռ": 506,
      "ս": 507,
      "տ": 508,
      "ր": 509,
      "ց": 510,
      "ւ": 511,
      "փ": 512,
      "ք": 513,
      "ֹ": 514,
      "א": 515,
      "ב": 516,
      "ג": 517,
      "ד": 518,
      "ה": 519,
      "ו": 520,
      "ז": 521,
      "ח": 522,
      "ט": 523,
      "י": 524,
      "ך": 525,
      "כ": 526,
      "ל": 527,
      "ם": 528,
      "מ": 529,
      "ן": 530,
      "נ": 531,
      "ס": 532,
      "ע": 533,
      "ף": 534,
      "ץ": 535,
      "צ": 536,
      "ר": 537,
      "ש": 538,
      "ת": 539,
      "،": 540,
      "ا": 541,
      "ب": 542,
      "ة": 543,
      "ح": 544,
      "خ": 545,
      "د": 546,
      "س": 547,
      "ع": 548,
      "ل": 549,
      "م": 550,
      "ن": 551,
      "ه": 552,
      "و": 553,
      "ي": 554,
      "ٔ": 555,
      "ٕ": 556,
      "٠": 557,
      "١": 558,
      "٤": 559,
      "٥": 560,
      "٧": 561,
      "٩": 562,
      "ی": 563,
      "۰": 564,
      "۱": 565,
      "۲": 566,
      "۳": 567,
      "۷": 568,
      "۹": 569,
      "܎": 570,
      "ܐ": 571,
      "ܕ": 572,
      "ܘ": 573,
      "ܙ": 574,
      "ܟ": 575,
      "ܢ": 576,
      "ܬ": 577,
      "ܶ": 578,
      "ݲ": 579,
      "މ": 580,
      "ލ": 581,
      "ं": 582,
      "अ": 583,
      "क": 584,
      "ख": 585,
      "ग": 586,
      "त": 587,
      "थ": 588,
      "द": 589,
      "ध": 590,
      "भ": 591,
      "म": 592,
      "य": 593,
      "ल": 594,
      "व": 595,
      "श": 596,
      "ह": 597,
      "ा": 598,
      "ु": 599,
      "ू": 600,
      "े": 601,
      "ै": 602,
      "्": 603,
      "०": 604,
      "१": 605,
      "२": 606,
      "४": 607,
      "५": 608,
      "६": 609,
      "७": 610,
      "८": 611,
      "९": 612,
      "॰": 613,
      "ঘ": 614,
      "ট": 615,
      "দ": 616,
      "হ": 617,
      "া": 618,
      "্": 619,
      "০": 620,
      "১": 621,
      "২": 622,
      "৩": 623,
      "৪": 624,
      "৫": 625,
      "৭": 626,
      "ં": 627,
      "અ": 628,
      "ઇ": 629,
      "ઈ": 630,
      "ક": 631,
      "ગ": 632,
      "ઘ": 633,
      "ચ": 634,
      "છ": 635,
      "જ": 636,
      "ઝ": 637,
      "ટ": 638,
      "ઠ": 639,
      "ડ": 640,
      "ઢ": 641,
      "ણ": 642,
      "ત": 643,
      "થ": 644,
      "દ": 645,
      "ધ": 646,
      "ન": 647,
      "પ": 648,
      "ફ": 649,
      "બ": 650,
      "ભ": 651,
      "મ": 652,
      "ય": 653,
      "ર": 654,
      "લ": 655,
      "ળ": 656,
      "વ": 657,
      "શ": 658,
      "ષ": 659,
      "સ": 660,
      "હ": 661,
      "઼": 662,
      "ા": 663,
      "ી": 664,
      "ુ": 665,
      "ૂ": 666,
      "ૃ": 667,
      "ૅ": 668,
      "ે": 669,
      "ૈ": 670,
      "ો": 671,
      "્": 672,
      "ૐ": 673,
      "૦": 674,
      "૧": 675,
      "૨": 676,
      "૩": 677,
      "૪": 678,
      "૬": 679,
      "૯": 680,
      "ଜ": 681,
      "ୀ": 682,
      "୦": 683,
      "୧": 684,
      "୩": 685,
      "୪": 686,
      "୫": 687,
      "୬": 688,
      "୭": 689,
      "୮": 690,
      "୯": 691,
      "ஃ": 692,
      "இ": 693,
      "எ": 694,
      "க": 695,
      "ங": 696,
      "ண": 697,
      "த": 698,
      "ன": 699,
      "ப": 700,
      "ம": 701,
      "ய": 702,
      "ர": 703,
      "ல": 704,
      "ி": 705,
      "ீ": 706,
      "ு": 707,
      "ை": 708,
      "்": 709,
      "అ": 710,
      "క": 711,
      "డ": 712,
      "థ": 713,
      "ద": 714,
      "ప": 715,
      "ర": 716,
      "ల": 717,
      "వ": 718,
      "ా": 719,
      "ి": 720,
      "ు": 721,
      "ె": 722,
      "ే": 723,
      "్": 724,
      "ౖ": 725,
      "ಂ": 726,
      "ಅ": 727,
      "ಇ": 728,
      "ಓ": 729,
      "ಕ": 730,
      "ಟ": 731,
      "ಣ": 732,
      "ದ": 733,
      "ನ": 734,
      "ಪ": 735,
      "ಬ": 736,
      "ಲ": 737,
      "ವ": 738,
      "ಸ": 739,
      "ಹ": 740,
      "ಿ": 741,
      "ು": 742,
      "ೂ": 743,
      "ೆ": 744,
      "್": 745,
      "ೕ": 746,
      "೦": 747,
      "೪": 748,
      "අ": 749,
      "ඟ": 750,
      "ก": 751,
      "ข": 752,
      "ค": 753,
      "ง": 754,
      "จ": 755,
      "ช": 756,
      "ซ": 757,
      "ฑ": 758,
      "ณ": 759,
      "ด": 760,
      "ต": 761,
      "ถ": 762,
      "ท": 763,
      "น": 764,
      "บ": 765,
      "ป": 766,
      "พ": 767,
      "ม": 768,
      "ย": 769,
      "ร": 770,
      "ฤ": 771,
      "ล": 772,
      "ว": 773,
      "ษ": 774,
      "ส": 775,
      "ห": 776,
      "อ": 777,
      "ฯ": 778,
      "ะ": 779,
      "ั": 780,
      "า": 781,
      "ิ": 782,
      "ี": 783,
      "ึ": 784,
      "ื": 785,
      "ุ": 786,
      "ู": 787,
      "ฺ": 788,
      "เ": 789,
      "แ": 790,
      "โ": 791,
      "ใ": 792,
      "ไ": 793,
      "ๅ": 794,
      "ๆ": 795,
      "่": 796,
      "้": 797,
      "๊": 798,
      "๋": 799,
      "์": 800,
      "๓": 801,
      "๔": 802,
      "๕": 803,
      "ກ": 804,
      "ຂ": 805,
      "ງ": 806,
      "ຍ": 807,
      "ດ": 808,
      "ຕ": 809,
      "ຖ": 810,
      "ທ": 811,
      "ນ": 812,
      "ບ": 813,
      "ຜ": 814,
      "ພ": 815,
      "ມ": 816,
      "ວ": 817,
      "ຫ": 818,
      "ະ": 819,
      "ັ": 820,
      "າ": 821,
      "ິ": 822,
      "ີ": 823,
      "ຶ": 824,
      "ູ": 825,
      "ົ": 826,
      "ຽ": 827,
      "ເ": 828,
      "ແ": 829,
      "ໂ": 830,
      "ໃ": 831,
      "ໄ": 832,
      "່": 833,
      "້": 834,
      "ໍ": 835,
      "໐": 836,
      "໑": 837,
      "໖": 838,
      "༄": 839,
      "་": 840,
      "།": 841,
      "༠": 842,
      "༡": 843,
      "༣": 844,
      "༤": 845,
      "༥": 846,
      "༧": 847,
      "༨": 848,
      "༩": 849,
      "༽": 850,
      "ཀ": 851,
      "ག": 852,
      "ང": 853,
      "ཉ": 854,
      "ཏ": 855,
      "ཐ": 856,
      "ད": 857,
      "ན": 858,
      "པ": 859,
      "བ": 860,
      "མ": 861,
      "ཙ": 862,
      "ཝ": 863,
      "ཟ": 864,
      "འ": 865,
      "ཡ": 866,
      "ར": 867,
      "ལ": 868,
      "ས": 869,
      "ཱ": 870,
      "ི": 871,
      "ུ": 872,
      "ོ": 873,
      "ྐ": 874,
      "ྙ": 875,
      "ྞ": 876,
      "ྤ": 877,
      "ྪ": 878,
      "ྱ": 879,
      "က": 880,
      "ခ": 881,
      "ဂ": 882,
      "င": 883,
      "စ": 884,
      "ဉ": 885,
      "ည": 886,
      "ဎ": 887,
      "တ": 888,
      "ထ": 889,
      "ဒ": 890,
      "န": 891,
      "ပ": 892,
      "ဖ": 893,
      "ဗ": 894,
      "ဘ": 895,
      "မ": 896,
      "ယ": 897,
      "ရ": 898,
      "လ": 899,
      "ဝ": 900,
      "သ": 901,
      "ဠ": 902,
      "အ": 903,
      "ဤ": 904,
      "ဥ": 905,
      "ါ": 906,
      "ာ": 907,
      "ိ": 908,
      "ီ": 909,
      "ု": 910,
      "ေ": 911,
      "ဲ": 912,
      "ံ": 913,
      "့": 914,
      "း": 915,
      "္": 916,
      "်": 917,
      "ျ": 918,
      "ြ": 919,
      "ွ": 920,
      "ှ": 921,
      "၀": 922,
      "၁": 923,
      "၃": 924,
      "၄": 925,
      "၆": 926,
      "၇": 927,
      "၈": 928,
      "၉": 929,
      "။": 930,
      "ა": 931,
      "გ": 932,
      "დ": 933,
      "ე": 934,
      "ვ": 935,
      "ზ": 936,
      "თ": 937,
      "ი": 938,
      "კ": 939,
      "მ": 940,
      "ნ": 941,
      "ს": 942,
      "ყ": 943,
      "ჩ": 944,
      "ც": 945,
      "ᄀ": 946,
      "ᄁ": 947,
      "ᄂ": 948,
      "ᄃ": 949,
      "ᄅ": 950,
      "ᄆ": 951,
      "ᄉ": 952,
      "ᄊ": 953,
      "ᄋ": 954,
      "ᄌ": 955,
      "ᄍ": 956,
      "ᄎ": 957,
      "ᄐ": 958,
      "ᄑ": 959,
      "ᄒ": 960,
      "ᅡ": 961,
      "ᅢ": 962,
      "ᅣ": 963,
      "ᅥ": 964,
      "ᅦ": 965,
      "ᅧ": 966,
      "ᅩ": 967,
      "ᅮ": 968,
      "ᅲ": 969,
      "ᅳ": 970,
      "ᅵ": 971,
      "ᆫ": 972,
      "ᆭ": 973,
      "ᆯ": 974,
      "ᆶ": 975,
      "ᆷ": 976,
      "ᆸ": 977,
      "ᆺ": 978,
      "ᆻ": 979,
      "ᆼ": 980,
      "ᆾ": 981,
      "ᇂ": 982,
      "ሀ": 983,
      "ሂ": 984,
      "ሃ": 985,
      "ሄ": 986,
      "ህ": 987,
      "ለ": 988,
      "ላ": 989,
      "ል": 990,
      "ሎ": 991,
      "ሐ": 992,
      "መ": 993,
      "ሚ": 994,
      "ማ": 995,
      "ሜ": 996,
      "ም": 997,
      "ሞ": 998,
      "ሠ": 999,
      "ሥ": 1000,
      "ረ": 1001,
      "ሩ": 1002,
      "ሪ": 1003,
      "ራ": 1004,
      "ር": 1005,
      "ሮ": 1006,
      "ሰ": 1007,
      "ሲ": 1008,
      "ሳ": 1009,
      "ስ": 1010,
      "ሻ": 1011,
      "ሽ": 1012,
      "ቀ": 1013,
      "በ": 1014,
      "ባ": 1015,
      "ብ": 1016,
      "ቦ": 1017,
      "ተ": 1018,
      "ኃ": 1019,
      "ነ": 1020,
      "ኒ": 1021,
      "ና": 1022,
      "ኔ": 1023,
      "ን": 1024,
      "አ": 1025,
      "ኣ": 1026,
      "እ": 1027,
      "ኦ": 1028,
      "ካ": 1029,
      "ክ": 1030,
      "ኳ": 1031,
      "ኻ": 1032,
      "ወ": 1033,
      "ዉ": 1034,
      "ዋ": 1035,
      "ው": 1036,
      "ዎ": 1037,
      "ዐ": 1038,
      "ዒ": 1039,
      "ዓ": 1040,
      "ዘ": 1041,
      "ዛ": 1042,
      "ዝ": 1043,
      "ዞ": 1044,
      "የ": 1045,
      "ዪ": 1046,
      "ያ": 1047,
      "ይ": 1048,
      "ዮ": 1049,
      "ደ": 1050,
      "ዳ": 1051,
      "ድ": 1052,
      "ዶ": 1053,
      "ጀ": 1054,
      "ጅ": 1055,
      "ገ": 1056,
      "ጉ": 1057,
      "ጊ": 1058,
      "ጋ": 1059,
      "ጌ": 1060,
      "ግ": 1061,
      "ጎ": 1062,
      "ጣ": 1063,
      "ጥ": 1064,
      "ጳ": 1065,
      "ጸ": 1066,
      "ጾ": 1067,
      "ፃ": 1068,
      "ፊ": 1069,
      "ፍ": 1070,
      "ፎ": 1071,
      "ፖ": 1072,
      "፠": 1073,
      "፡": 1074,
      "።": 1075,
      "፣": 1076,
      "፥": 1077,
      "፦": 1078,
      "፩": 1079,
      "፰": 1080,
      "፲": 1081,
      "Ꭰ": 1082,
      "Ꭱ": 1083,
      "Ꭲ": 1084,
      "Ꭳ": 1085,
      "Ꭴ": 1086,
      "Ꭵ": 1087,
      "Ꭶ": 1088,
      "Ꭹ": 1089,
      "Ꭺ": 1090,
      "Ꭼ": 1091,
      "Ꭿ": 1092,
      "Ꮂ": 1093,
      "Ꮄ": 1094,
      "Ꮉ": 1095,
      "Ꮊ": 1096,
      "Ꮋ": 1097,
      "Ꮍ": 1098,
      "Ꮎ": 1099,
      "Ꮏ": 1100,
      "Ꮐ": 1101,
      "Ꮑ": 1102,
      "Ꮒ": 1103,
      "Ꮓ": 1104,
      "Ꮕ": 1105,
      "Ꮙ": 1106,
      "Ꮚ": 1107,
      "Ꮛ": 1108,
      "Ꮠ": 1109,
      "Ꮡ": 1110,
      "Ꮣ": 1111,
      "Ꮤ": 1112,
      "Ꮦ": 1113,
      "Ꮧ": 1114,
      "Ꮩ": 1115,
      "Ꮪ": 1116,
      "Ꮫ": 1117,
      "Ꮮ": 1118,
      "Ꮯ": 1119,
      "Ꮲ": 1120,
      "Ꮴ": 1121,
      "Ꮷ": 1122,
      "Ꮹ": 1123,
      "Ꮻ": 1124,
      "Ꮼ": 1125,
      "Ꮽ": 1126,
      "Ꮾ": 1127,
      "Ᏸ": 1128,
      "Ᏼ": 1129,
      "ក": 1130,
      "គ": 1131,
      "ង": 1132,
      "ច": 1133,
      "ឌ": 1134,
      "ត": 1135,
      "ថ": 1136,
      "ទ": 1137,
      "ធ": 1138,
      "ន": 1139,
      "ប": 1140,
      "ម": 1141,
      "យ": 1142,
      "រ": 1143,
      "វ": 1144,
      "ហ": 1145,
      "ា": 1146,
      "ី": 1147,
      "ៃ": 1148,
      "ំ": 1149,
      "៉": 1150,
      "់": 1151,
      "៌": 1152,
      "័": 1153,
      "។": 1154,
      "៖": 1155,
      "១": 1156,
      "៥": 1157,
      "៧": 1158,
      "៨": 1159,
      "៩": 1160,
      "ᵃ": 1161,
      "ᵅ": 1162,
      "ᵇ": 1163,
      "ᵈ": 1164,
      "ᵉ": 1165,
      "ᵊ": 1166,
      "ᵍ": 1167,
      "ᵏ": 1168,
      "ᵐ": 1169,
      "ᵒ": 1170,
      "ᵖ": 1171,
      "ᵗ": 1172,
      "ᵘ": 1173,
      "ᵛ": 1174,
      "ᵝ": 1175,
      "ᶜ": 1176,
      "ᶠ": 1177,
      "ᶦ": 1178,
      "ᶹ": 1179,
      "ḥ": 1180,
      "ẞ": 1181,
      "ớ": 1182,
      "ỹ": 1183,
      "ἀ": 1184,
      "ἁ": 1185,
      "ἂ": 1186,
      "ἃ": 1187,
      "ἄ": 1188,
      "ἅ": 1189,
      "ἆ": 1190,
      "Ἀ": 1191,
      "Ἁ": 1192,
      "Ἂ": 1193,
      "Ἄ": 1194,
      "Ἅ": 1195,
      "ἐ": 1196,
      "ἑ": 1197,
      "ἓ": 1198,
      "ἔ": 1199,
      "ἕ": 1200,
      "Ἐ": 1201,
      "Ἑ": 1202,
      "Ἔ": 1203,
      "Ἕ": 1204,
      "ἠ": 1205,
      "ἡ": 1206,
      "ἢ": 1207,
      "ἣ": 1208,
      "ἤ": 1209,
      "ἥ": 1210,
      "ἦ": 1211,
      "ἧ": 1212,
      "Ἠ": 1213,
      "Ἡ": 1214,
      "Ἢ": 1215,
      "Ἣ": 1216,
      "Ἤ": 1217,
      "Ἥ": 1218,
      "Ἦ": 1219,
      "Ἧ": 1220,
      "ἰ": 1221,
      "ἱ": 1222,
      "ἳ": 1223,
      "ἴ": 1224,
      "ἵ": 1225,
      "ἶ": 1226,
      "ἷ": 1227,
      "Ἰ": 1228,
      "Ἱ": 1229,
      "Ἴ": 1230,
      "Ἵ": 1231,
      "Ἶ": 1232,
      "Ἷ": 1233,
      "ὀ": 1234,
      "ὁ": 1235,
      "ὂ": 1236,
      "ὃ": 1237,
      "ὄ": 1238,
      "ὅ": 1239,
      "Ὀ": 1240,
      "Ὁ": 1241,
      "Ὂ": 1242,
      "Ὃ": 1243,
      "Ὄ": 1244,
      "Ὅ": 1245,
      "ὐ": 1246,
      "ὑ": 1247,
      "ὓ": 1248,
      "ὔ": 1249,
      "ὕ": 1250,
      "ὖ": 1251,
      "ὗ": 1252,
      "Ὑ": 1253,
      "Ὕ": 1254,
      "ὠ": 1255,
      "ὡ": 1256,
      "ὢ": 1257,
      "ὣ": 1258,
      "ὤ": 1259,
      "ὥ": 1260,
      "ὦ": 1261,
      "ὧ": 1262,
      "Ὠ": 1263,
      "Ὡ": 1264,
      "Ὤ": 1265,
      "Ὥ": 1266,
      "Ὦ": 1267,
      "Ὧ": 1268,
      "ὰ": 1269,
      "ὲ": 1270,
      "ὴ": 1271,
      "ὶ": 1272,
      "ὸ": 1273,
      "ὺ": 1274,
      "ὼ": 1275,
      "ᾄ": 1276,
      "ᾅ": 1277,
      "ᾐ": 1278,
      "ᾑ": 1279,
      "ᾔ": 1280,
      "ᾖ": 1281,
      "ᾗ": 1282,
      "ᾠ": 1283,
      "ᾤ": 1284,
      "ᾧ": 1285,
      "ᾳ": 1286,
      "ᾴ": 1287,
      "ᾶ": 1288,
      "ᾷ": 1289,
      "᾽": 1290,
      "᾿": 1291,
      "῀": 1292,
      "ῃ": 1293,
      "ῄ": 1294,
      "ῆ": 1295,
      "ῇ": 1296,
      "῎": 1297,
      "ῒ": 1298,
      "ῖ": 1299,
      "῞": 1300,
      "ῤ": 1301,
      "ῥ": 1302,
      "ῦ": 1303,
      "Ὺ": 1304,
      "Ῥ": 1305,
      "ῳ": 1306,
      "ῴ": 1307,
      "ῶ": 1308,
      "ῷ": 1309,
      "῾": 1310,
      "​": 1311,
      "‌": 1312,
      "‍": 1313,
      "‐": 1314,
      "‒": 1315,
      "–": 1316,
      "—": 1317,
      "―": 1318,
      "‖": 1319,
      "‘": 1320,
      "’": 1321,
      "‚": 1322,
      "‛": 1323,
      "“": 1324,
      "”": 1325,
      "„": 1326,
      "‟": 1327,
      "†": 1328,
      "‡": 1329,
      "•": 1330,
      "…": 1331,
      "‰": 1332,
      "′": 1333,
      "″": 1334,
      "‵": 1335,
      "‹": 1336,
      "›": 1337,
      "※": 1338,
      "‾": 1339,
      "⁄": 1340,
      "⁎": 1341,
      "⁑": 1342,
      "⁠": 1343,
      "⁰": 1344,
      "ⁱ": 1345,
      "⁴": 1346,
      "⁵": 1347,
      "⁶": 1348,
      "⁷": 1349,
      "⁸": 1350,
      "⁹": 1351,
      "⁺": 1352,
      "⁽": 1353,
      "ⁿ": 1354,
      "₁": 1355,
      "₂": 1356,
      "₄": 1357,
      "₤": 1358,
      "₩": 1359,
      "₫": 1360,
      "€": 1361,
      "№": 1362,
      "℗": 1363,
      "™": 1364,
      "Ω": 1365,
      "ℵ": 1366,
      "Ⅰ": 1367,
      "Ⅱ": 1368,
      "Ⅲ": 1369,
      "Ⅳ": 1370,
      "ⅰ": 1371,
      "ⅱ": 1372,
      "ⅲ": 1373,
      "ⅴ": 1374,
      "←": 1375,
      "↑": 1376,
      "→": 1377,
      "↓": 1378,
      "⇄": 1379,
      "⇒": 1380,
      "∆": 1381,
      "−": 1382,
      "∗": 1383,
      "∙": 1384,
      "√": 1385,
      "∞": 1386,
      "∠": 1387,
      "∣": 1388,
      "∫": 1389,
      "∴": 1390,
      "∼": 1391,
      "∾": 1392,
      "≈": 1393,
      "≡": 1394,
      "≤": 1395,
      "≥": 1396,
      "⊂": 1397,
      "⊏": 1398,
      "⊔": 1399,
      "⊙": 1400,
      "⊢": 1401,
      "⊣": 1402,
      "⊤": 1403,
      "⊻": 1404,
      "⋃": 1405,
      "⋅": 1406,
      "⋆": 1407,
      "⋇": 1408,
      "⋖": 1409,
      "⌈": 1410,
      "⌉": 1411,
      "⌊": 1412,
      "⌋": 1413,
      "⌞": 1414,
      "⌟": 1415,
      "⎡": 1416,
      "⎤": 1417,
      "⏑": 1418,
      "⏒": 1419,
      "⏓": 1420,
      "⏔": 1421,
      "⏕": 1422,
      "⏝": 1423,
      "Ⓒ": 1424,
      "Ⓡ": 1425,
      "─": 1426,
      "│": 1427,
      "═": 1428,
      "║": 1429,
      "■": 1430,
      "□": 1431,
      "▪": 1432,
      "▲": 1433,
      "△": 1434,
      "▶": 1435,
      "▸": 1436,
      "►": 1437,
      "▼": 1438,
      "▾": 1439,
      "◄": 1440,
      "◊": 1441,
      "○": 1442,
      "◻": 1443,
      "★": 1444,
      "☆": 1445,
      "☎": 1446,
      "☛": 1447,
      "☺": 1448,
      "☼": 1449,
      "☾": 1450,
      "☿": 1451,
      "♀": 1452,
      "♂": 1453,
      "♃": 1454,
      "♄": 1455,
      "♡": 1456,
      "♥": 1457,
      "♦": 1458,
      "♪": 1459,
      "♫": 1460,
      "♭": 1461,
      "⚫": 1462,
      "✅": 1463,
      "✓": 1464,
      "✖": 1465,
      "✝": 1466,
      "✩": 1467,
      "✪": 1468,
      "✰": 1469,
      "✶": 1470,
      "❀": 1471,
      "❘": 1472,
      "❜": 1473,
      "❝": 1474,
      "❤": 1475,
      "❮": 1476,
      "❯": 1477,
      "➢": 1478,
      "⟦": 1479,
      "⟧": 1480,
      "⟨": 1481,
      "⟩": 1482,
      "⥼": 1483,
      "⥽": 1484,
      "⦵": 1485,
      "⨆": 1486,
      "⩚": 1487,
      "⩹": 1488,
      "⫯": 1489,
      "⭑": 1490,
      "⸢": 1491,
      "⸣": 1492,
      "⸤": 1493,
      "⸥": 1494,
      "、": 1495,
      "。": 1496,
      "〈": 1497,
      "〉": 1498,
      "《": 1499,
      "「": 1500,
      "」": 1501,
      "『": 1502,
      "【": 1503,
      "】": 1504,
      "い": 1505,
      "う": 1506,
      "え": 1507,
      "お": 1508,
      "か": 1509,
      "こ": 1510,
      "さ": 1511,
      "し": 1512,
      "す": 1513,
      "せ": 1514,
      "そ": 1515,
      "た": 1516,
      "て": 1517,
      "と": 1518,
      "な": 1519,
      "に": 1520,
      "の": 1521,
      "は": 1522,
      "ひ": 1523,
      "ふ": 1524,
      "ま": 1525,
      "ら": 1526,
      "り": 1527,
      "る": 1528,
      "わ": 1529,
      "ん": 1530,
      "゙": 1531,
      "゚": 1532,
      "゜": 1533,
      "ア": 1534,
      "イ": 1535,
      "ウ": 1536,
      "ェ": 1537,
      "エ": 1538,
      "オ": 1539,
      "カ": 1540,
      "ク": 1541,
      "コ": 1542,
      "シ": 1543,
      "ス": 1544,
      "セ": 1545,
      "ソ": 1546,
      "タ": 1547,
      "チ": 1548,
      "ッ": 1549,
      "ツ": 1550,
      "テ": 1551,
      "ト": 1552,
      "ヌ": 1553,
      "ハ": 1554,
      "ヒ": 1555,
      "フ": 1556,
      "ヘ": 1557,
      "マ": 1558,
      "ミ": 1559,
      "メ": 1560,
      "ュ": 1561,
      "ラ": 1562,
      "リ": 1563,
      "レ": 1564,
      "ロ": 1565,
      "ン": 1566,
      "・": 1567,
      "ー": 1568,
      "ㄅ": 1569,
      "ㄨ": 1570,
      "ㅊ": 1571,
      "ㅎ": 1572,
      "㎜": 1573,
      "㎝": 1574,
      "㎡": 1575,
      "一": 1576,
      "三": 1577,
      "上": 1578,
      "中": 1579,
      "九": 1580,
      "亓": 1581,
      "人": 1582,
      "今": 1583,
      "你": 1584,
      "修": 1585,
      "元": 1586,
      "入": 1587,
      "內": 1588,
      "公": 1589,
      "冯": 1590,
      "出": 1591,
      "刀": 1592,
      "分": 1593,
      "加": 1594,
      "千": 1595,
      "另": 1596,
      "叮": 1597,
      "名": 1598,
      "周": 1599,
      "咳": 1600,
      "品": 1601,
      "唔": 1602,
      "唱": 1603,
      "墨": 1604,
      "外": 1605,
      "多": 1606,
      "婴": 1607,
      "寓": 1608,
      "左": 1609,
      "巧": 1610,
      "希": 1611,
      "帮": 1612,
      "幂": 1613,
      "建": 1614,
      "开": 1615,
      "彭": 1616,
      "忘": 1617,
      "怒": 1618,
      "愆": 1619,
      "我": 1620,
      "挪": 1621,
      "斧": 1622,
      "新": 1623,
      "旁": 1624,
      "日": 1625,
      "曼": 1626,
      "木": 1627,
      "本": 1628,
      "机": 1629,
      "林": 1630,
      "桃": 1631,
      "械": 1632,
      "正": 1633,
      "武": 1634,
      "比": 1635,
      "氓": 1636,
      "永": 1637,
      "没": 1638,
      "沾": 1639,
      "泳": 1640,
      "活": 1641,
      "济": 1642,
      "浴": 1643,
      "瀑": 1644,
      "爨": 1645,
      "片": 1646,
      "犷": 1647,
      "番": 1648,
      "疒": 1649,
      "症": 1650,
      "痕": 1651,
      "睫": 1652,
      "矿": 1653,
      "祝": 1654,
      "禁": 1655,
      "福": 1656,
      "租": 1657,
      "筛": 1658,
      "算": 1659,
      "篝": 1660,
      "總": 1661,
      "纩": 1662,
      "罚": 1663,
      "習": 1664,
      "翟": 1665,
      "脑": 1666,
      "脘": 1667,
      "腰": 1668,
      "舃": 1669,
      "航": 1670,
      "芳": 1671,
      "芹": 1672,
      "薯": 1673,
      "藏": 1674,
      "號": 1675,
      "西": 1676,
      "請": 1677,
      "警": 1678,
      "计": 1679,
      "记": 1680,
      "许": 1681,
      "访": 1682,
      "豆": 1683,
      "軟": 1684,
      "辜": 1685,
      "酒": 1686,
      "野": 1687,
      "门": 1688,
      "隋": 1689,
      "隱": 1690,
      "響": 1691,
      "鸡": 1692,
      "鼻": 1693,
      "齐": 1694,
      "다": 1695,
      "": 1696,
      "ﬀ": 1697,
      "ﬁ": 1698,
      "﻿": 1699,
      "（": 1700,
      "）": 1701,
      "＊": 1702,
      "－": 1703,
      "｢": 1704,
      "･": 1705,
      "�": 1706,
      "𐅵": 1707,
      "𝒢": 1708,
      "𝔮": 1709,
      "𝕷": 1710,
      "ου": 1711,
      "αι": 1712,
      "ει": 1713,
      "ἐ": 1714,
      "το": 1715,
      "έ": 1716,
      "ἀ": 1717,
      "τα": 1718,
      "ί": 1719,
      "τη": 1720,
      "̀ν": 1721,
      "και": 1722,
      "ά": 1723,
      "͂ν": 1724,
      "ον": 1725,
      "ό": 1726,
      "καὶ": 1727,
      "τω": 1728,
      "του": 1729,
      "οι": 1730,
      "͂ς": 1731,
      "τι": 1732,
      "με": 1733,
      "αν": 1734,
      "τε": 1735,
      "̀ς": 1736,
      "κα": 1737,
      "πο": 1738,
      "δε": 1739,
      "ὁ": 1740,
      "ρο": 1741,
      "ρα": 1742,
      "ύ": 1743,
      "σι": 1744,
      "ων": 1745,
      "αυ": 1746,
      "ρι": 1747,
      "τοῦ": 1748,
      "ή": 1749,
      "δι": 1750,
      "εἰ": 1751,
      "μα": 1752,
      "να": 1753,
      "λλ": 1754,
      "͂ͅ": 1755,
      "πε": 1756,
      "ος": 1757,
      "πα": 1758,
      "τῶν": 1759,
      "αὐ": 1760,
      "μέ": 1761,
      "ἔ": 1762,
      "δὲ": 1763,
      "ται": 1764,
      "ς,": 1765,
      "προ": 1766,
      "ἡ": 1767,
      "τῆς": 1768,
      "ἐν": 1769,
      "τὴν": 1770,
      "ώ": 1771,
      "πι": 1772,
      "ὰ": 1773,
      "τὰ": 1774,
      "οὐ": 1775,
      "ὑ": 1776,
      "τὸ": 1777,
      "εν": 1778,
      "εί": 1779,
      "ας": 1780,
      "ῶν": 1781,
      "̔́": 1782,
      "νη": 1783,
      "τὸν": 1784,
      "ὅ": 1785,
      "ἠ": 1786,
      "ευ": 1787,
      "ἄ": 1788,
      "λη": 1789,
      "τοι": 1790,
      "σε": 1791,
      "μη": 1792,
      "συ": 1793,
      "όν": 1794,
      "ως": 1795,
      "οῦ": 1796,
      "ρί": 1797,
      "μεν": 1798,
      "σθ": 1799,
      "ἐκ": 1800,
      "σιν": 1801,
      "ἐπι": 1802,
      "των": 1803,
      "ση": 1804,
      "λι": 1805,
      "νε": 1806,
      "λα": 1807,
      "εῖ": 1808,
      "τέ": 1809,
      "λε": 1810,
      "εἰς": 1811,
      "σα": 1812,
      "θε": 1813,
      "ρε": 1814,
      "μέν": 1815,
      "λέ": 1816,
      "̓́": 1817,
      "μι": 1818,
      "θη": 1819,
      "πά": 1820,
      "ἀν": 1821,
      "τῷ": 1822,
      "ὡ": 1823,
      "τος": 1824,
      "ρω": 1825,
      "κο": 1826,
      "ἀπο": 1827,
      "τί": 1828,
      "δη": 1829,
      "τά": 1830,
      "ού": 1831,
      "ρά": 1832,
      "ρη": 1833,
      "αί": 1834,
      "τον": 1835,
      "σαν": 1836,
      "ους": 1837,
      "κη": 1838,
      "νο": 1839,
      "περι": 1840,
      "οἱ": 1841,
      "ρον": 1842,
      "μὲν": 1843,
      "τό": 1844,
      "ἑ": 1845,
      "σί": 1846,
      "λο": 1847,
      "τοὺς": 1848,
      "στι": 1849,
      "πό": 1850,
      "ὰρ": 1851,
      "μο": 1852,
      "ειν": 1853,
      "γὰρ": 1854,
      "ρχ": 1855,
      "δια": 1856,
      "γε": 1857,
      "μά": 1858,
      "ὡς": 1859,
      "κε": 1860,
      "βα": 1861,
      "ργ": 1862,
      "ῳ": 1863,
      "ποι": 1864,
      "πρὸς": 1865,
      "εῖν": 1866,
      "στ": 1867,
      "ἀλλ": 1868,
      "τοῖς": 1869,
      "έν": 1870,
      "ἰ": 1871,
      "στη": 1872,
      "τες": 1873,
      "σθαι": 1874,
      "ἐξ": 1875,
      "ἐπ": 1876,
      "παρα": 1877,
      "λί": 1878,
      "᾿Α": 1879,
      "ρό": 1880,
      "σει": 1881,
      "δ᾽": 1882,
      "ς.": 1883,
      "γι": 1884,
      "τῇ": 1885,
      "νὰ": 1886,
      "ὀ": 1887,
      "δο": 1888,
      "στα": 1889,
      "σχ": 1890,
      "θα": 1891,
      "δί": 1892,
      "ἱ": 1893,
      "ὅτι": 1894,
      "ον,": 1895,
      "ἐπὶ": 1896,
      "ἢ": 1897,
      "ὑπο": 1898,
      "που": 1899,
      "γα": 1900,
      "της": 1901,
      "κατα": 1902,
      "͂ναι": 1903,
      "ρέ": 1904,
      "σκ": 1905,
      "σω": 1906,
      "μί": 1907,
      "κατὰ": 1908,
      "διὰ": 1909,
      "λό": 1910,
      "εὐ": 1911,
      "μὴ": 1912,
      "ν,": 1913,
      "τού": 1914,
      "τὰς": 1915,
      "ῶς": 1916,
      "ρου": 1917,
      "δέ": 1918,
      "φη": 1919,
      "υν": 1920,
      "μου": 1921,
      "δα": 1922,
      "λά": 1923,
      "νι": 1924,
      "ἀνα": 1925,
      "πέ": 1926,
      "περὶ": 1927,
      "κά": 1928,
      "ῦ": 1929,
      "στε": 1930,
      "πάν": 1931,
      "την": 1932,
      "ἔχ": 1933,
      "πη": 1934,
      "φο": 1935,
      "γη": 1936,
      "κι": 1937,
      "τικ": 1938,
      "ἄλλ": 1939,
      "φι": 1940,
      "μον": 1941,
      "πει": 1942,
      "ρώ": 1943,
      "ων,": 1944,
      "γεν": 1945,
      "περ": 1946,
      "αὐτοῦ": 1947,
      "πλ": 1948,
      "θέ": 1949,
      "ἁ": 1950,
      "ἐγ": 1951,
      "ος,": 1952,
      "φα": 1953,
      "τή": 1954,
      "άν": 1955,
      "οις": 1956,
      "συν": 1957,
      "κό": 1958,
      "ὄ": 1959,
      "δύ": 1960,
      "λει": 1961,
      "γί": 1962,
      "Ἐ": 1963,
      "οὐκ": 1964,
      "ἂν": 1965,
      "μβ": 1966,
      "μοι": 1967,
      "λυ": 1968,
      "αὶ": 1969,
      "νω": 1970,
      "σαι": 1971,
      "δὲν": 1972,
      "ἕ": 1973,
      "σο": 1974,
      "παρ": 1975,
      "μένη": 1976,
      "σου": 1977,
      "νό": 1978,
      "τας": 1979,
      "εἶ": 1980,
      "λου": 1981,
      "εἶναι": 1982,
      "πολλ": 1983,
      "λέγ": 1984,
      "γά": 1985,
      "τυ": 1986,
      "καθ": 1987,
      "ἀπὸ": 1988,
      "σεως": 1989,
      "ρυ": 1990,
      "ραν": 1991,
      "εἴ": 1992,
      "ματα": 1993,
      "ξι": 1994,
      "ῶ": 1995,
      "τις": 1996,
      "Θε": 1997,
      "λόγ": 1998,
      "νου": 1999,
      "πί": 2000,
      "οἰ": 2001,
      "πον": 2002,
      "ἤ": 2003,
      "όμεν": 2004,
      "ὐ": 2005,
      "μή": 2006,
      "λή": 2007,
      "ῥ": 2008,
      "στο": 2009,
      "λευ": 2010,
      "παν": 2011,
      "προσ": 2012,
      "αἰ": 2013,
      "φε": 2014,
      "ταῦ": 2015,
      "δό": 2016,
      "ρή": 2017,
      "δυ": 2018,
      "ρος": 2019,
      "θυ": 2020,
      "χα": 2021,
      "γρα": 2022,
      "ν.": 2023,
      "ἐστι": 2024,
      "Ἰ": 2025,
      "θεν": 2026,
      "μῶν": 2027,
      "χη": 2028,
      "Καὶ": 2029,
      "μόν": 2030,
      "τοῦτο": 2031,
      "δει": 2032,
      "ᾳ": 2033,
      "ὑπὸ": 2034,
      "νυ": 2035,
      "ἀλλὰ": 2036,
      "τρο": 2037,
      "ὠ": 2038,
      "φυ": 2039,
      "σον": 2040,
      "τ᾽": 2041,
      "φέ": 2042,
      "γο": 2043,
      "κί": 2044,
      "σης": 2045,
      "ἄν": 2046,
      "φί": 2047,
      "κοι": 2048,
      "σας": 2049,
      "κον": 2050,
      "κου": 2051,
      "μαι": 2052,
      "τὸς": 2053,
      "χε": 2054,
      "ρων": 2055,
      "ται,": 2056,
      "κυ": 2057,
      "σεν": 2058,
      "τρι": 2059,
      "οὑ": 2060,
      "ὥ": 2061,
      "δὴ": 2062,
      "λοι": 2063,
      "ρας": 2064,
      "α,": 2065,
      "βο": 2066,
      "πλη": 2067,
      "βασι": 2068,
      "λον": 2069,
      "ῷ": 2070,
      "κλη": 2071,
      "χει": 2072,
      "ἅ": 2073,
      "αὐτῶν": 2074,
      "νων": 2075,
      "μετὰ": 2076,
      "βά": 2077,
      "ρισ": 2078,
      "ρόν": 2079,
      "ναι": 2080,
      "παι": 2081,
      "σύ": 2082,
      "ξε": 2083,
      "σις": 2084,
      "σῃ": 2085,
      "γέ": 2086,
      "ὸν": 2087,
      "ροι": 2088,
      "ας,": 2089,
      "βε": 2090,
      "γον": 2091,
      "πρό": 2092,
      "τως": 2093,
      "ρει": 2094,
      "είας": 2095,
      "αἱ": 2096,
      "στρα": 2097,
      "ἀρχ": 2098,
      "ὸς": 2099,
      "ὕ": 2100,
      "͂ς,": 2101,
      "Δι": 2102,
      "οὖν": 2103,
      "οὔ": 2104,
      "χω": 2105,
      "ἵ": 2106,
      "ζε": 2107,
      "ϊ": 2108,
      "λύ": 2109,
      "ἀγ": 2110,
      "ματος": 2111,
      "μετα": 2112,
      "ρῶν": 2113,
      "χι": 2114,
      "θει": 2115,
      "δω": 2116,
      "ἴ": 2117,
      "Πα": 2118,
      "τερον": 2119,
      "οὗ": 2120,
      "αὐτὸν": 2121,
      "οὕ": 2122,
      "βου": 2123,
      "συμ": 2124,
      "ζη": 2125,
      "ρθ": 2126,
      "κρα": 2127,
      "παρὰ": 2128,
      "αὐτῷ": 2129,
      "ἦ": 2130,
      "ταῦτα": 2131,
      "μάτων": 2132,
      "μό": 2133,
      "πρα": 2134,
      "δου": 2135,
      "μένων": 2136,
      "νή": 2137,
      "ἀκ": 2138,
      "κει": 2139,
      "ταύ": 2140,
      "θή": 2141,
      "καί": 2142,
      "σιν,": 2143,
      "ἐμ": 2144,
      "τους": 2145,
      "για": 2146,
      "σθη": 2147,
      "χρη": 2148,
      "φύ": 2149,
      "θέν": 2150,
      "̀ρ": 2151,
      "ία": 2152,
      "λθ": 2153,
      "Κα": 2154,
      "αν,": 2155,
      "ἦν": 2156,
      "μέ": 2157,
      "ξη": 2158,
      "σά": 2159,
      "καλ": 2160,
      "μει": 2161,
      "βη": 2162,
      "στά": 2163,
      "νει": 2164,
      "ὼν": 2165,
      "μενος": 2166,
      "μῖν": 2167,
      "σεις": 2168,
      "ὑπε": 2169,
      "τος,": 2170,
      "ρῶ": 2171,
      "λλον": 2172,
      "φά": 2173,
      "νώ": 2174,
      "λαι": 2175,
      "νον": 2176,
      "ζον": 2177,
      "λος": 2178,
      "ίας": 2179,
      "φαν": 2180,
      "ΟΥ": 2181,
      "ἐς": 2182,
      "ματι": 2183,
      "λλη": 2184,
      "ἀνθ": 2185,
      "φό": 2186,
      "πολι": 2187,
      "ἀλλ᾽": 2188,
      "ἑαυ": 2189,
      "κῶν": 2190,
      "κῆς": 2191,
      "ου,": 2192,
      "στή": 2193,
      "ταν": 2194,
      "κὸν": 2195,
      "καν": 2196,
      "βι": 2197,
      "Εἰ": 2198,
      "τρί": 2199,
      "δύνα": 2200,
      "ταῖς": 2201,
      "θά": 2202,
      "λω": 2203,
      "τῳ": 2204,
      "συγ": 2205,
      "λεί": 2206,
      "οῦν": 2207,
      "τύ": 2208,
      "νης": 2209,
      "μαρ": 2210,
      "ον.": 2211,
      "πρ": 2212,
      "ἐκεί": 2213,
      "κύ": 2214,
      "10": 2215,
      "Ἀ": 2216,
      "θι": 2217,
      "τει": 2218,
      "νί": 2219,
      "ως,": 2220,
      "ποί": 2221,
      "ἀμ": 2222,
      "δή": 2223,
      "πως": 2224,
      "νέ": 2225,
      "ται.": 2226,
      "το,": 2227,
      "κεν": 2228,
      "ανα": 2229,
      "δά": 2230,
      "πρά": 2231,
      "ες": 2232,
      "ξα": 2233,
      "ἥ": 2234,
      "πό": 2235,
      "κατ": 2236,
      "ψυ": 2237,
      "λιν": 2238,
      "δος": 2239,
      "μένου": 2240,
      "ἀντι": 2241,
      "ΟΣ": 2242,
      "ἀπ": 2243,
      "ρύ": 2244,
      "φων": 2245,
      "ἀγα": 2246,
      "γνω": 2247,
      "λων": 2248,
      "͂μα": 2249,
      "γρά": 2250,
      "σοι": 2251,
      "δρα": 2252,
      "τα,": 2253,
      "ζω": 2254,
      "ὼ": 2255,
      "λαβ": 2256,
      "λεύ": 2257,
      "μᾶς": 2258,
      "κέ": 2259,
      "συνε": 2260,
      "νας": 2261,
      "γμα": 2262,
      "εί": 2263,
      "ψη": 2264,
      "̀ς,": 2265,
      "ρὸν": 2266,
      "μὲ": 2267,
      "ποτε": 2268,
      "ἐπει": 2269,
      "νῦν": 2270,
      "ὴν": 2271,
      "σμ": 2272,
      "..": 2273,
      "κρι": 2274,
      "ερ": 2275,
      "χο": 2276,
      "βί": 2277,
      "ουσι": 2278,
      "θεί": 2279,
      "σίας": 2280,
      "15": 2281,
      "ὸ": 2282,
      "τρα": 2283,
      "τούτων": 2284,
      "20": 2285,
      "αῖ": 2286,
      "Ἡ": 2287,
      "ὰν": 2288,
      "ἀνθρώ": 2289,
      "σκο": 2290,
      "κοῦ": 2291,
      "κή": 2292,
      "ἵνα": 2293,
      "ὦ": 2294,
      "δεί": 2295,
      "όντων": 2296,
      "ών": 2297,
      "ἡμέ": 2298,
      "τες,": 2299,
      "πάντα": 2300,
      "μενοι": 2301,
      "Οὐ": 2302,
      "ρίου": 2303,
      "διά": 2304,
      "αὐτοῖς": 2305,
      "αὐτῆς": 2306,
      "κή": 2307,
      "δον": 2308,
      "μαν": 2309,
      "Ὁ": 2310,
      "στον": 2311,
      "πᾶ": 2312,
      "ἡμῶν": 2313,
      "λ.": 2314,
      "ὄν": 2315,
      "τρό": 2316,
      "μόνον": 2317,
      "Ἑ": 2318,
      "δυν": 2319,
      "εις": 2320,
      "ὧν": 2321,
      "τεί": 2322,
      "διε": 2323,
      "αῦ": 2324,
      "μᾶ": 2325,
      "ῶν,": 2326,
      "ων.": 2327,
      "γω": 2328,
      "θρω": 2329,
      "ῆ": 2330,
      "οὶ": 2331,
      "χρόν": 2332,
      "τώ": 2333,
      "μην": 2334,
      "οὔτε": 2335,
      "χώ": 2336,
      "πω": 2337,
      "χον": 2338,
      "χά": 2339,
      "μος": 2340,
      "οὐδὲ": 2341,
      "18": 2342,
      "ἀνά": 2343,
      "ἀπε": 2344,
      "ΐ": 2345,
      "τούτου": 2346,
      "κὴν": 2347,
      "οί": 2348,
      "πόλε": 2349,
      "ῆς": 2350,
      "πυ": 2351,
      "αὐτὸς": 2352,
      "οὕτω": 2353,
      "πολυ": 2354,
      "γυ": 2355,
      "ραι": 2356,
      "αυτ": 2357,
      "ἐπί": 2358,
      "θαν": 2359,
      "ἔν": 2360,
      "κρί": 2361,
      "α.": 2362,
      "σθαι,": 2363,
      "Με": 2364,
      "ουν": 2365,
      "σώ": 2366,
      "͂ον": 2367,
      "ς·": 2368,
      "χθ": 2369,
      "ἀφ": 2370,
      "επι": 2371,
      "ξαν": 2372,
      "γέν": 2373,
      "πεν": 2374,
      "νεται": 2375,
      "ότι": 2376,
      "σχε": 2377,
      "μεγά": 2378,
      "μως": 2379,
      "ρεῖ": 2380,
      "Μα": 2381,
      "ειν,": 2382,
      "υἱ": 2383,
      "χρι": 2384,
      "δ'": 2385,
      "μενον": 2386,
      "ἡμῖν": 2387,
      "ος.": 2388,
      "ζει": 2389,
      "μεθα": 2390,
      "κατέ": 2391,
      "̀ν,": 2392,
      "καρ": 2393,
      "πρῶ": 2394,
      "μυ": 2395,
      "στέ": 2396,
      "ὴ": 2397,
      "ρά": 2398,
      "ξυ": 2399,
      ").": 2400,
      "ρί": 2401,
      "ἐπε": 2402,
      "κρά": 2403,
      "ές": 2404,
      "ροῦ": 2405,
      "νες": 2406,
      "ρους": 2407,
      "σέ": 2408,
      "ριον": 2409,
      "Πε": 2410,
      "οι,": 2411,
      "ψε": 2412,
      "ρὸς": 2413,
      "ἀνδ": 2414,
      "γνώ": 2415,
      "ἀπό": 2416,
      "ἀνε": 2417,
      "ὑπὲρ": 2418,
      "ργα": 2419,
      "ότι": 2420,
      "ΙΑ": 2421,
      "ὁμο": 2422,
      "θύ": 2423,
      "παρε": 2424,
      "γυν": 2425,
      "πάντων": 2426,
      "ἐκεῖν": 2427,
      "ἔχει": 2428,
      "λογ": 2429,
      "δικα": 2430,
      "μων": 2431,
      "φρον": 2432,
      "νην": 2433,
      "κ.": 2434,
      "ἔτι": 2435,
      "ἀπέ": 2436,
      "σιν.": 2437,
      "λαμβ": 2438,
      "κεῖ": 2439,
      "κατε": 2440,
      "ρεί": 2441,
      "στην": 2442,
      "αὐτοὺς": 2443,
      "θῇ": 2444,
      "Συ": 2445,
      "ἱε": 2446,
      "δύο": 2447,
      "ότη": 2448,
      "από": 2449,
      "νος": 2450,
      "σοῦ": 2451,
      "τότε": 2452,
      "̀,": 2453,
      "ἀλη": 2454,
      "συμβ": 2455,
      "κω": 2456,
      "μὴν": 2457,
      "τοις": 2458,
      "ἐγὼ": 2459,
      "ίαν": 2460,
      "εῖν,": 2461,
      "σπερ": 2462,
      "ἐφ": 2463,
      "Θεοῦ": 2464,
      "λλα": 2465,
      "μετ": 2466,
      "δώ": 2467,
      "σίαν": 2468,
      "ψι": 2469,
      "μενα": 2470,
      "είναι": 2471,
      "κεί": 2472,
      "πος": 2473,
      "τοί": 2474,
      "κατά": 2475,
      "ρ.": 2476,
      "σθε": 2477,
      "τέρα": 2478,
      "̈́": 2479,
      "μᾶλλον": 2480,
      "οὐδὲν": 2481,
      "νῃ": 2482,
      "1.": 2483,
      "θεῖ": 2484,
      "Εὐ": 2485,
      "οὺς": 2486,
      "όμενος": 2487,
      "γει": 2488,
      "τόν": 2489,
      "μικ": 2490,
      "μένους": 2491,
      "νευ": 2492,
      "δεῖ": 2493,
      "Κυ": 2494,
      "μαί": 2495,
      "δελ": 2496,
      "Κύ": 2497,
      "μὸν": 2498,
      "ρες": 2499,
      "),": 2500,
      "οὕτως": 2501,
      "Πο": 2502,
      "ρίας": 2503,
      "νὸς": 2504,
      "οἶ": 2505,
      "μεν,": 2506,
      "ἤδη": 2507,
      "ποιή": 2508,
      "φή": 2509,
      "ἐξε": 2510,
      "λογι": 2511,
      "δεν": 2512,
      "ταί": 2513,
      "μοῦ": 2514,
      "δαι": 2515,
      "σκε": 2516,
      "νά": 2517,
      "ζο": 2518,
      "πων": 2519,
      "σμα": 2520,
      "πῶς": 2521,
      "ἀγαθ": 2522,
      "ρια": 2523,
      "μια": 2524,
      "τῃ": 2525,
      "Τὸ": 2526,
      "μίαν": 2527,
      "πεί": 2528,
      "φαί": 2529,
      "σι,": 2530,
      "αὑ": 2531,
      "̓ῥ": 2532,
      "σαν,": 2533,
      "οἴ": 2534,
      "ναν": 2535,
      "τινα": 2536,
      "γγε": 2537,
      "ην": 2538,
      "νεύ": 2539,
      "ρεύ": 2540,
      "αὐτὴν": 2541,
      "λώ": 2542,
      "θο": 2543,
      "ἔστι": 2544,
      "ὥστε": 2545,
      "κού": 2546,
      "σκευ": 2547,
      "25": 2548,
      "λους": 2549,
      "ρό": 2550,
      "οντες": 2551,
      "λεῖ": 2552,
      "το.": 2553,
      "εται": 2554,
      "ὀφ": 2555,
      "͂σαι": 2556,
      "ῃ": 2557,
      "ΑΙ": 2558,
      "δυνά": 2559,
      "σσ": 2560,
      "δικαι": 2561,
      "τε,": 2562,
      "μνη": 2563,
      "ΗΣ": 2564,
      "παρά": 2565,
      "θ᾽": 2566,
      "νοι": 2567,
      "ὑπ": 2568,
      "μμα": 2569,
      "γό": 2570,
      "μένης": 2571,
      "Χρισ": 2572,
      "σσα": 2573,
      "νύ": 2574,
      "εὑ": 2575,
      "πλα": 2576,
      "δυνα": 2577,
      "δας": 2578,
      "ὅπως": 2579,
      "λέγει": 2580,
      "κώ": 2581,
      "στό": 2582,
      "στί": 2583,
      "κτη": 2584,
      "ΩΝ": 2585,
      "ὥσπερ": 2586,
      "λλά": 2587,
      "2.": 2588,
      "γάρ": 2589,
      "του,": 2590,
      "19": 2591,
      "μεί": 2592,
      "αύ": 2593,
      "ξω": 2594,
      "ἐὰν": 2595,
      "Αἰ": 2596,
      "ὑπά": 2597,
      "ἣν": 2598,
      "πρώ": 2599,
      "γου": 2600,
      "πρὸ": 2601,
      "ῳ,": 2602,
      "μένην": 2603,
      "ἄνθρω": 2604,
      "Ευ": 2605,
      "πόν": 2606,
      "λογί": 2607,
      "πάλιν": 2608,
      "τεύ": 2609,
      "γῆς": 2610,
      "πί": 2611,
      "ξί": 2612,
      "ξει": 2613,
      "τρέ": 2614,
      "τευ": 2615,
      "ἀνέ": 2616,
      "κό": 2617,
      "ός": 2618,
      "ρῳ": 2619,
      "μένα": 2620,
      "χθη": 2621,
      "δαί": 2622,
      "ἀρ": 2623,
      "βού": 2624,
      "κὸς": 2625,
      "δημο": 2626,
      "τερα": 2627,
      "ἐστιν": 2628,
      "ΙΣ": 2629,
      "ἔργ": 2630,
      "κὴ": 2631,
      "τον,": 2632,
      "μεῖς": 2633,
      "οὐχ": 2634,
      "ρευ": 2635,
      "ἄρ": 2636,
      "Βα": 2637,
      "μάλι": 2638,
      "πρε": 2639,
      "ὅταν": 2640,
      "ξεν": 2641,
      "θὰ": 2642,
      "13": 2643,
      "σφα": 2644,
      "αις": 2645,
      "ρὶ": 2646,
      "σθαι.": 2647,
      "κά": 2648,
      "ποιη": 2649,
      "ρίαν": 2650,
      "αὖ": 2651,
      "χεῖ": 2652,
      "αὐτὸ": 2653,
      "ἀδελ": 2654,
      "αὐτό": 2655,
      "δων": 2656,
      "θος": 2657,
      "μπο": 2658,
      "γχ": 2659,
      "μένον": 2660,
      "ψυχη": 2661,
      "ἡμᾶς": 2662,
      "παρέ": 2663,
      "Τί": 2664,
      "ής": 2665,
      "ρού": 2666,
      "μου,": 2667,
      "ἔφη": 2668,
      "εύ": 2669,
      "οῖς": 2670,
      "Λα": 2671,
      "βασιλέ": 2672,
      "μω": 2673,
      "κῶς": 2674,
      "ριν": 2675,
      "ΟΝ": 2676,
      "σὶ": 2677,
      "των,": 2678,
      "ριος": 2679,
      "εκ": 2680,
      "έναι": 2681,
      "4.": 2682,
      "σια": 2683,
      "προς": 2684,
      "λαν": 2685,
      "στις": 2686,
      "βέ": 2687,
      "er": 2688,
      "ἰδί": 2689,
      "όντες": 2690,
      "χρή": 2691,
      "ὅμως": 2692,
      "διότι": 2693,
      "Α.": 2694,
      "ἀπα": 2695,
      "οὗτος": 2696,
      "γή": 2697,
      "χί": 2698,
      "οντα": 2699,
      "απο": 2700,
      "γων": 2701,
      "φιλο": 2702,
      "κὰ": 2703,
      "Οἱ": 2704,
      "ἐπέ": 2705,
      "ποίη": 2706,
      "ἐκεῖ": 2707,
      "ὑμῖν": 2708,
      "ἐνε": 2709,
      "θην": 2710,
      "σή": 2711,
      "ἑκά": 2712,
      "βαί": 2713,
      "λῆς": 2714,
      "δῆ": 2715,
      "πολε": 2716,
      "ῤῥ": 2717,
      "ἔκ": 2718,
      "ῇ": 2719,
      "θέ": 2720,
      "μετέ": 2721,
      "ης": 2722,
      "κόν": 2723,
      "ἑτέ": 2724,
      "λλι": 2725,
      "ταύτην": 2726,
      "λὴν": 2727,
      "μάλιστα": 2728,
      "μέχρι": 2729,
      "ἔσ": 2730,
      "θεω": 2731,
      "΄.": 2732,
      "πλή": 2733,
      "ας.": 2734,
      "γενέ": 2735,
      "ὀλί": 2736,
      "εἰπ": 2737,
      "ρία": 2738,
      "6.": 2739,
      "30": 2740,
      "διο": 2741,
      "ἐπα": 2742,
      "σεται": 2743,
      "πρω": 2744,
      "μένοι": 2745,
      "Ῥ": 2746,
      "Επι": 2747,
      "έπει": 2748,
      "νομα": 2749,
      "δευ": 2750,
      "Ἐν": 2751,
      "λῶν": 2752,
      "ξιν": 2753,
      "νυν": 2754,
      "χου": 2755,
      "τ'": 2756,
      "ὑμῶν": 2757,
      "ΑΝ": 2758,
      "τεῖ": 2759,
      "μας": 2760,
      "ἁγί": 2761,
      "ἰσχ": 2762,
      "εἶν": 2763,
      "ἀρι": 2764,
      "σεων": 2765,
      "͂σι": 2766,
      "όμενοι": 2767,
      "φω": 2768,
      "σμο": 2769,
      "αῦτα": 2770,
      "'.": 2771,
      "ἐπεὶ": 2772,
      "ύν": 2773,
      "17": 2774,
      "σεως,": 2775,
      "αὕ": 2776,
      "ποῦ": 2777,
      "χέ": 2778,
      "σαντες": 2779,
      "κος": 2780,
      "Ἐκ": 2781,
      "Ἔ": 2782,
      "ών": 2783,
      "αἴ": 2784,
      "ντι": 2785,
      "θεὶς": 2786,
      "νετο": 2787,
      "ἀκού": 2788,
      "σὺ": 2789,
      "σβ": 2790,
      "όμενον": 2791,
      "τὴ": 2792,
      "3.": 2793,
      "ζεται": 2794,
      "αὐτοῦ,": 2795,
      "αὕτη": 2796,
      "χαι": 2797,
      "Σα": 2798,
      "᾿Αλλ": 2799,
      "κων": 2800,
      "ΙΚ": 2801,
      "λαμβάν": 2802,
      "δες": 2803,
      "τή": 2804,
      "ουσιν": 2805,
      "οπο": 2806,
      "ρὰ": 2807,
      "πλέ": 2808,
      "δικαί": 2809,
      "ορ": 2810,
      "ρωπα": 2811,
      "ἁμαρ": 2812,
      "ἀναγ": 2813,
      "ὤ": 2814,
      "πέμ": 2815,
      "Δε": 2816,
      "σθεν": 2817,
      "πρῶτον": 2818,
      "ἄλλο": 2819,
      "πόλει": 2820,
      "ὃ": 2821,
      "οὐραν": 2822,
      "ἄρα": 2823,
      "δόν": 2824,
      "τελευ": 2825,
      "ου.": 2826,
      "χυ": 2827,
      "ὃν": 2828,
      "φον": 2829,
      "τ.": 2830,
      "ειν.": 2831,
      "θησαν": 2832,
      "ὑπη": 2833,
      "πολλὰ": 2834,
      "τῆ": 2835,
      "12": 2836,
      "ἅμα": 2837,
      "῎": 2838,
      "εδ": 2839,
      "σία": 2840,
      "βρα": 2841,
      "ὑπερ": 2842,
      "14": 2843,
      "πή": 2844,
      "ία": 2845,
      "λαί": 2846,
      "πὸν": 2847,
      "μεῖ": 2848,
      "κιν": 2849,
      "αντί": 2850,
      "γκη": 2851,
      "τό": 2852,
      "Ὅ": 2853,
      "τυχ": 2854,
      "δεύ": 2855,
      "ἃ": 2856,
      "νομί": 2857,
      "στρατι": 2858,
      "ὅτε": 2859,
      "τας,": 2860,
      "οὐδ᾽": 2861,
      "Προ": 2862,
      "χος": 2863,
      "οῦ,": 2864,
      "συνέ": 2865,
      "τοὶ": 2866,
      "συνα": 2867,
      "λληνι": 2868,
      "ὑπάρχ": 2869,
      "εὶ": 2870,
      "λλο": 2871,
      "ᾧ": 2872,
      "μά": 2873,
      "κεφα": 2874,
      "σό": 2875,
      "πρέ": 2876,
      "βλέ": 2877,
      "σὶν": 2878,
      "ἔλε": 2879,
      "ἄρθ": 2880,
      "ἀρε": 2881,
      "κονο": 2882,
      "θῆναι": 2883,
      "χεί": 2884,
      "πολέ": 2885,
      "γγ": 2886,
      "εν,": 2887,
      "ματα,": 2888,
      "ρωπαϊ": 2889,
      "ἐξα": 2890,
      "ψα": 2891,
      "ἄλλων": 2892,
      "βαι": 2893,
      "λού": 2894,
      "ίας": 2895,
      "͂ͅ,": 2896,
      "ρώ": 2897,
      "ια": 2898,
      "ΑΤ": 2899,
      "λέγε": 2900,
      "ὃς": 2901,
      "τοῦτον": 2902,
      "μένος": 2903,
      "τος.": 2904,
      "ἕκα": 2905,
      "ντων": 2906,
      "νῶν": 2907,
      "σθέν": 2908,
      "αὐτὰ": 2909,
      "οῖ": 2910,
      "μ.": 2911,
      "ΕΡ": 2912,
      "κοντα": 2913,
      "σὺν": 2914,
      "5.": 2915,
      "ἐκκλη": 2916,
      "ταῦθα": 2917,
      "πά": 2918,
      "περί": 2919,
      "τοιαύ": 2920,
      "χή": 2921,
      "ξά": 2922,
      "ἐγέ": 2923,
      "Δη": 2924,
      "Αὐ": 2925,
      "ναυ": 2926,
      "τρὸς": 2927,
      "ἄρχ": 2928,
      "μιν": 2929,
      "16": 2930,
      "μοὶ": 2931,
      "ττον": 2932,
      "τητα": 2933,
      "ξαι": 2934,
      "Τοῦ": 2935,
      "ἀξι": 2936,
      "πλεί": 2937,
      "στοι": 2938,
      "της,": 2939,
      "μα,": 2940,
      "λλή": 2941,
      "ἀντὶ": 2942,
      "λί": 2943,
      "͂ς.": 2944,
      "χρυ": 2945,
      "Ἰη": 2946,
      "ἄνδ": 2947,
      "τινες": 2948,
      "λην": 2949,
      "αντι": 2950,
      "αν.": 2951,
      "πρό": 2952,
      "ζων": 2953,
      "τούτοις": 2954,
      "γραμ": 2955,
      "πλά": 2956,
      "στου": 2957,
      "γυναι": 2958,
      "ἐξέ": 2959,
      "πους": 2960,
      "θῆ": 2961,
      "σκό": 2962,
      "μό": 2963,
      "πνευ": 2964,
      "λως": 2965,
      "οἷ": 2966,
      "μία": 2967,
      "τροπ": 2968,
      "αὐτῇ": 2969,
      "αυτό": 2970,
      "ζή": 2971,
      "ΑΡ": 2972,
      "πόλεως": 2973,
      "οἷς": 2974,
      "ἀλλή": 2975,
      "ους,": 2976,
      "δὲ,": 2977,
      "ουσα": 2978,
      "βάλλ": 2979,
      "κτι": 2980,
      "ἀνη": 2981,
      "κατη": 2982,
      "ταύτης": 2983,
      "ζειν": 2984,
      "θαυ": 2985,
      "αρχ": 2986,
      "ροῦν": 2987,
      "ὰς": 2988,
      "πρέπει": 2989,
      "εἶνε": 2990,
      "καθ᾽": 2991,
      "μένοις": 2992,
      "τοιοῦ": 2993,
      "ανι": 2994,
      "προσε": 2995,
      "ρμο": 2996,
      "τούτῳ": 2997,
      "διέ": 2998,
      "γράφ": 2999,
      "ὅπερ": 3000,
      "δι'": 3001,
      "μῳ": 3002,
      "πτε": 3003,
      "8.": 3004,
      "ξεως": 3005,
      "δίκη": 3006,
      "λόγον": 3007,
      "δύναται": 3008,
      "ὀρθ": 3009,
      "φορα": 3010,
      "οἵ": 3011,
      "῎Α": 3012,
      "τίς": 3013,
      "βό": 3014,
      "in": 3015,
      "πτω": 3016,
      "λης": 3017,
      "πόλι": 3018,
      "βλη": 3019,
      "7.": 3020,
      "ὑπό": 3021,
      "Ἱ": 3022,
      "Ἕ": 3023,
      "πάντες": 3024,
      "τική": 3025,
      "Θεὸς": 3026,
      "κοινων": 3027,
      "ονται": 3028,
      "πολὺ": 3029,
      "ριε": 3030,
      "λῳ": 3031,
      "ρον,": 3032,
      "ἀλλ'": 3033,
      "δεσ": 3034,
      "υπο": 3035,
      "παρ'": 3036,
      "γενο": 3037,
      "δίκαι": 3038,
      "͂ται": 3039,
      "ἅπαν": 3040,
      "νους": 3041,
      "κις": 3042,
      "Πέ": 3043,
      "ΕΝ": 3044,
      "εῖν.": 3045,
      "ραί": 3046,
      "Ἰου": 3047,
      "κας": 3048,
      "τειν": 3049,
      "εἶπε": 3050,
      "ξύ": 3051,
      "πρι": 3052,
      "ν·": 3053,
      "εὔ": 3054,
      "ποτα": 3055,
      "ποιεῖ": 3056,
      "θί": 3057,
      "ει,": 3058,
      "ἦσαν": 3059,
      "ρος,": 3060,
      "νὸν": 3061,
      "9.": 3062,
      "φρα": 3063,
      "ἧς": 3064,
      "σκη": 3065,
      "ὅσον": 3066,
      "μίας": 3067,
      "γύ": 3068,
      "βασιλευ": 3069,
      "ὅσα": 3070,
      "ἐπειδὴ": 3071,
      "σε,": 3072,
      "πιστε": 3073,
      "ΑΛ": 3074,
      "σως": 3075,
      "σπου": 3076,
      "διδά": 3077,
      "ὁποι": 3078,
      "τικά": 3079,
      "κής": 3080,
      "πώ": 3081,
      "Κο": 3082,
      "λίαν": 3083,
      "ἔπει": 3084,
      "στω": 3085,
      "πατρι": 3086,
      "μύ": 3087,
      "ὑμᾶς": 3088,
      "θον": 3089,
      "εἶπεν": 3090,
      "πρότερον": 3091,
      "γεγον": 3092,
      "οἷον": 3093,
      "ἀνάγκη": 3094,
      "αι,": 3095,
      "σας,": 3096,
      "πραγ": 3097,
      "ἐλ": 3098,
      "ρίων": 3099,
      "δι᾽": 3100,
      "στος": 3101,
      "εἰρη": 3102,
      "δι᾿": 3103,
      "ἔμ": 3104,
      "παῖ": 3105,
      "11": 3106,
      "στρατη": 3107,
      "οὐδε": 3108,
      "ἵπ": 3109,
      "ρμα": 3110,
      "τρε": 3111,
      "δης": 3112,
      "μους": 3113,
      "Ι.": 3114,
      "τοιού": 3115,
      "λόγος": 3116,
      "μενος,": 3117,
      "τί": 3118,
      "ξεις": 3119,
      "χὶ": 3120,
      "λεγ": 3121,
      "Ὑ": 3122,
      "αἰτί": 3123,
      "τὶ": 3124,
      "εἴη": 3125,
      "θεί": 3126,
      "προσέ": 3127,
      "εὖ": 3128,
      "σχο": 3129,
      "Σι": 3130,
      "ΟΣ.": 3131,
      "τέρων": 3132,
      "ἀριθ": 3133,
      "λῃ": 3134,
      "λαμ": 3135,
      "τά": 3136,
      "ροις": 3137,
      "δρο": 3138,
      "λας": 3139,
      "τα.": 3140,
      "en": 3141,
      "͂σιν": 3142,
      "ἕνε": 3143,
      "Περὶ": 3144,
      "...": 3145,
      "ἐνταῦθα": 3146,
      "ἀδι": 3147,
      "γραφ": 3148,
      "Ἰω": 3149,
      "τέκ": 3150,
      "ἄλλα": 3151,
      "τερος": 3152,
      "πᾶν": 3153,
      "ὶ": 3154,
      "ἐλά": 3155,
      "τικῶν": 3156,
      "et": 3157,
      "διδα": 3158,
      "τοίνυν": 3159,
      "ἀμφι": 3160,
      "καὶ": 3161,
      "σῳ": 3162,
      "πολλά": 3163,
      "μαι,": 3164,
      "ούσης": 3165,
      "ω,": 3166,
      "πόλιν": 3167,
      "ἐχθ": 3168,
      "μήτε": 3169,
      "σῶν": 3170,
      "θαλ": 3171,
      "θηναί": 3172,
      "ρεῖς": 3173,
      "τός": 3174,
      "θάνα": 3175,
      "καθα": 3176,
      "θανά": 3177,
      "σα,": 3178,
      "ἔθ": 3179,
      "φησι": 3180,
      "φορ": 3181,
      "ἐναντί": 3182,
      "Χριστοῦ": 3183,
      "επί": 3184,
      "ρ,": 3185,
      "θείας": 3186,
      "λοῦν": 3187,
      "Γα": 3188,
      "κτή": 3189,
      "ται·": 3190,
      "διον": 3191,
      "λοῦ": 3192,
      "ρα,": 3193,
      "ψαν": 3194,
      "ρονο": 3195,
      "θεσ": 3196,
      "οὗτοι": 3197,
      "λίου": 3198,
      "πύ": 3199,
      "κατά": 3200,
      "ρᾳ": 3201,
      "ανο": 3202,
      "γυναῖ": 3203,
      "φαι": 3204,
      "παρ᾽": 3205,
      "τρά": 3206,
      "ξὺ": 3207,
      "σης,": 3208,
      "μεγα": 3209,
      "εἴτε": 3210,
      "ῥη": 3211,
      "στερον": 3212,
      "οντος": 3213,
      "λιο": 3214,
      "ωμα": 3215,
      "ἕνα": 3216,
      "μώ": 3217,
      "Πά": 3218,
      "κοῦν": 3219,
      "λασ": 3220,
      "στυ": 3221,
      "μένῳ": 3222,
      "τῶν,": 3223,
      "του.": 3224,
      "κολου": 3225,
      "παί": 3226,
      "Ἐπει": 3227,
      "μέγα": 3228,
      "ΟΡ": 3229,
      "00": 3230,
      "Τὰ": 3231,
      "Φι": 3232,
      "νῆ": 3233,
      "λίας": 3234,
      "φέρον": 3235,
      "ἑαυτοῦ": 3236,
      "ἐστὶ": 3237,
      "ἔχων": 3238,
      "Επιτροπ": 3239,
      "φρά": 3240,
      "ξο": 3241,
      "ΑΣ": 3242,
      "εῖς": 3243,
      "μηδὲ": 3244,
      "μαθη": 3245,
      "δῶ": 3246,
      "ριστο": 3247,
      "ἐνέ": 3248,
      "ἦτο": 3249,
      "βιβ": 3250,
      "σατο": 3251,
      "γῆν": 3252,
      "δεικ": 3253,
      "οὐχὶ": 3254,
      "ἐστὶν": 3255,
      "ἰσχυ": 3256,
      "Ὀ": 3257,
      "δικαιο": 3258,
      "πραγμα": 3259,
      "Σε": 3260,
      "θῶ": 3261,
      "λύ": 3262,
      "πτον": 3263,
      "μαρτυ": 3264,
      "Εκ": 3265,
      "πράγ": 3266,
      "πῳ": 3267,
      "II": 3268,
      "δὸν": 3269,
      "ἡμεῖς": 3270,
      "ὁμοί": 3271,
      "ὁποί": 3272,
      "Ἐπι": 3273,
      "σ᾽": 3274,
      "λείας": 3275,
      "».": 3276,
      "κρυ": 3277,
      "καθ᾿": 3278,
      "ἕως": 3279,
      "πᾶσαν": 3280,
      "μνή": 3281,
      "ὄνομα": 3282,
      "γραφη": 3283,
      "σιον": 3284,
      "ὑπέ": 3285,
      "οὐδέ": 3286,
      "πρᾶ": 3287,
      "Κων": 3288,
      "κού": 3289,
      "σκα": 3290,
      "κατ'": 3291,
      "γεί": 3292,
      "ῶν.": 3293,
      "καρδί": 3294,
      "λό": 3295,
      "ΟΛ": 3296,
      "οντο": 3297,
      "άρ": 3298,
      "πλέον": 3299,
      "σουμε": 3300,
      "τέ": 3301,
      "μεν.": 3302,
      "κλή": 3303,
      "ἄνω": 3304,
      "μισθ": 3305,
      "αὐτο": 3306,
      "ἱπ": 3307,
      "λθεν": 3308,
      "λεν": 3309,
      "an": 3310,
      "σαν.": 3311,
      "νομο": 3312,
      "φυλά": 3313,
      "ἐπ᾿": 3314,
      "ρῷ": 3315,
      "σὲ": 3316,
      "on": 3317,
      "αὐτοὶ": 3318,
      "Ευρωπαϊ": 3319,
      "ἐλθ": 3320,
      "1)": 3321,
      "ἐλευ": 3322,
      "κῇ": 3323,
      "',": 3324,
      "σιν·": 3325,
      "πέν": 3326,
      "κίας": 3327,
      "Σω": 3328,
      "πρεσβ": 3329,
      "us": 3330,
      "εἶναι,": 3331,
      "εὺς": 3332,
      "λὴ": 3333,
      "διώ": 3334,
      "ξις": 3335,
      "ἱστο": 3336,
      "γού": 3337,
      "σκέ": 3338,
      "it": 3339,
      "φέρει": 3340,
      "εἶχε": 3341,
      "Μι": 3342,
      "όντα": 3343,
      "χό": 3344,
      "ιε": 3345,
      "μης": 3346,
      "Αν": 3347,
      "σεν,": 3348,
      "ξῃ": 3349,
      "σου,": 3350,
      "κόσ": 3351,
      "μέρος": 3352,
      "ἀεὶ": 3353,
      "σις,": 3354,
      "δοῦ": 3355,
      "Εἰς": 3356,
      "ἔξω": 3357,
      "ρή": 3358,
      "σοφί": 3359,
      "παλαι": 3360,
      "δεὶς": 3361,
      "ὀργ": 3362,
      "πονη": 3363,
      "μάτων,": 3364,
      "ἔχειν": 3365,
      "μὸς": 3366,
      "ρως": 3367,
      "ἀναι": 3368,
      "εἱ": 3369,
      "ἐκείνου": 3370,
      "κης": 3371,
      "λέγων": 3372,
      "στρέ": 3373,
      "αὐτοῦ.": 3374,
      "δυσ": 3375,
      "τικό": 3376,
      "Νι": 3377,
      "τι,": 3378,
      "χρε": 3379,
      "φεύ": 3380,
      "ἄνευ": 3381,
      "φῶν": 3382,
      "ρᾶς": 3383,
      "δαιμον": 3384,
      "Ἠ": 3385,
      "σασθαι": 3386,
      "ρων,": 3387,
      "ἐθ": 3388,
      "ίων": 3389,
      "δού": 3390,
      "χωρι": 3391,
      "αρ": 3392,
      "αὐτῶν,": 3393,
      "γὴν": 3394,
      "Υἱ": 3395,
      "ργά": 3396,
      "μηδὲν": 3397,
      "Εν": 3398,
      "ὀφθαλ": 3399,
      "κὰς": 3400,
      "σαρ": 3401,
      "ναῖ": 3402,
      "μορ": 3403,
      "ὅστις": 3404,
      "ἀσ": 3405,
      "σῶμα": 3406,
      "ανε": 3407,
      "φῶς": 3408,
      "ταὶ": 3409,
      "σεις,": 3410,
      "ἀνθρώπων": 3411,
      "κατ᾽": 3412,
      "χάρι": 3413,
      "Ῥω": 3414,
      "χωρί": 3415,
      "θεο": 3416,
      "κλέ": 3417,
      "ὀνό": 3418,
      "ἐνα": 3419,
      "εῖται": 3420,
      "λόγῳ": 3421,
      "εὐθυ": 3422,
      "μετ᾿": 3423,
      "νὶ": 3424,
      "λῶ": 3425,
      "μονα": 3426,
      "μένων,": 3427,
      "νοῦν": 3428,
      "τεροι": 3429,
      "͂,": 3430,
      "ἐγένετο": 3431,
      "ϋ": 3432,
      "άρχ": 3433,
      "πάντας": 3434,
      "δέν": 3435,
      "γοῦν": 3436,
      "νεκ": 3437,
      "χων": 3438,
      "μεταξὺ": 3439,
      "θεοῦ": 3440,
      "λθε": 3441,
      "Θεο": 3442,
      "ἧ": 3443,
      "Σ.": 3444,
      "πεμ": 3445,
      "ξέ": 3446,
      "τὴς": 3447,
      "λοιπὸν": 3448,
      "ἀργ": 3449,
      "Το": 3450,
      "Τι": 3451,
      "σχέ": 3452,
      "λοις": 3453,
      "μακ": 3454,
      "ἄλλοι": 3455,
      "ἄγ": 3456,
      "ἀντί": 3457,
      "ρὰν": 3458,
      "πον,": 3459,
      "ζου": 3460,
      "ᾗ": 3461,
      "Ἕλλη": 3462,
      "οποί": 3463,
      "ωτέ": 3464,
      "Κοι": 3465,
      "πλεῖ": 3466,
      "κτ": 3467,
      "γίνεται": 3468,
      "νειν": 3469,
      "ἀγο": 3470,
      "σθή": 3471,
      "νὴ": 3472,
      "ψιν": 3473,
      "τικὸν": 3474,
      "φυλα": 3475,
      "ριά": 3476,
      "σίᾳ": 3477,
      "ἐλπί": 3478,
      "ψει": 3479,
      "es": 3480,
      "θό": 3481,
      "σμοῦ": 3482,
      "Διὰ": 3483,
      "ο,": 3484,
      "is": 3485,
      "μου.": 3486,
      "τελέ": 3487,
      "καλῶς": 3488,
      "Μ.": 3489,
      "ἔστιν": 3490,
      "σχη": 3491,
      "γόν": 3492,
      "νῳ": 3493,
      "ἓν": 3494,
      "αἵ": 3495,
      "ἐποίη": 3496,
      "τρόπον": 3497,
      "χαν": 3498,
      "ον·": 3499,
      "ματος,": 3500,
      "ὅπου": 3501,
      "ὼς": 3502,
      "ρε,": 3503,
      "ἱκαν": 3504,
      "πλε": 3505,
      "οὓς": 3506,
      "ουργ": 3507,
      "or": 3508,
      "πατρί": 3509,
      "ίου": 3510,
      "παντὸς": 3511,
      "ἀνή": 3512,
      "κατο": 3513,
      "λέ": 3514,
      "νοῦ": 3515,
      "Β.": 3516,
      "τέχ": 3517,
      "at": 3518,
      "ἀλλ᾿": 3519,
      "σαι,": 3520,
      "τελε": 3521,
      "ἀπη": 3522,
      "ΙΔ": 3523,
      "Κωνστα": 3524,
      "λος,": 3525,
      "εσθαι": 3526,
      "δεῖν": 3527,
      "πλο": 3528,
      "μάχη": 3529,
      "ώς": 3530,
      "μάρ": 3531,
      "ἐνεργ": 3532,
      "δῶν": 3533,
      "σων": 3534,
      "Ε.": 3535,
      "τὴρ": 3536,
      "χοι": 3537,
      "35": 3538,
      "ένα": 3539,
      "θέλει": 3540,
      "λιον": 3541,
      "Ὡ": 3542,
      "λέγειν": 3543,
      "ἥτις": 3544,
      "πάσης": 3545,
      "όν,": 3546,
      "24": 3547,
      "δοκεῖ": 3548,
      "τινος": 3549,
      "d.": 3550,
      "λή": 3551,
      "θαρ": 3552,
      "ασ": 3553,
      "γ᾽": 3554,
      "τικῆς": 3555,
      "δαν": 3556,
      "Λακε": 3557,
      "ἀνδρῶν": 3558,
      "βοη": 3559,
      "ΤΟΥ": 3560,
      "θέντα": 3561,
      "κατ᾿": 3562,
      "λόγου": 3563,
      "μέντοι": 3564,
      "ψευ": 3565,
      "ἔσται": 3566,
      "ἀκρι": 3567,
      "μῆς": 3568,
      "πολλῶν": 3569,
      "τήν": 3570,
      "ἐφ᾽": 3571,
      "πρόσω": 3572,
      "βασιλεὺς": 3573,
      "γγέ": 3574,
      "᾿Αλλὰ": 3575,
      "γενέσθαι": 3576,
      "τεχ": 3577,
      "ωσιν": 3578,
      "μοί": 3579,
      "φάν": 3580,
      "Γε": 3581,
      "προση": 3582,
      "στρο": 3583,
      "Ἱε": 3584,
      "ἤτοι": 3585,
      "ΠΡ": 3586,
      "εἰρή": 3587,
      "πνεύ": 3588,
      "πρὶν": 3589,
      "ἀγά": 3590,
      "σι.": 3591,
      "πλῆ": 3592,
      "ρης": 3593,
      "πλὴν": 3594,
      "χαί": 3595,
      "π.": 3596,
      "κἂν": 3597,
      "Συν": 3598,
      "ἐσ": 3599,
      "στει": 3600,
      "ἁπλ": 3601,
      "προι": 3602,
      "ἡμέρας": 3603,
      "όντος": 3604,
      "σεως.": 3605,
      "ΕΥ": 3606,
      "τινὰ": 3607,
      "βή": 3608,
      "καθά": 3609,
      "πρέπει": 3610,
      "ἅπα": 3611,
      "μένας": 3612,
      "ρᾷ": 3613,
      "συνή": 3614,
      "μον,": 3615,
      "Ἐκκλη": 3616,
      "ἐξη": 3617,
      "σάν": 3618,
      "ἐμοὶ": 3619,
      "um": 3620,
      "κλει": 3621,
      "λον,": 3622,
      "ἁρ": 3623,
      "βυ": 3624,
      "αυτή": 3625,
      "ού": 3626,
      "Δα": 3627,
      "λὸν": 3628,
      "σουν": 3629,
      "σί": 3630,
      "φει": 3631,
      "τιον": 3632,
      "διη": 3633,
      "σρα": 3634,
      "τατον": 3635,
      "ζώ": 3636,
      "ργει": 3637,
      "νεσθαι": 3638,
      "δεκα": 3639,
      "Χα": 3640,
      "ρας,": 3641,
      "των.": 3642,
      "ἀπαι": 3643,
      "φυσι": 3644,
      "νης,": 3645,
      "κεῖν": 3646,
      "θαλά": 3647,
      "φρο": 3648,
      "ἑαυτὸν": 3649,
      "τοῦν": 3650,
      "ρεν": 3651,
      "ὑπα": 3652,
      "ἡγε": 3653,
      "ους.": 3654,
      "ἐπο": 3655,
      "νόμου": 3656,
      "τέλος": 3657,
      "ὴλ": 3658,
      "ἔχον": 3659,
      "μετά": 3660,
      "σία": 3661,
      "φανε": 3662,
      "φος": 3663,
      "ἔγ": 3664,
      "ΕΛ": 3665,
      "40": 3666,
      "Αλλ": 3667,
      "ρῃ": 3668,
      "στιν": 3669,
      "ἔνθα": 3670,
      "χρόνον": 3671,
      "λῆ": 3672,
      "σίου": 3673,
      "ε,": 3674,
      "ἕνεκα": 3675,
      "Θεὸν": 3676,
      "δεξι": 3677,
      "προε": 3678,
      "ομεν": 3679,
      "περιέ": 3680,
      "δ.": 3681,
      "αἰῶν": 3682,
      "διατά": 3683,
      "χεν": 3684,
      "διω": 3685,
      "ταύτῃ": 3686,
      "σίων": 3687,
      "23": 3688,
      "ΙΛ": 3689,
      "σει,": 3690,
      "φησί": 3691,
      "λῶς": 3692,
      "παθ": 3693,
      "μέγ": 3694,
      "βασιλέως": 3695,
      "Επιτροπή": 3696,
      "ταις": 3697,
      "μερι": 3698,
      "ἐπιθυ": 3699,
      "σσον": 3700,
      "τὸ": 3701,
      "κατηγο": 3702,
      "ΗΝ": 3703,
      "μ᾽": 3704,
      "οἰκο": 3705,
      "πολεμί": 3706,
      "τεῦ": 3707,
      "λαβὼν": 3708,
      "τερι": 3709,
      "ἔπειτα": 3710,
      "ντα": 3711,
      "ἄξι": 3712,
      "βω": 3713,
      "θέντες": 3714,
      "τροπο": 3715,
      "ρίῳ": 3716,
      "͂σθαι": 3717,
      "ἕτερον": 3718,
      "ἄνδρα": 3719,
      "πουργ": 3720,
      "εὐθὺς": 3721,
      "φέρ": 3722,
      "πεύ": 3723,
      "βαλ": 3724,
      "ματα.": 3725,
      "θυν": 3726,
      "λατ": 3727,
      "λλει": 3728,
      "οις,": 3729,
      "Μω": 3730,
      "Πρό": 3731,
      "νομά": 3732,
      "αἰσχ": 3733,
      "ΣΤ": 3734,
      "λλων": 3735,
      "22": 3736,
      "ζονται": 3737,
      "εἰκό": 3738,
      "ριστι": 3739,
      "ξῆς": 3740,
      "Ρω": 3741,
      "ῷ,": 3742,
      "έχει": 3743,
      "χάριν": 3744,
      "περιε": 3745,
      "διαι": 3746,
      "γραμμα": 3747,
      "ἀγω": 3748,
      "θου": 3749,
      "Ἰησου": 3750,
      "λια": 3751,
      "ἤθε": 3752,
      "͂α": 3753,
      "ἐργα": 3754,
      "πιστεύ": 3755,
      "ἐστί": 3756,
      "ar": 3757,
      "σάμενος": 3758,
      "κίαν": 3759,
      "σκευά": 3760,
      "Κ.": 3761,
      "δημι": 3762,
      "Ἑλλά": 3763,
      "αὑτοῦ": 3764,
      "τοιαῦτα": 3765,
      "γίγ": 3766,
      "φοι": 3767,
      "κτα": 3768,
      "Ρ.": 3769,
      "δυνάμει": 3770,
      "πολλάκις": 3771,
      "τικοῦ": 3772,
      "om": 3773,
      "κες": 3774,
      "ξέν": 3775,
      "ρμη": 3776,
      "τερο": 3777,
      "οὖ": 3778,
      "μού": 3779,
      "εὶς": 3780,
      "ν᾿": 3781,
      "σαύ": 3782,
      "λαύ": 3783,
      "αλλ": 3784,
      "προσω": 3785,
      "ενε": 3786,
      "πού": 3787,
      "σωμεν": 3788,
      "ταχ": 3789,
      "ΟΜ": 3790,
      "σωτη": 3791,
      "δρά": 3792,
      "βαρ": 3793,
      "φέ": 3794,
      "ἑνὸς": 3795,
      "τια": 3796,
      "τιμω": 3797,
      "Συμβ": 3798,
      "Δια": 3799,
      "δρό": 3800,
      "σος": 3801,
      "26": 3802,
      "σίας,": 3803,
      "qu": 3804,
      "να,": 3805,
      "φώ": 3806,
      "σ.": 3807,
      "κοί": 3808,
      "Λέ": 3809,
      "ΘΕ": 3810,
      "ὢν": 3811,
      "ἀνὴρ": 3812,
      "δος,": 3813,
      "ᾳ,": 3814,
      "ξας": 3815,
      "ἡμέραν": 3816,
      "εἴρη": 3817,
      "Λυ": 3818,
      "ἔφη,": 3819,
      "Εἶ": 3820,
      "τε.": 3821,
      "ἄλλως": 3822,
      "Μη": 3823,
      "χαρα": 3824,
      "Τὴν": 3825,
      "πτου": 3826,
      "περιο": 3827,
      "ͅ,": 3828,
      "ρχε": 3829,
      "κτί": 3830,
      "ποις": 3831,
      "δειν": 3832,
      "27": 3833,
      "πεζ": 3834,
      "ἐμοῦ": 3835,
      "Δ.": 3836,
      "λῇ": 3837,
      "Περ": 3838,
      "ότητος": 3839,
      "ὑπ᾽": 3840,
      "κοσ": 3841,
      "συμφων": 3842,
      "βασιλεί": 3843,
      "ρου,": 3844,
      "λλε": 3845,
      "γενε": 3846,
      "δοι": 3847,
      "λαβε": 3848,
      "ταυ": 3849,
      "νων,": 3850,
      "φέρε": 3851,
      "ἄνδρες": 3852,
      "l.": 3853,
      "ΑΓ": 3854,
      "δί": 3855,
      "τύχη": 3856,
      "ρῶς": 3857,
      "τέρας": 3858,
      "εν.": 3859,
      "βά": 3860,
      "αίρε": 3861,
      "τοσοῦ": 3862,
      "᾿Αν": 3863,
      "Οὕ": 3864,
      "γένη": 3865,
      "οὐδεὶς": 3866,
      "28": 3867,
      "λέγω": 3868,
      "ἀπει": 3869,
      "βερ": 3870,
      "ἐχ": 3871,
      "πολύ": 3872,
      "θερα": 3873,
      "κελεύ": 3874,
      "ἀπι": 3875,
      "λεπ": 3876,
      "τες.": 3877,
      "ἰα": 3878,
      "δα,": 3879,
      "ροὺς": 3880,
      "γος": 3881,
      "πολλοὶ": 3882,
      "τοῖσι": 3883,
      "σιος": 3884,
      "Αυ": 3885,
      "στεί": 3886,
      "ὁμοίως": 3887,
      "ἡμε": 3888,
      "στρά": 3889,
      "νονται": 3890,
      "όν.": 3891,
      "θω": 3892,
      "ἁμαρτί": 3893,
      "εξ": 3894,
      "μα.": 3895,
      "τυγχ": 3896,
      "τώ": 3897,
      "τέλε": 3898,
      "ποὺ": 3899,
      "τούτους": 3900,
      "μένως": 3901,
      "γενι": 3902,
      "γέγον": 3903,
      "ὅθεν": 3904,
      "ώς": 3905,
      "ἔργον": 3906,
      "πειν": 3907,
      "ἐπ᾽": 3908,
      "ἐξου": 3909,
      "φορά": 3910,
      "γινώ": 3911,
      "τοσ": 3912,
      "ἀνθρώπου": 3913,
      "ἴσως": 3914,
      "εἰπεῖν": 3915,
      "χώ": 3916,
      "ἐμὲ": 3917,
      "ύμε": 3918,
      "ός": 3919,
      "ἀνθρω": 3920,
      "ὑμεῖς": 3921,
      "͂ος": 3922,
      "σελ.": 3923,
      "εἶτα": 3924,
      "εσ": 3925,
      "της.": 3926,
      "κρύ": 3927,
      "χεται": 3928,
      "ἀρχὴν": 3929,
      "ἀδελφ": 3930,
      "μέτ": 3931,
      "2)": 3932,
      "σεβ": 3933,
      "ὥς": 3934,
      "ἐγώ": 3935,
      "νουν": 3936,
      "δʼ": 3937,
      "θους": 3938,
      "θέντος": 3939,
      "θη,": 3940,
      "χώρη": 3941,
      "πράτ": 3942,
      "Ἀλλ": 3943,
      "ἡμετέ": 3944,
      "γεῖ": 3945,
      "Πρόεδ": 3946,
      "ἀπή": 3947,
      "ρεῖν": 3948,
      "καλέ": 3949,
      "χαλ": 3950,
      "ότητα": 3951,
      "ἀποφά": 3952,
      "50": 3953,
      "κάτω": 3954,
      "θεὸς": 3955,
      "δυνάμε": 3956,
      "μερον": 3957,
      "ματί": 3958,
      "Π.": 3959,
      "ἀθ": 3960,
      "μαθ": 3961,
      "Τα": 3962,
      "πῶν": 3963,
      "ἐμπο": 3964,
      "κειται": 3965,
      "σπέ": 3966,
      "ἐκείνων": 3967,
      "χωρὶς": 3968,
      "ΕΙ": 3969,
      "κλί": 3970,
      "την,": 3971,
      "τείας": 3972,
      "μενον,": 3973,
      "οἳ": 3974,
      "σθω": 3975,
      "αὖθι": 3976,
      "ρ᾽": 3977,
      "τουργ": 3978,
      "θηναῖ": 3979,
      "χρὴ": 3980,
      "θερ": 3981,
      "ἀφι": 3982,
      "σομαι": 3983,
      "έκ": 3984,
      "ἔτη": 3985,
      "παύ": 3986,
      "ζυ": 3987,
      "ch": 3988,
      "ἐντὸς": 3989,
      "θ'": 3990,
      "λιπ": 3991,
      "λαυ": 3992,
      "ζεσθαι": 3993,
      "το·": 3994,
      "Ἰωάν": 3995,
      "ἀρχῆς": 3996,
      "δους": 3997,
      "σύ": 3998,
      "τοῦ": 3999,
      "βουλευ": 4000,
      "Τού": 4001,
      "ψυχῆς": 4002,
      "ἀπ᾿": 4003,
      "συνά": 4004,
      "Βου": 4005,
      "νομι": 4006,
      "Κύριος": 4007,
      "Κατὰ": 4008,
      "κῷ": 4009,
      "ΚΛ": 4010,
      "προσώ": 4011,
      "ἅγι": 4012,
      "29": 4013,
      "Κοινο": 4014,
      "θεῶν": 4015,
      "εῖναι": 4016,
      "21": 4017,
      "ἑλληνι": 4018,
      "κών": 4019,
      "ἐπά": 4020,
      "γένει": 4021,
      "ζήτη": 4022,
      "τεῦθεν": 4023,
      "πλευ": 4024,
      "ἔδω": 4025,
      "διά": 4026,
      "σημαν": 4027,
      "τυγχάν": 4028,
      "φύσιν": 4029,
      "θρη": 4030,
      "μεί": 4031,
      "φ.": 4032,
      "καθ'": 4033,
      "λία": 4034,
      "δοξ": 4035,
      "θηκε": 4036,
      "᾿Αρ": 4037,
      "πτει": 4038,
      "τικὴν": 4039,
      "καθάπερ": 4040,
      "ονι": 4041,
      "πτώ": 4042,
      "τέραν": 4043,
      "λά": 4044,
      "διοι": 4045,
      "πέ": 4046,
      "ἐκέ": 4047,
      "σμὸν": 4048,
      "Κά": 4049,
      "δέκα": 4050,
      "ροί": 4051,
      "τέλει": 4052,
      "τικῶς": 4053,
      "στὸν": 4054,
      "καλεῖ": 4055,
      "οῦσα": 4056,
      "ριον,": 4057,
      "σαντος": 4058,
      "Βασι": 4059,
      "κύκ": 4060,
      "θῃ": 4061,
      "στό": 4062,
      "ἄνθρωπος": 4063,
      "λλί": 4064,
      "κτω": 4065,
      "φαίνεται": 4066,
      "νεί": 4067,
      "ψας": 4068,
      "τρεῖς": 4069,
      "ξης": 4070,
      "ζητή": 4071,
      "σφι": 4072,
      "Καί": 4073,
      "ανά": 4074,
      "λάβη": 4075,
      "υἱὸς": 4076,
      "σονται": 4077,
      "γώ": 4078,
      "θὲν": 4079,
      "τέον": 4080,
      "ὄντα": 4081,
      "γυμ": 4082,
      "ἐκεῖνος": 4083,
      "στή": 4084,
      "πατρὸς": 4085,
      "μετε": 4086,
      "δεικνύ": 4087,
      "γῇ": 4088,
      "δοὺ": 4089,
      "σης.": 4090,
      "ψαι": 4091,
      "βει": 4092,
      "ἐφε": 4093,
      "ὁπό": 4094,
      "ρέ": 4095,
      "Ω.": 4096,
      "λόγων": 4097,
      "ός,": 4098,
      "προκει": 4099,
      "σιά": 4100,
      "νοις": 4101,
      "λθον": 4102,
      "αῖς": 4103,
      "λόγους": 4104,
      "λλήνων": 4105,
      "σύμ": 4106,
      "χ.": 4107,
      "μενοι,": 4108,
      "μοὺς": 4109,
      "δημιουργ": 4110,
      "τητος": 4111,
      "ὧ": 4112,
      "ματος.": 4113,
      "φά": 4114,
      "ΟΥΣ": 4115,
      "μῷ": 4116,
      "προσκ": 4117,
      "εὑρί": 4118,
      "Γ.": 4119,
      "Τὸν": 4120,
      "τῶ": 4121,
      "ρία": 4122,
      "ὕδω": 4123,
      "οντας": 4124,
      "ὀφεί": 4125,
      "πιον": 4126,
      "Σύ": 4127,
      "Κε": 4128,
      "σσε": 4129,
      "οἰκεί": 4130,
      "ἀσφα": 4131,
      "ληφ": 4132,
      "ση,": 4133,
      "Ένω": 4134,
      "ὕδα": 4135,
      "τοτε": 4136,
      "Τό": 4137,
      "όμενος,": 4138,
      "ἀξί": 4139,
      "ψεν": 4140,
      "Αἴ": 4141,
      "γεω": 4142,
      "χους": 4143,
      "νη,": 4144,
      "ἀμφο": 4145,
      "Νο": 4146,
      "θάν": 4147,
      "ρχεται": 4148,
      "κτον": 4149,
      "πρωτο": 4150,
      "ναί": 4151,
      "ἄμ": 4152,
      "φόν": 4153,
      "πτυ": 4154,
      "τική": 4155,
      "ἐπαν": 4156,
      "ν'": 4157,
      "αποτε": 4158,
      "ψω": 4159,
      "Οὐκ": 4160,
      "κές": 4161,
      "ύριε": 4162,
      "τάδε": 4163,
      "νού": 4164,
      "σθῇ": 4165,
      "de": 4166,
      "Ν.": 4167,
      "δόξ": 4168,
      "γνωρί": 4169,
      "θήκη": 4170,
      "Κι": 4171,
      "σεν.": 4172,
      "γενη": 4173,
      "ἡδον": 4174,
      "ΗΜ": 4175,
      "ἑπ": 4176,
      "ττα": 4177,
      "λιά": 4178,
      "τολ": 4179,
      "εἰσ": 4180,
      "Ἰουδαί": 4181,
      "Κυρίου": 4182,
      "σῃ,": 4183,
      "ἄλλους": 4184,
      "Ἴ": 4185,
      "δύναμιν": 4186,
      "ρῶν,": 4187,
      "συνο": 4188,
      "παρη": 4189,
      "ἐπαι": 4190,
      "θρα": 4191,
      "στασιν": 4192,
      "Οι": 4193,
      "αὐτὴ": 4194,
      "ἆ": 4195,
      "ΗΣ.": 4196,
      "αλλά": 4197,
      "νόμον": 4198,
      "ἦν,": 4199,
      "᾿Αθηναί": 4200,
      "χαρι": 4201,
      "ἑκα": 4202,
      "θνη": 4203,
      "ΕΚ": 4204,
      "τρυ": 4205,
      "στρε": 4206,
      "ὑπῆ": 4207,
      "ἐρω": 4208,
      "Ἐπειδὴ": 4209,
      "ποτὲ": 4210,
      "τετα": 4211,
      "ζα": 4212,
      "Ως": 4213,
      "νια": 4214,
      "ρκ": 4215,
      "ενο": 4216,
      "εἶχον": 4217,
      "λήθει": 4218,
      "προσή": 4219,
      "σκά": 4220,
      "πᾶσι": 4221,
      "τουτέ": 4222,
      "ρεί": 4223,
      "Αἱ": 4224,
      "κρο": 4225,
      "προη": 4226,
      "κινή": 4227,
      "χύ": 4228,
      "χὴν": 4229,
      "πεσ": 4230,
      "͂ν,": 4231,
      "καθε": 4232,
      "ἐλευθε": 4233,
      "ἀγάπη": 4234,
      "γὴ": 4235,
      "προφη": 4236,
      "οποία": 4237,
      "βελ": 4238,
      "σχυ": 4239,
      "ἀκό": 4240,
      "θαυμα": 4241,
      "ίη": 4242,
      "ψά": 4243,
      "πληρω": 4244,
      "Οἰ": 4245,
      "σημα": 4246,
      "οῦσι": 4247,
      "μφι": 4248,
      "ἕκαστον": 4249,
      "ες,": 4250,
      "ἄκ": 4251,
      "ur": 4252,
      "χώραν": 4253,
      "Ῥωμαί": 4254,
      "ἐκά": 4255,
      "κνυ": 4256,
      "Αρ": 4257,
      "Ταῦτα": 4258,
      "τοῦ,": 4259,
      "Σο": 4260,
      "πευ": 4261,
      "ίστα": 4262,
      "Η.": 4263,
      "σωσι": 4264,
      "ὕστερον": 4265,
      "στῶν": 4266,
      "Γρα": 4267,
      "εῦ": 4268,
      "δύ": 4269,
      "θέντων": 4270,
      "στους": 4271,
      "σειν": 4272,
      "χαλε": 4273,
      "ὗ": 4274,
      "πλησί": 4275,
      "῾Ο": 4276,
      "Λό": 4277,
      "τοῦτο,": 4278,
      "Πνεύ": 4279,
      "ἀφί": 4280,
      "θυγα": 4281,
      "45": 4282,
      "ῥή": 4283,
      "ο.": 4284,
      "ΟΓ": 4285,
      "προέ": 4286,
      "μοι,": 4287,
      "Ἰησοῦ": 4288,
      "ως.": 4289,
      "Φα": 4290,
      "Μέ": 4291,
      "ἀλλο": 4292,
      "εὐα": 4293,
      "αὐτού": 4294,
      "ἔδει": 4295,
      "ττε": 4296,
      "πρός": 4297,
      "ἄλλοις": 4298,
      "Τοῦτο": 4299,
      "Νό": 4300,
      "Πρόεδρε,": 4301,
      "Ἰσρα": 4302,
      "ἐξο": 4303,
      "νεται,": 4304,
      "δὲ": 4305,
      "ρίου,": 4306,
      "ἐπιστο": 4307,
      "γή": 4308,
      "χῆς": 4309,
      "ὁμολογ": 4310,
      "γῆ": 4311,
      "πολλοὺς": 4312,
      "ic": 4313,
      "pr": 4314,
      "αὐτῶν.": 4315,
      "κόσμ": 4316,
      "νὴν": 4317,
      "σημαί": 4318,
      "3)": 4319,
      "πίστε": 4320,
      "σματα": 4321,
      "μῃ": 4322,
      "βουλό": 4323,
      "σατε": 4324,
      "ἐπ'": 4325,
      "ἑξῆς": 4326,
      "Νε": 4327,
      "ποιεῖν": 4328,
      "1,": 4329,
      "εἶχεν": 4330,
      "συχ": 4331,
      "δύναν": 4332,
      "Κωνσταντι": 4333,
      "πτι": 4334,
      "ἐνώ": 4335,
      "ψυχ": 4336,
      "χουν": 4337,
      "Λι": 4338,
      "μεθα,": 4339,
      "αὖθις": 4340,
      "Ο.": 4341,
      "σκει": 4342,
      "φῆς": 4343,
      "ση.": 4344,
      "νῆς": 4345,
      "βούλε": 4346,
      "Μετὰ": 4347,
      "τού": 4348,
      "δικαιοσύ": 4349,
      "γκ": 4350,
      "ΡΑ": 4351,
      "τοιοῦτον": 4352,
      "λέγεται": 4353,
      "μερί": 4354,
      "πνεῦμα": 4355,
      "ὀλίγ": 4356,
      "ἐδό": 4357,
      "μος,": 4358,
      "κίνη": 4359,
      "μέλλον": 4360,
      "μαχ": 4361,
      "ΠΕΡ": 4362,
      "καθη": 4363,
      "όμενα": 4364,
      "πτί": 4365,
      "Ἑλληνι": 4366,
      "ὅλως": 4367,
      "δύναμι": 4368,
      "φόβ": 4369,
      "ἔχω": 4370,
      "᾿Ανα": 4371,
      "φὴν": 4372,
      "σώματος": 4373,
      "κοινο": 4374,
      "παρά": 4375,
      "παρου": 4376,
      "πολύ": 4377,
      "ᾷ": 4378,
      "μία": 4379,
      "μικρὸν": 4380,
      "τίθε": 4381,
      "V.": 4382,
      "Δημο": 4383,
      "ΤΟ": 4384,
      "εἷς": 4385,
      "γυναῖκα": 4386,
      "μένη,": 4387,
      "῾Ε": 4388,
      "με,": 4389,
      "ὑπ'": 4390,
      "κέναι": 4391,
      "παρο": 4392,
      "προστα": 4393,
      "μέγι": 4394,
      "ξανδ": 4395,
      "ξυν": 4396,
      "α·": 4397,
      "προφή": 4398,
      "λὰς": 4399,
      "θαλάσ": 4400,
      "καθὼς": 4401,
      "σπα": 4402,
      "δην": 4403,
      "ὑπηρε": 4404,
      "σις.": 4405,
      "κατοι": 4406,
      "σιω": 4407,
      "πάνυ": 4408,
      "ος·": 4409,
      "ραις": 4410,
      "γλυ": 4411,
      "γένοι": 4412,
      "μάρτυ": 4413,
      "ὑψη": 4414,
      "δαιμόν": 4415,
      "ρείας": 4416,
      "νοή": 4417,
      "ἀσθεν": 4418,
      "θάνατον": 4419,
      "πραγμάτων": 4420,
      "κλεί": 4421,
      "ρυθ": 4422,
      "ίᾳ": 4423,
      "μάλα": 4424,
      "Μὴ": 4425,
      "όντων,": 4426,
      "σύν": 4427,
      "σμού": 4428,
      "γὰρ,": 4429,
      "μοῦν": 4430,
      "νην,": 4431,
      "γιὰ": 4432,
      "ἐπεί": 4433,
      "κρά": 4434,
      "στάσεως": 4435,
      "καλύ": 4436,
      "γεται": 4437,
      "μην,": 4438,
      "τοσοῦτον": 4439,
      "πλει": 4440,
      "φθη": 4441,
      "ἰσχύ": 4442,
      "ἀρχι": 4443,
      "πεῖ": 4444,
      "παυ": 4445,
      "ιι": 4446,
      "ων·": 4447,
      "πέντε": 4448,
      "αὐτῷ,": 4449,
      "χειρο": 4450,
      "σθέ": 4451,
      "δείκνυ": 4452,
      "ΕΠ": 4453,
      "ἐνι": 4454,
      "σοὶ": 4455,
      "ὠφε": 4456,
      "ἐπιστή": 4457,
      "στ᾽": 4458,
      "σταυ": 4459,
      "σαντα": 4460,
      "πῦ": 4461,
      "εὕ": 4462,
      "Παν": 4463,
      "ἔφα": 4464,
      "έρ": 4465,
      "ρχι": 4466,
      "φύλα": 4467,
      "τιν": 4468,
      "γράμ": 4469,
      "ξατο": 4470,
      "μεναι": 4471,
      "σε.": 4472,
      "εργ": 4473,
      "λθὼν": 4474,
      "τ᾿": 4475,
      "πᾶσα": 4476,
      "Δὲν": 4477,
      "Ἐὰν": 4478,
      "p.": 4479,
      "σή": 4480,
      "κακῶς": 4481,
      "σὸν": 4482,
      "σμὸς": 4483,
      "ήθη": 4484,
      "πῃ": 4485,
      "μοις": 4486,
      "Πῶς": 4487,
      "ταὐ": 4488,
      "φ᾽": 4489,
      "ὁποῖον": 4490,
      "Πατρι": 4491,
      "δόξαν": 4492,
      "μηδε": 4493,
      "γκα": 4494,
      "μή": 4495,
      "όδου": 4496,
      "μέσον": 4497,
      "τρώ": 4498,
      "θαυμά": 4499,
      "στὴν": 4500,
      "ἀρχαί": 4501,
      "κεν,": 4502,
      "--": 4503,
      "ἔργα": 4504,
      "᾿Αθή": 4505,
      "ἐθέ": 4506,
      "πόλις": 4507,
      "κύριος": 4508,
      "κολού": 4509,
      "ὀρ": 4510,
      "Ου": 4511,
      "βεβαι": 4512,
      "ὁρ": 4513,
      "Θη": 4514,
      "ὅλον": 4515,
      "πλου": 4516,
      "φου": 4517,
      "σεις.": 4518,
      "λου,": 4519,
      "μένου,": 4520,
      "σίν": 4521,
      "πατὴρ": 4522,
      "σαυ": 4523,
      "ῆσαι": 4524,
      "ρουσα": 4525,
      "δοκι": 4526,
      "ἐστιν,": 4527,
      "πεται": 4528,
      "δὸς": 4529,
      "᾿Απο": 4530,
      "εἰσι": 4531,
      "λεγο": 4532,
      "πων,": 4533,
      "4)": 4534,
      "πατέρα": 4535,
      "διὸ": 4536,
      "νέ": 4537,
      "τινι": 4538,
      "κἀκ": 4539,
      "ἐλε": 4540,
      "μένους,": 4541,
      "πάσχ": 4542,
      "πολί": 4543,
      "χωρή": 4544,
      "ἀλήθει": 4545,
      "μί": 4546,
      "36": 4547,
      "δέ,": 4548,
      "ίας,": 4549,
      "δὼν": 4550,
      "καίτοι": 4551,
      "θρόν": 4552,
      "βουλεύ": 4553,
      "Μαρ": 4554,
      "ἁπλῶς": 4555,
      "Μακε": 4556,
      "οικονο": 4557,
      "βρο": 4558,
      "τροπη": 4559,
      "ἀναγκαι": 4560,
      "διαφό": 4561,
      "ὀλίγον": 4562,
      "ζοντες": 4563,
      "πάλαι": 4564,
      "τινε": 4565,
      "μασι": 4566,
      "λις": 4567,
      "Θεῷ": 4568,
      "ήτη": 4569,
      "τους,": 4570,
      "τικής": 4571,
      "Και": 4572,
      "χεῖρας": 4573,
      "πόλεμον": 4574,
      "παιδί": 4575,
      "σου.": 4576,
      "ἃς": 4577,
      "σεσθαι": 4578,
      "μᾶς,": 4579,
      "στῳ": 4580,
      "περισσ": 4581,
      "μὲν,": 4582,
      "Πι": 4583,
      "ΕΦ": 4584,
      "ἐνί": 4585,
      "στρατιω": 4586,
      "χερ": 4587,
      "λογη": 4588,
      "ΟΙ": 4589,
      "ποιοῦν": 4590,
      "Δί": 4591,
      "ἐγέν": 4592,
      "ἑαυτῶν": 4593,
      "ὅμοι": 4594,
      "πλῆθος": 4595,
      "Πάν": 4596,
      "νόμος": 4597,
      "al": 4598,
      "ἀνο": 4599,
      "ἀκρο": 4600,
      "τικές": 4601,
      "οι.": 4602,
      "ριθ": 4603,
      "κηρύ": 4604,
      "έκθε": 4605,
      "μ'": 4606,
      "κτο": 4607,
      "c.": 4608,
      "θων": 4609,
      "χαρί": 4610,
      "ἁπάντων": 4611,
      "ς;": 4612,
      "Πρὸς": 4613,
      "λων,": 4614,
      "νεῖ": 4615,
      "λεῖν": 4616,
      "ρνη": 4617,
      "τοὐ": 4618,
      "πος,": 4619,
      "ριο": 4620,
      "0.": 4621,
      "δεσπό": 4622,
      "ἔχοντες": 4623,
      "ἀγῶν": 4624,
      "ΤΡ": 4625,
      "δή": 4626,
      "ρα.": 4627,
      "οὔτ᾽": 4628,
      "ΟΔ": 4629,
      "αὐτῆς,": 4630,
      "Αἰγύ": 4631,
      "δικά": 4632,
      "ἀπόφα": 4633,
      "ψυχὴν": 4634,
      "γε,": 4635,
      "πρᾶγμα": 4636,
      "σίαν,": 4637,
      "ἡμῶν,": 4638,
      "ᾶς": 4639,
      "σπά": 4640,
      "ἐπή": 4641,
      "φαρ": 4642,
      "βού": 4643,
      "ἄλλος": 4644,
      "λεί": 4645,
      "ἀλ": 4646,
      "μεγί": 4647,
      "πειρα": 4648,
      "κληρον": 4649,
      "κλι": 4650,
      "καθο": 4651,
      "βιβλί": 4652,
      "τατα": 4653,
      "κοιν": 4654,
      "νιον": 4655,
      "σφό": 4656,
      "κληρονο": 4657,
      "ἀγνο": 4658,
      "μπορο": 4659,
      "ράν": 4660,
      "Μά": 4661,
      "ργι": 4662,
      "ἄνθρωπον": 4663,
      "ρχο": 4664,
      "τελει": 4665,
      "μόνος": 4666,
      "πᾶς": 4667,
      "'Α": 4668,
      "ὸν,": 4669,
      "ἐντο": 4670,
      "οὐκέ": 4671,
      "Θα": 4672,
      "ψεως": 4673,
      "θῶς": 4674,
      "Πελο": 4675,
      "ἑαυτῷ": 4676,
      "ἀδελφο": 4677,
      "Διὸς": 4678,
      "στρατεύ": 4679,
      "ἐξή": 4680,
      "ὑπάρχει": 4681,
      "el": 4682,
      "Ἐπὶ": 4683,
      "βίου": 4684,
      "μηχαν": 4685,
      "Τε": 4686,
      "σται": 4687,
      "ἡλι": 4688,
      "ΥΣ": 4689,
      "τερ": 4690,
      "όπως": 4691,
      "ἐκέλευ": 4692,
      "αὐτὸν,": 4693,
      "αὐτή": 4694,
      "αὐτ": 4695,
      "νας,": 4696,
      "γῶν": 4697,
      "ἀνωτέ": 4698,
      "ρίας,": 4699,
      "ζῶν": 4700,
      "καλου": 4701,
      "σιαστι": 4702,
      "2,": 4703,
      "γ.": 4704,
      "ΤΗΣ": 4705,
      "ἀποτε": 4706,
      "ὀρθῶς": 4707,
      "σχετικά": 4708,
      "ἀμέ": 4709,
      "βασιλέα": 4710,
      "γνώμην": 4711,
      "ΩΝ.": 4712,
      "Ὡς": 4713,
      "ὅσοι": 4714,
      "δηλον": 4715,
      "τετρα": 4716,
      "φύσεως": 4717,
      "σημεῖ": 4718,
      "῞": 4719,
      "πάντως": 4720,
      "στων": 4721,
      "ΣΩ.": 4722,
      "νεν": 4723,
      "γεγραμ": 4724,
      "ζουσι": 4725,
      "ζήτη": 4726,
      "ἐγγυ": 4727,
      "βεβαί": 4728,
      "δρου": 4729,
      "στιγ": 4730,
      "φύσει": 4731,
      "μ,": 4732,
      "βίον": 4733,
      "προσα": 4734,
      "ἀκολου": 4735,
      "δοῦναι": 4736,
      "Οὕτω": 4737,
      "ωτά": 4738,
      "στὰς": 4739,
      "σήμερον": 4740,
      "am": 4741,
      "ρός": 4742,
      "ΕΙΑ": 4743,
      "ζι": 4744,
      "νυκ": 4745,
      "αὔ": 4746,
      "ψῃ": 4747,
      "καθι": 4748,
      "Λά": 4749,
      "ἀνδρὸς": 4750,
      "Πό": 4751,
      "Πυ": 4752,
      "ἀντικ": 4753,
      "φιλό": 4754,
      "\"Α": 4755,
      "ἀκριβ": 4756,
      "κῶν,": 4757,
      "στήριον": 4758,
      "τεκ": 4759,
      "ΙΙ": 4760,
      "διαφο": 4761,
      "33": 4762,
      "εἰμι": 4763,
      "ροῖς": 4764,
      "βαθ": 4765,
      "οἵτινες": 4766,
      "σκλη": 4767,
      "(5": 4768,
      "ότη": 4769,
      "δ’": 4770,
      "δαῖ": 4771,
      "διό": 4772,
      "σον,": 4773,
      "θείσης": 4774,
      "γορεύ": 4775,
      "Πέρ": 4776,
      "Πνευ": 4777,
      "ἱερ": 4778,
      "»,": 4779,
      "ἄρ᾽": 4780,
      "βδο": 4781,
      "σθῆναι": 4782,
      "στης": 4783,
      "συνη": 4784,
      "φροσύ": 4785,
      "σαντο": 4786,
      "γά": 4787,
      "τεῖν": 4788,
      "ἐκεῖνο": 4789,
      "ρτη": 4790,
      "δρυ": 4791,
      "μιᾶς": 4792,
      "γὼ": 4793,
      "τίου": 4794,
      "ἐπιμε": 4795,
      "ῥά": 4796,
      "πορ": 4797,
      "δίδω": 4798,
      "βασιλι": 4799,
      "αἰχ": 4800,
      "έχουν": 4801,
      "πολιτι": 4802,
      "θέλη": 4803,
      "μῆ": 4804,
      "Λακεδαιμον": 4805,
      "δικαστη": 4806,
      "τινὸς": 4807,
      "λαβεῖν": 4808,
      "θήσεται": 4809,
      "**": 4810,
      "πτο": 4811,
      "ΕΙΣ": 4812,
      "χαρακτη": 4813,
      "Παῦ": 4814,
      "τηρ": 4815,
      "λιος": 4816,
      "γλώ": 4817,
      "ετο": 4818,
      "ματι,": 4819,
      "ἡμέρᾳ": 4820,
      "ἤκου": 4821,
      "καλού": 4822,
      "τόπον": 4823,
      "κῶ": 4824,
      "στοῦ": 4825,
      "εἶναι.": 4826,
      "βασιλεύ": 4827,
      "ἔμε": 4828,
      "μικρα": 4829,
      "ρώπη": 4830,
      "αΐ": 4831,
      "ἐνό": 4832,
      "ἐνώπιον": 4833,
      "Βε": 4834,
      "μακα": 4835,
      "ὕδωρ": 4836,
      "ἐκεῖνον": 4837,
      "ευρωπαϊ": 4838,
      "ταῦτα,": 4839,
      "διανο": 4840,
      "Χριστο": 4841,
      "ἐδέ": 4842,
      "επίσης": 4843,
      "κοῖς": 4844,
      "ργη": 4845,
      "Θεοῦ,": 4846,
      "ἰδέ": 4847,
      "μονι": 4848,
      "σεων,": 4849,
      "σω,": 4850,
      "un": 4851,
      "δέ": 4852,
      "ἀνὰ": 4853,
      "σθαί": 4854,
      "βασί": 4855,
      "ἐδί": 4856,
      "υπά": 4857,
      "σθησαν": 4858,
      "ός.": 4859,
      "Βι": 4860,
      "εργα": 4861,
      "λπι": 4862,
      "ξεων": 4863,
      "σθε,": 4864,
      "em": 4865,
      "ωνι": 4866,
      "πᾶσιν": 4867,
      "38": 4868,
      "μαρτύ": 4869,
      "γειν": 4870,
      "δίκαιον": 4871,
      "πορεύ": 4872,
      "μαι.": 4873,
      "Πέτ": 4874,
      "Ευρώπη": 4875,
      "τας.": 4876,
      "ἐθε": 4877,
      "τιμή": 4878,
      "Οὗ": 4879,
      "ἔχοντα": 4880,
      "λυμ": 4881,
      "πολλῷ": 4882,
      "κυρι": 4883,
      "Μυ": 4884,
      "μοῖς": 4885,
      "ἐκτὸς": 4886,
      "ἀφο": 4887,
      "ad": 4888,
      "θή": 4889,
      "37": 4890,
      "τον.": 4891,
      "ἑορ": 4892,
      "αὐτὰς": 4893,
      "βλε": 4894,
      "ρον.": 4895,
      "as": 4896,
      "᾿Ε": 4897,
      "διδασκα": 4898,
      "ουσαν": 4899,
      "τοῖ": 4900,
      "I.": 4901,
      "Του": 4902,
      "Ἰησοῦς": 4903,
      "κυρί": 4904,
      "ΤΙ": 4905,
      "γουν": 4906,
      "ἀποδεί": 4907,
      "ἀγγέ": 4908,
      "παραι": 4909,
      "πλεον": 4910,
      "η,": 4911,
      "ἀπώ": 4912,
      "κακὸν": 4913,
      "μων,": 4914,
      "4,": 4915,
      "Λε": 4916,
      "ὀνομά": 4917,
      "ρέων": 4918,
      "ει.": 4919,
      "τέρου": 4920,
      "τοιούτων": 4921,
      "χρησι": 4922,
      "γραπ": 4923,
      "Ἄ": 4924,
      "ἐπανα": 4925,
      "ἄλ": 4926,
      "κυβερ": 4927,
      "ἁγίου": 4928,
      "ρες,": 4929,
      "ῳ.": 4930,
      "ἀδύνα": 4931,
      "ζουν": 4932,
      "ἄλλον": 4933,
      "κίν": 4934,
      "ἐσχ": 4935,
      "τερον,": 4936,
      "ἐντεῦθεν": 4937,
      "βαρβά": 4938,
      "αφορά": 4939,
      "τών": 4940,
      "σαις": 4941,
      "φθο": 4942,
      "χριστι": 4943,
      "σπι": 4944,
      "συνει": 4945,
      "ἀέ": 4946,
      "σους": 4947,
      "ΠΕΡΙ": 4948,
      "δίκην": 4949,
      "Παρα": 4950,
      "ἀπαν": 4951,
      "οἰκί": 4952,
      "θαι": 4953,
      "ἀφ᾽": 4954,
      "ψηφί": 4955,
      "θεσιν": 4956,
      "γλῶ": 4957,
      "φησὶν,": 4958,
      "Ὅτι": 4959,
      "ἐνο": 4960,
      "γένος": 4961,
      "φαρμο": 4962,
      "λειτουργ": 4963,
      "μένου": 4964,
      "ψυχή": 4965,
      "χειν": 4966,
      "μῶς": 4967,
      "ζετο": 4968,
      "ματο": 4969,
      "μένων.": 4970,
      "μέρη": 4971,
      "ῆς,": 4972,
      "σαί": 4973,
      "δεχ": 4974,
      "ρεῖται": 4975,
      "φρου": 4976,
      "κα,": 4977,
      "Ἑλλήνων": 4978,
      "πόλεις": 4979,
      "σκι": 4980,
      "ΑΠ": 4981,
      "εἰσὶ": 4982,
      "ἔσχ": 4983,
      "os": 4984,
      "ἔχουσι": 4985,
      "ἕκαστος": 4986,
      "3,": 4987,
      "τερη": 4988,
      "καυ": 4989,
      "ᾖ": 4990,
      "ρος.": 4991,
      "συμβου": 4992,
      "ξάν": 4993,
      "ριζ": 4994,
      "τρια": 4995,
      "ρίᾳ": 4996,
      "σθεὶς": 4997,
      "ἀναγκαί": 4998,
      "ί,": 4999,
      "Κύριε": 5000,
      "κός": 5001,
      "᾿Ι": 5002,
      "θεῖσα": 5003,
      "ἑται": 5004,
      "γῆς,": 5005,
      "σιο": 5006,
      "᾿Αχαι": 5007,
      "ὁρα": 5008,
      "πλησίον": 5009,
      "δίκ": 5010,
      "ψις": 5011,
      "άν": 5012,
      "ἐπιχει": 5013,
      "κακο": 5014,
      "καλὸν": 5015,
      "ὅς": 5016,
      "βαλλ": 5017,
      "μὰ": 5018,
      "ἀντα": 5019,
      "πληρώ": 5020,
      "κυρίου": 5021,
      "τικών": 5022,
      "σάρ": 5023,
      "ὧδε": 5024,
      "οη": 5025,
      "μός": 5026,
      "̀ξ": 5027,
      "καθό": 5028,
      "Τοι": 5029,
      "κτεί": 5030,
      "δῆλον": 5031,
      "θὲς": 5032,
      "Μή": 5033,
      "ροὶ": 5034,
      "όντας": 5035,
      "οῦσιν": 5036,
      "σει.": 5037,
      "Χ.": 5038,
      "ξου": 5039,
      "Πνεῦμα": 5040,
      "ενέ": 5041,
      "καθή": 5042,
      "πεδί": 5043,
      "σῆ": 5044,
      "πρῶτος": 5045,
      "39": 5046,
      "τέρω": 5047,
      "ἐσθ": 5048,
      "χρώ": 5049,
      "τινας": 5050,
      "ζῶ": 5051,
      "σχεδὸν": 5052,
      "λθῃ": 5053,
      "ὀλι": 5054,
      "κομί": 5055,
      "τελεί": 5056,
      "Θ.": 5057,
      "διαν": 5058,
      "Σά": 5059,
      "μέμ": 5060,
      "10.": 5061,
      "μέγας": 5062,
      "κινδύ": 5063,
      "λθεῖν": 5064,
      "τατος": 5065,
      "Ἐπεὶ": 5066,
      "χεσθαι": 5067,
      "Γι": 5068,
      "ut": 5069,
      "σμό": 5070,
      "μένον,": 5071,
      "γν": 5072,
      "ίας.": 5073,
      "εθ": 5074,
      "ἀρχιε": 5075,
      "καιρὸν": 5076,
      "διαδικα": 5077,
      "κολά": 5078,
      "ττο": 5079,
      "υἱὸν": 5080,
      "ὁμοῦ": 5081,
      "όντι": 5082,
      "ἀπά": 5083,
      "κειν": 5084,
      "γεγονό": 5085,
      "σασα": 5086,
      "ψή": 5087,
      "τίκα": 5088,
      "εμ": 5089,
      "τις,": 5090,
      "φευ": 5091,
      "ΕΤ": 5092,
      "σίας": 5093,
      "ἐγί": 5094,
      "ὀφει": 5095,
      "ἧττον": 5096,
      "ἐμβ": 5097,
      "εἰσα": 5098,
      "στῆ": 5099,
      "οὐδα": 5100,
      "ἐννο": 5101,
      "κοινωνι": 5102,
      "τίας": 5103,
      "γματα": 5104,
      "᾿Από": 5105,
      "ὁρῶν": 5106,
      "προϊ": 5107,
      "ΙΑΔ": 5108,
      "ἐπη": 5109,
      "ήθε": 5110,
      "ἄλλην": 5111,
      "μεθ": 5112,
      "που,": 5113,
      "ΙΠ": 5114,
      "πλού": 5115,
      "ἀρετῆς": 5116,
      "ὁμι": 5117,
      "λα,": 5118,
      "γαγ": 5119,
      "Ανα": 5120,
      "μονο": 5121,
      "δυνατὸν": 5122,
      "αντα": 5123,
      "χειρί": 5124,
      "στά": 5125,
      "πρου": 5126,
      "ΚΑΙ": 5127,
      "αὐ": 5128,
      "σφί": 5129,
      "χρέ": 5130,
      "ἑκατέ": 5131,
      "χή": 5132,
      "ὄντων": 5133,
      "κανονι": 5134,
      "λεκ": 5135,
      "ἀπ'": 5136,
      ",τι": 5137,
      "νεγ": 5138,
      "κέν": 5139,
      "ἀνθρώπους": 5140,
      "γὰς": 5141,
      "ἀληθῶς": 5142,
      "σας.": 5143,
      "ἐργά": 5144,
      "ἄλλη": 5145,
      "γεννή": 5146,
      "πῦρ": 5147,
      "κινη": 5148,
      "ταῦτ᾽": 5149,
      "ἑπο": 5150,
      "ἢν": 5151,
      "σσι": 5152,
      "διδόν": 5153,
      "θανάτου": 5154,
      "βαν": 5155,
      "Φί": 5156,
      "γῃ": 5157,
      "εἶδος": 5158,
      "ξή": 5159,
      "Μον": 5160,
      "ἄνθρωποι": 5161,
      "ζωῆς": 5162,
      "f.": 5163,
      "Νέ": 5164,
      "σοφ": 5165,
      "μαζ": 5166,
      "ᾔ": 5167,
      "κακῶν": 5168,
      "ἐθνι": 5169,
      "βλά": 5170,
      "μάν": 5171,
      "ἀμφὶ": 5172,
      "Πλά": 5173,
      "ἐπιτρέ": 5174,
      "σφόδρα": 5175,
      "͂οι": 5176,
      "ἄνδρας": 5177,
      "ἀνωτέρω": 5178,
      "σωσιν": 5179,
      "ραν,": 5180,
      "οἰκονο": 5181,
      "ἅπαντα": 5182,
      "ἔτος": 5183,
      "γινώσκ": 5184,
      "αὐτόν.": 5185,
      "Χριστι": 5186,
      "δοὺς": 5187,
      "κερ": 5188,
      "τοσού": 5189,
      "μόνον,": 5190,
      "δεκά": 5191,
      "τριά": 5192,
      "῾Α": 5193,
      "ρῆ": 5194,
      "εἰ": 5195,
      "γωνι": 5196,
      "ὁπ": 5197,
      "δωρε": 5198,
      "γματος": 5199,
      "σκεύ": 5200,
      "διευ": 5201,
      ")·": 5202,
      "διή": 5203,
      "πάσας": 5204,
      "τωρ": 5205,
      "μιον": 5206,
      "σχι": 5207,
      "κρεί": 5208,
      "κωλύ": 5209,
      "τοῦτ᾽": 5210,
      "ἀνθρωπί": 5211,
      "ἑω": 5212,
      "ρην": 5213,
      "λουν": 5214,
      "μαστε": 5215,
      "πάντοτε": 5216,
      "ἐπιτη": 5217,
      "φησιν": 5218,
      "᾿Αλ": 5219,
      "βάν": 5220,
      "μηδέ": 5221,
      "πράγματα": 5222,
      "όμενον,": 5223,
      "δηλα": 5224,
      "ᾠ": 5225,
      "ρείαν": 5226,
      "ὅρ": 5227,
      "ἔλαβ": 5228,
      "θεν,": 5229,
      "ἀξ": 5230,
      "ἔοι": 5231,
      "πορευ": 5232,
      "͂νον": 5233,
      "κεί": 5234,
      "μακρα": 5235,
      "οἰκοδο": 5236,
      "εἵ": 5237,
      "ὁμοι": 5238,
      "τόδε": 5239,
      "τεί": 5240,
      "ναις": 5241,
      "εἰσὶν": 5242,
      "κήρυ": 5243,
      "εἰσε": 5244,
      "ᾤ": 5245,
      "φέρου": 5246,
      "͂νος": 5247,
      "γαί": 5248,
      "στημα": 5249,
      "χρον": 5250,
      "μένῃ": 5251,
      "ρχη": 5252,
      "αὐτόν": 5253,
      "εἰπεῖν,": 5254,
      "λογίας": 5255,
      "μῶ": 5256,
      "εἴπερ": 5257,
      "θεὸν": 5258,
      "ἄνα": 5259,
      "Χριστὸν": 5260,
      "λαμβά": 5261,
      "ὁρί": 5262,
      "ρθω": 5263,
      "κάλλι": 5264,
      "σεί": 5265,
      "χρήματα": 5266,
      "σῆς": 5267,
      "ἔχῃ": 5268,
      "ἀγαθὸν": 5269,
      "Ιε": 5270,
      "r.": 5271,
      "τρω": 5272,
      "σάμενοι": 5273,
      "τῶν.": 5274,
      "τοιαύτην": 5275,
      "ul": 5276,
      "διδάσκ": 5277,
      "ών,": 5278,
      "ὄχ": 5279,
      "όνων": 5280,
      "βασιλεῖ": 5281,
      "νον,": 5282,
      "Ποι": 5283,
      "θέσεως": 5284,
      "48": 5285,
      "δέον": 5286,
      "τρό": 5287,
      "ώσεως": 5288,
      "δήποτε": 5289,
      "οὐκέτι": 5290,
      "βούλιο": 5291,
      "γιγ": 5292,
      "Διο": 5293,
      "κῆ": 5294,
      "στὰ": 5295,
      "γινο": 5296,
      "μάτων.": 5297,
      "νοη": 5298,
      "ΚΡ": 5299,
      "παγ": 5300,
      "γὸς": 5301,
      "μέσῳ": 5302,
      "αιρέ": 5303,
      "γεννη": 5304,
      "Τῶν": 5305,
      "στῶ": 5306,
      "κε,": 5307,
      "Βυ": 5308,
      "κ'": 5309,
      "ρας.": 5310,
      "μενος.": 5311,
      "βλή": 5312,
      "θάλασ": 5313,
      "κην": 5314,
      "μνημον": 5315,
      "φροντί": 5316,
      "αὐτὰρ": 5317,
      "λαμβάνει": 5318,
      "(1)": 5319,
      "ΙΟΝ": 5320,
      "τιμη": 5321,
      "σχύ": 5322,
      "τικὴ": 5323,
      "δύνατο": 5324,
      "ούς": 5325,
      "ἔπε": 5326,
      "ήθελα": 5327,
      "σαμεν": 5328,
      "πῆ": 5329,
      "ταρ": 5330,
      "τήριον": 5331,
      "φῆ": 5332,
      "Ἐγὼ": 5333,
      "αἷμα": 5334,
      "σπον": 5335,
      "ἄγγε": 5336,
      "ἐνὶ": 5337,
      "οἰκου": 5338,
      "εξα": 5339,
      "200": 5340,
      "φρό": 5341,
      "πολιτεί": 5342,
      "κοὶ": 5343,
      "δῃ": 5344,
      "ἐπισκό": 5345,
      "σαι.": 5346,
      "ταύτας": 5347,
      "ρων.": 5348,
      "κάμ": 5349,
      "νῇ": 5350,
      "λὸς": 5351,
      "κτλ.": 5352,
      "περί": 5353,
      "i.": 5354,
      "πολέμου": 5355,
      "υπάρχ": 5356,
      "Διον": 5357,
      "μασιν": 5358,
      "46": 5359,
      "ιν": 5360,
      "νομοθε": 5361,
      "βιά": 5362,
      "σδε": 5363,
      "τι.": 5364,
      "ΕΣ": 5365,
      "ἑπτὰ": 5366,
      "ραῖ": 5367,
      "νετο,": 5368,
      "παντὶ": 5369,
      "ζύ": 5370,
      "αἰώ": 5371,
      "||": 5372,
      "δεδο": 5373,
      "νοιαν": 5374,
      "πολλὴν": 5375,
      "συνι": 5376,
      "στηρί": 5377,
      "μετ'": 5378,
      "χρόνου": 5379,
      "μένει": 5380,
      "παρατη": 5381,
      "ἐμαυ": 5382,
      "χοῦ": 5383,
      "δ᾽,": 5384,
      "ἐνά": 5385,
      "ἐλα": 5386,
      "εγ": 5387,
      "εἴκο": 5388,
      "ὴν": 5389,
      "δεύτερον": 5390,
      "Κό": 5391,
      "im": 5392,
      "μεθ᾽": 5393,
      "Σου": 5394,
      "μεῖν": 5395,
      "βρι": 5396,
      "οὖν,": 5397,
      "᾿Αλε": 5398,
      "ὑγι": 5399,
      "σχέ": 5400,
      "δικαίωμα": 5401,
      "(6": 5402,
      "δας,": 5403,
      "γί": 5404,
      "φέρειν": 5405,
      "θώ": 5406,
      "τάς": 5407,
      "χορη": 5408,
      "μεγάλη": 5409,
      "μας,": 5410,
      "σχή": 5411,
      "κίνδυν": 5412,
      "t.": 5413,
      "11.": 5414,
      "γ'": 5415,
      "χῶν": 5416,
      "εἰσέ": 5417,
      "όμενοι,": 5418,
      "στρατο": 5419,
      "σεμ": 5420,
      "ἄρθρον": 5421,
      "σπο": 5422,
      "ήλ": 5423,
      "ῥα": 5424,
      "Πη": 5425,
      "χρόνῳ": 5426,
      "θούν": 5427,
      "λους,": 5428,
      "δικαιώ": 5429,
      "ἀμφό": 5430,
      "Κοινοβούλιο": 5431,
      "ἑτέρου": 5432,
      "τελῶς": 5433,
      "νου,": 5434,
      "ἔφε": 5435,
      "βύ": 5436,
      "κράτη": 5437,
      "τριῶν": 5438,
      "ὅλων": 5439,
      "καλλι": 5440,
      "οῦντες": 5441,
      "μένος,": 5442,
      "φυγ": 5443,
      "Κύριε": 5444,
      "ἐξω": 5445,
      "ὑφ᾽": 5446,
      "μέλλ": 5447,
      "πρόσωπον": 5448,
      "οὐδέν": 5449,
      "εἰπὼν": 5450,
      "νιος": 5451,
      "ζόμενος": 5452,
      "ἑρ": 5453,
      "ῥί": 5454,
      "σημει": 5455,
      "Αλλ'": 5456,
      "μέλη": 5457,
      "β.": 5458,
      "ἀνθρώποις": 5459,
      "διαρ": 5460,
      "*)": 5461,
      "οντες,": 5462,
      "ΕΕ": 5463,
      "βασιλείας": 5464,
      "ἔγρα": 5465,
      "ὁδὸν": 5466,
      "Πει": 5467,
      "νης.": 5468,
      "31": 5469,
      "αὐτοῖς,": 5470,
      "συμβαί": 5471,
      "ἀφε": 5472,
      "47": 5473,
      "Πύ": 5474,
      "τσι": 5475,
      "περιπτώ": 5476,
      "παρθέν": 5477,
      "σεται,": 5478,
      "ρυν": 5479,
      "τελευταί": 5480,
      "σπό": 5481,
      "υπό": 5482,
      "ἀλλήλους": 5483,
      "ακό": 5484,
      "λλος": 5485,
      "λες": 5486,
      "ὄντος": 5487,
      "σῃς": 5488,
      "δες,": 5489,
      "ἀρχαι": 5490,
      "ἰδοὺ": 5491,
      "αἰτίαν": 5492,
      "᾿Αντι": 5493,
      "πτό": 5494,
      "οισι": 5495,
      "Τυ": 5496,
      "γοῦ": 5497,
      "ἀποθαν": 5498,
      "τεταγ": 5499,
      "ποικί": 5500,
      "Πρό": 5501,
      "g.": 5502,
      "τους.": 5503,
      "᾽,": 5504,
      "τίον": 5505,
      "λογίαν": 5506,
      "τίνα": 5507,
      "χώρας": 5508,
      "στασις": 5509,
      "στὸ": 5510,
      "ῶν": 5511,
      "αγο": 5512,
      "ἄλλου": 5513,
      "λισ": 5514,
      "Να": 5515,
      "ΥΛ": 5516,
      "Θεό": 5517,
      "49": 5518,
      "νόη": 5519,
      "προει": 5520,
      "ὅλα": 5521,
      "πατριάρχ": 5522,
      "φερο": 5523,
      "πιθαν": 5524,
      "μέσα": 5525,
      "δρι": 5526,
      "ἀληθείας": 5527,
      "τίμη": 5528,
      "χῶς": 5529,
      "ποίας": 5530,
      "καμ": 5531,
      "σματος": 5532,
      "5,": 5533,
      "δέναι": 5534,
      "πολιτική": 5535,
      "Κῦ": 5536,
      "φὴ": 5537,
      "εἰσιν": 5538,
      "πληρο": 5539,
      "φθά": 5540,
      "τουτέστι": 5541,
      "σθαι·": 5542,
      "τοιαύτη": 5543,
      "Γερ": 5544,
      "πλείον": 5545,
      "Εἴ": 5546,
      "λειαν": 5547,
      "μεν·": 5548,
      "φί": 5549,
      "μεθα.": 5550,
      "σκή": 5551,
      "Περι": 5552,
      "ξύ": 5553,
      "ἔμπρο": 5554,
      "ρουν": 5555,
      "πομ": 5556,
      "κομι": 5557,
      "συλλο": 5558,
      "ib": 5559,
      "ἑαυτοὺς": 5560,
      "ενι": 5561,
      "λόγοις": 5562,
      "μπορεί": 5563,
      "στευ": 5564,
      "ωνί": 5565,
      "ρίαν,": 5566,
      "Θεσσα": 5567,
      "λεῖς": 5568,
      "πλαν": 5569,
      "ἤρ": 5570,
      "δημοκρα": 5571,
      "σιοι": 5572,
      "Ἰσραὴλ": 5573,
      "ότερον": 5574,
      "εὗ": 5575,
      "ΠΟΛ": 5576,
      "ὄχι": 5577,
      "ἴδιον": 5578,
      "ΤΩΝ": 5579,
      "είου": 5580,
      "οἷα": 5581,
      "σαν·": 5582,
      "τής": 5583,
      "πόρ": 5584,
      "γενή": 5585,
      "δυστυ": 5586,
      "βοή": 5587,
      "πιο": 5588,
      "τυραν": 5589,
      "μάτων": 5590,
      "οργ": 5591,
      "ἐλευθέ": 5592,
      "ξυμ": 5593,
      "νόμι": 5594,
      "ἐστι,": 5595,
      "Κατα": 5596,
      "ὄντες": 5597,
      "προστά": 5598,
      "συγκε": 5599,
      "κους": 5600,
      "αὐτά": 5601,
      "ὅτι,": 5602,
      "διαφ": 5603,
      "νεται.": 5604,
      "ἐκείνην": 5605,
      "ἔλα": 5606,
      "πίστεως": 5607,
      "ἐξετά": 5608,
      "ε.": 5609,
      "ἐσχά": 5610,
      "τήρη": 5611,
      "ἐνέργει": 5612,
      "αι.": 5613,
      "ότης": 5614,
      "ἀληθῆ": 5615,
      "δαίμον": 5616,
      "νει,": 5617,
      "ΚΑΤ": 5618,
      "ΗΡ": 5619,
      "σαφῶς": 5620,
      "μίας,": 5621,
      "πῇ": 5622,
      "θηναῖοι": 5623,
      "φασι": 5624,
      "ζῃ": 5625,
      "τοσαύ": 5626,
      "θοι": 5627,
      "περιου": 5628,
      "δύνανται": 5629,
      "βιο": 5630,
      "ἀνατο": 5631,
      "ω.": 5632,
      "τούς": 5633,
      "γινό": 5634,
      "Κύρι": 5635,
      "Βυζ": 5636,
      "μέρους": 5637,
      "τζ": 5638,
      "ἔδο": 5639,
      "παῖς": 5640,
      "il": 5641,
      "δον,": 5642,
      "λέγοντες": 5643,
      "Πρω": 5644,
      "σθεί": 5645,
      "ἀργυ": 5646,
      "Αθηναί": 5647,
      "ἐλέγ": 5648,
      "σᾶς": 5649,
      "ουσιν,": 5650,
      "οιαν": 5651,
      "μανι": 5652,
      "Φω": 5653,
      "πολλοῖς": 5654,
      "θεῷ": 5655,
      "ξ,": 5656,
      "ῥᾳ": 5657,
      "ἐλέ": 5658,
      "Τρι": 5659,
      "πρακ": 5660,
      "σην": 5661,
      "μεταβο": 5662,
      "Ἡρα": 5663,
      "βάλλον": 5664,
      "ἀκριβῶς": 5665,
      "τέσσα": 5666,
      "15.": 5667,
      "τησιν": 5668,
      "τοῦδε": 5669,
      "ψεις": 5670,
      "οἶκον": 5671,
      "ὕπ": 5672,
      "στεύ": 5673,
      "Χριστῷ": 5674,
      "ἐπίσκο": 5675,
      "σίας.": 5676,
      "ίες": 5677,
      "ἐξι": 5678,
      "δραχ": 5679,
      "πῶ": 5680,
      "δος.": 5681,
      "θεα": 5682,
      "σεται.": 5683,
      "ἐκεῖθεν": 5684,
      "τιά": 5685,
      "θέα": 5686,
      "οῦς": 5687,
      "τοι,": 5688,
      "Ὠ": 5689,
      "ἔλεγεν": 5690,
      "φρονή": 5691,
      "Ευρωπαϊκή": 5692,
      "τινὲς": 5693,
      "ἑκάστου": 5694,
      "πῆς": 5695,
      "έων": 5696,
      "μένης,": 5697,
      "μελέ": 5698,
      "λίων": 5699,
      "δειγμα": 5700,
      "σ'": 5701,
      "ἔνι": 5702,
      "πράγμα": 5703,
      "βρί": 5704,
      "ἐποί": 5705,
      "ὅπλ": 5706,
      "θος,": 5707,
      "ΚΕΦ": 5708,
      "πολιορ": 5709,
      "ΙΟΥ": 5710,
      "34": 5711,
      "ἁγίων": 5712,
      "κατό": 5713,
      "δαιμόνι": 5714,
      "πρεπε": 5715,
      "πρά": 5716,
      "κόσμου": 5717,
      "ποιού": 5718,
      "μένην,": 5719,
      "τρον": 5720,
      "βαλε": 5721,
      "μείζον": 5722,
      "ντο": 5723,
      "Πελοπον": 5724,
      "ΤΑ": 5725,
      "πισ": 5726,
      "μοσύ": 5727,
      "ποτ᾽": 5728,
      "μενον.": 5729,
      "13.": 5730,
      "Μου": 5731,
      "θνή": 5732,
      "Εὐα": 5733,
      "ἀγαθῶν": 5734,
      "εργε": 5735,
      "λοῖ": 5736,
      "πρεσβύ": 5737,
      "μεταξύ": 5738,
      "μῆν": 5739,
      "δων,": 5740,
      "ὅλην": 5741,
      "νων.": 5742,
      "Τίς": 5743,
      "ι,": 5744,
      "φίλον": 5745,
      "τᾷ": 5746,
      "Ἰα": 5747,
      "ἐναντίον": 5748,
      "Μάρ": 5749,
      "τίθη": 5750,
      "μόνο": 5751,
      "συμφέρον": 5752,
      "στρατιώ": 5753,
      "τρία": 5754,
      "τόν,": 5755,
      "12.": 5756,
      "τορι": 5757,
      "τομέ": 5758,
      "φους": 5759,
      "σαντες,": 5760,
      "φερό": 5761,
      "ἔργων": 5762,
      "σκον": 5763,
      "παρή": 5764,
      "δεκ": 5765,
      "οις.": 5766,
      "βουλο": 5767,
      "πης": 5768,
      "προσο": 5769,
      "ιη": 5770,
      "ἔτε": 5771,
      "ἀκο": 5772,
      "τέρους": 5773,
      "Κωνσταντινου": 5774,
      "ἐστε": 5775,
      "ορισ": 5776,
      "θεωρη": 5777,
      "XX": 5778,
      "τόλ": 5779,
      "λέγει,": 5780,
      "Τη": 5781,
      "͂σαι,": 5782,
      "ρρι": 5783,
      "τέκνα": 5784,
      "55": 5785,
      "όν": 5786,
      "χρημάτων": 5787,
      "ἅπερ": 5788,
      "οὐ": 5789,
      "εὐαγγε": 5790,
      "᾿Αργ": 5791,
      "ἀφοῦ": 5792,
      "φίλοι": 5793,
      "ΙΝ": 5794,
      "μεγαλο": 5795,
      "60": 5796,
      "Σωκρά": 5797,
      "Παρ": 5798,
      "πολλὰς": 5799,
      "λόν": 5800,
      "ὁρῶ": 5801,
      "μένα,": 5802,
      "σθεῖ": 5803,
      "μακά": 5804,
      "ήν": 5805,
      "εἰδω": 5806,
      "οδο": 5807,
      "ἐλεύ": 5808,
      "δεῦ": 5809,
      "κεφά": 5810,
      "ποιῆσαι": 5811,
      "μέλη": 5812,
      "χιστον": 5813,
      "λόγον,": 5814,
      "ΟΦ": 5815,
      "ἀμε": 5816,
      "ετε": 5817,
      "αὗται": 5818,
      "ἄρθρ.": 5819,
      "λέγουσι": 5820,
      "κὼς": 5821,
      "σσο": 5822,
      "κυκ": 5823,
      "Χριστὸς": 5824,
      "ὅπλα": 5825,
      "ανθ": 5826,
      "μεγάλην": 5827,
      "κρε": 5828,
      "σχί": 5829,
      "κύ": 5830,
      "κόσμον": 5831,
      "τόσον": 5832,
      "Τῷ": 5833,
      "λλέ": 5834,
      "γυνὴ": 5835,
      "C.": 5836,
      "πας": 5837,
      "Οὔ": 5838,
      "νέα": 5839,
      "ρεις": 5840,
      "πάνω": 5841,
      "μῶν,": 5842,
      "ὰμ": 5843,
      "παντα": 5844,
      "Ιου": 5845,
      "πατή": 5846,
      "λογή": 5847,
      "οῦσαν": 5848,
      "λάβῃ": 5849,
      "σωτερι": 5850,
      "χουμε": 5851,
      "λίου": 5852,
      "μοῖ": 5853,
      "μενα,": 5854,
      "se": 5855,
      "αξι": 5856,
      "δημοσι": 5857,
      "ἐνιαυ": 5858,
      "ἀνι": 5859,
      "Σικε": 5860,
      "Δαυ": 5861,
      "80": 5862,
      "ἐξά": 5863,
      "Ιω": 5864,
      "καλὰ": 5865,
      "ταρα": 5866,
      "τακ": 5867,
      "κοὺς": 5868,
      "ριοι": 5869,
      "Ζα": 5870,
      "γράμμα": 5871,
      "μενι": 5872,
      "v.": 5873,
      "στεί": 5874,
      "6,": 5875,
      "δικαστι": 5876,
      "ἐφ'": 5877,
      "αἰσθη": 5878,
      "βέλ": 5879,
      "κείμενον": 5880,
      "ol": 5881,
      "εἰδό": 5882,
      "κτυ": 5883,
      "ἅτε": 5884,
      "εἰδέναι": 5885,
      "ώτερον": 5886,
      "αὐτοῦ·": 5887,
      "εὐσεβ": 5888,
      "ρους,": 5889,
      "ἦλθεν": 5890,
      "Αυτό": 5891,
      "λαοῦ": 5892,
      "λλαγ": 5893,
      "τοῦτό": 5894,
      "γενόμενος": 5895,
      "οποίο": 5896,
      "ἀρχὰς": 5897,
      "κέρ": 5898,
      "ἔστω": 5899,
      "νῶ": 5900,
      "δέχεται": 5901,
      "αὐτίκα": 5902,
      "τος·": 5903,
      "ὑπουργ": 5904,
      "έκθεση": 5905,
      "Βο": 5906,
      "πάλι": 5907,
      "ἀμεί": 5908,
      "πλήρω": 5909,
      "Πατρὸς": 5910,
      "Ῥωμαίων": 5911,
      "δείας": 5912,
      "σῃ.": 5913,
      "μηχ": 5914,
      "κατέστη": 5915,
      "ἠθι": 5916,
      "προθυ": 5917,
      "χρῆ": 5918,
      "δα.": 5919,
      "γραφι": 5920,
      "Οὐκοῦν": 5921,
      "φρόνη": 5922,
      "Χαλ": 5923,
      "ΥΡ": 5924,
      "σάντων": 5925,
      "κατασκευ": 5926,
      "δανει": 5927,
      "ζειν,": 5928,
      "κορυ": 5929,
      "Ῥώ": 5930,
      "καλοῦν": 5931,
      "χὴ": 5932,
      "πέρι": 5933,
      "μβο": 5934,
      "Λ.": 5935,
      "ὀπί": 5936,
      "ΙΣΤ": 5937,
      "τικὰ": 5938,
      "δίας": 5939,
      "μ᾿": 5940,
      "βλα": 5941,
      "ὑμῖν,": 5942,
      "μβρίου": 5943,
      "συντά": 5944,
      "ντί": 5945,
      "σημεί": 5946,
      "ἀλλήλων": 5947,
      "τιμα": 5948,
      "κρί": 5949,
      "κατή": 5950,
      "ἀναιρε": 5951,
      "πηρε": 5952,
      "φοβε": 5953,
      "φορὰν": 5954,
      "ήταν": 5955,
      "κληρονό": 5956,
      "σίους": 5957,
      "χὰς": 5958,
      "δάκρυ": 5959,
      "σθῶ": 5960,
      "ἀρί": 5961,
      "δυνάμεως": 5962,
      "γίας": 5963,
      "γεγενη": 5964,
      "θεά": 5965,
      "ότητα": 5966,
      "λαγ": 5967,
      "λῆς,": 5968,
      "Συμβου": 5969,
      "pro": 5970,
      "σφο": 5971,
      "αὐτοκρά": 5972,
      "Λευ": 5973,
      "κῆς,": 5974,
      "πεντα": 5975,
      "κ᾽": 5976,
      "ὅ,τι": 5977,
      "παρασκευ": 5978,
      "(1": 5979,
      "λεια": 5980,
      "σετε": 5981,
      "Σί": 5982,
      "θόν": 5983,
      "κία": 5984,
      "Κλε": 5985,
      "κλά": 5986,
      "τιος": 5987,
      "ἀποστό": 5988,
      "μισ": 5989,
      "νῃ,": 5990,
      "ανοῦ": 5991,
      "ἐπαρχ": 5992,
      "φρι": 5993,
      "προνο": 5994,
      "σι·": 5995,
      "σὰν": 5996,
      "ὑγ": 5997,
      "ρχον": 5998,
      "νυκτὸς": 5999,
      "λέξανδ": 6000,
      "ἄρθρου": 6001,
      "ἰδίᾳ": 6002,
      "ούλιο": 6003,
      "ἐν": 6004,
      "re": 6005,
      "ψεύ": 6006,
      "τη,": 6007,
      "οῦται": 6008,
      "λλυ": 6009,
      "ανου": 6010,
      "φοβ": 6011,
      "ζόμενοι": 6012,
      "ἔμπροσθεν": 6013,
      "ἐξῆ": 6014,
      "γράφων": 6015,
      "32": 6016,
      "ζωὴν": 6017,
      "τεραι": 6018,
      "(7": 6019,
      "Εί": 6020,
      "άλλ": 6021,
      "ών,": 6022,
      "χρό": 6023,
      "᾿Ατ": 6024,
      "ζει,": 6025,
      "Ἰτα": 6026,
      "συγγεν": 6027,
      "ξον": 6028,
      "νῷ": 6029,
      "στὴς": 6030,
      "ἐκείνης": 6031,
      "συμβο": 6032,
      "νόμους": 6033,
      "σα.": 6034,
      "ἔγνω": 6035,
      "ρίν": 6036,
      "Διὸ": 6037,
      "δήλω": 6038,
      "σκεται": 6039,
      "Ση": 6040,
      "ρέα": 6041,
      "γὸν": 6042,
      "περισσό": 6043,
      "πόδας": 6044,
      "οἷόν": 6045,
      "στράτευ": 6046,
      "ταχυ": 6047,
      "νε,": 6048,
      "ἐκείνῳ": 6049,
      "οδη": 6050,
      "ἀπόδει": 6051,
      "σοῦν": 6052,
      "γραφα": 6053,
      "Τέ": 6054,
      "ῆς": 6055,
      "ρις": 6056,
      "8,": 6057,
      "γερ": 6058,
      "πρεσβυ": 6059,
      "ναγ": 6060,
      "ΑΜ": 6061,
      "ἐτῶν": 6062,
      "ἰδι": 6063,
      "189": 6064,
      "στήρι": 6065,
      "ΕΜ": 6066,
      "ἄρισ": 6067,
      "ἡμερῶν": 6068,
      "φαντα": 6069,
      "φιλαν": 6070,
      "Ελλη": 6071,
      "δόξης": 6072,
      "5)": 6073,
      "ὑψ": 6074,
      "όσον": 6075,
      "μεγά": 6076,
      "πρῶτα": 6077,
      "διάτα": 6078,
      "σφε": 6079,
      "δε,": 6080,
      "ἔτει": 6081,
      "εῖον": 6082,
      "σταθ": 6083,
      "δίου": 6084,
      "ὀνόματι": 6085,
      "ἀεί": 6086,
      "λάν": 6087,
      "πολλα": 6088,
      "χωρη": 6089,
      "μένη": 6090,
      "τησε": 6091,
      "πιστο": 6092,
      "τούτοι": 6093,
      "σθ᾽": 6094,
      "πολλοῦ": 6095,
      "πιν": 6096,
      "γεωργ": 6097,
      "γραφί": 6098,
      "ἐρή": 6099,
      "ἔγω": 6100,
      "Ἀλλὰ": 6101,
      "τελευται": 6102,
      "αὐτόν,": 6103,
      "καταστή": 6104,
      "τόν.": 6105,
      "γάρ,": 6106,
      "Θέ": 6107,
      "θείη": 6108,
      "ἑκάστῳ": 6109,
      "λλον,": 6110,
      "πτέ": 6111,
      "σαντας": 6112,
      "ὑποχρε": 6113,
      "λέγων·": 6114,
      "ἐφά": 6115,
      "καθέ": 6116,
      "ὑποθέ": 6117,
      "θῶν": 6118,
      "αις,": 6119,
      "αὑτῶν": 6120,
      "ἀπί": 6121,
      "ρκι": 6122,
      "ἀρετὴν": 6123,
      "Πρ": 6124,
      "ἐκτε": 6125,
      "ἀφαν": 6126,
      "ΧΟΡ": 6127,
      "στόμα": 6128,
      "ἱερὸν": 6129,
      "ὁποῖα": 6130,
      "να.": 6131,
      "σατο,": 6132,
      "δυνη": 6133,
      "λογον": 6134,
      "Λου": 6135,
      "εἶπεν,": 6136,
      "ὑπ᾿": 6137,
      "Γά": 6138,
      "θλί": 6139,
      "ἔχουσα": 6140,
      "μένων": 6141,
      "βουλή": 6142,
      "ἦλθε": 6143,
      "φησὶ,": 6144,
      "όμεθα": 6145,
      "ΩΣ": 6146,
      "ἄπει": 6147,
      "Ξενο": 6148,
      "ἐκκλησιαστι": 6149,
      "σω.": 6150,
      "\"Ο": 6151,
      "ττω": 6152,
      "χαρισ": 6153,
      "λγα": 6154,
      "σπουδη": 6155,
      "όν·": 6156,
      "λαμβά": 6157,
      "Πολυ": 6158,
      "ἑβδο": 6159,
      "ούς,": 6160,
      "Συμβούλιο": 6161,
      "ξειν": 6162,
      "πανα": 6163,
      "μερα": 6164,
      "λοί": 6165,
      "δικαίως": 6166,
      "διάν": 6167,
      "Ἱερο": 6168,
      "δης,": 6169,
      "γλώσ": 6170,
      "τούτου,": 6171,
      "ρασ": 6172,
      "εὐεργε": 6173,
      "τυφ": 6174,
      "Καίσα": 6175,
      "μάτι": 6176,
      "τούτων,": 6177,
      "τέλους": 6178,
      "σταται": 6179,
      "κρη": 6180,
      "ὀνομα": 6181,
      "ΑΒ": 6182,
      "οἰκεῖ": 6183,
      "θῇ,": 6184,
      "φρόν": 6185,
      "οὐρανοῦ": 6186,
      "λάμ": 6187,
      "17.": 6188,
      "Έ": 6189,
      "σεβα": 6190,
      "μενο": 6191,
      "εὐθύ": 6192,
      "δίως": 6193,
      "κρατή": 6194,
      "τοιαύτης": 6195,
      "κόλ": 6196,
      "ἀκόμη": 6197,
      "λάβ": 6198,
      "μευ": 6199,
      "προσωπι": 6200,
      "θαύ": 6201,
      "Δεν": 6202,
      "φωνή": 6203,
      "τετά": 6204,
      "βαλλο": 6205,
      "ψύ": 6206,
      "καλοῦ": 6207,
      "ἰδὼν": 6208,
      "ti": 6209,
      "ανί": 6210,
      "ἐκεῖνοι": 6211,
      "ΑΙ.": 6212,
      "Μο": 6213,
      "γένε": 6214,
      "πόλεως,": 6215,
      "Τῆς": 6216,
      "VII": 6217,
      "Εὔ": 6218,
      "Νυ": 6219,
      "πανταχ": 6220,
      "ΠΛ": 6221,
      "αν·": 6222,
      "Εκκλη": 6223,
      "λίᾳ": 6224,
      "μουσι": 6225,
      "βῆ": 6226,
      "Σώ": 6227,
      "ν᾽": 6228,
      "ἀλλά": 6229,
      "ττό": 6230,
      "20.": 6231,
      "νικα": 6232,
      "πίστιν": 6233,
      "ρθώ": 6234,
      "᾿Αχι": 6235,
      "ὲ": 6236,
      "ἅγιον": 6237,
      "νεω": 6238,
      "μεγάλα": 6239,
      "ρβα": 6240,
      "αὐτῆς.": 6241,
      "ανά": 6242,
      "συνεδ": 6243,
      "θη.": 6244,
      "πλοῦ": 6245,
      "λμα": 6246,
      "ἀρχὴ": 6247,
      "ὁλο": 6248,
      "φασιν": 6249,
      "Πολι": 6250,
      "σφά": 6251,
      "ἑκατὸν": 6252,
      "γγει": 6253,
      "εῖσθαι": 6254,
      "ψυχὴ": 6255,
      "ιον": 6256,
      "πληροφο": 6257,
      "μέν,": 6258,
      "ἐθνῶν": 6259,
      "᾿Αγα": 6260,
      "Τότε": 6261,
      "σηγη": 6262,
      "ἄνωθεν": 6263,
      "ξιν,": 6264,
      "λογισ": 6265,
      "κινδυ": 6266,
      "Βά": 6267,
      "κῳ": 6268,
      "πρώτην": 6269,
      "Δο": 6270,
      "κεφαλὴν": 6271,
      "ὁποίας": 6272,
      "αιρε": 6273,
      "χθον": 6274,
      "14.": 6275,
      "δημό": 6276,
      "λοιπα": 6277,
      "Ὄ": 6278,
      "Χριστιαν": 6279,
      "ἀνυ": 6280,
      "λόγη": 6281,
      "ἔτους": 6282,
      "πλοι": 6283,
      "ίαν,": 6284,
      "παρελθ": 6285,
      "θείᾳ": 6286,
      "ῥυ": 6287,
      "σβε": 6288,
      "le": 6289,
      "κοινὸν": 6290,
      "γνώμη": 6291,
      "νη.": 6292,
      "τὸ,": 6293,
      "αὐτῷ.": 6294,
      "Αἰγυ": 6295,
      "18.": 6296,
      "κῦ": 6297,
      "διατα": 6298,
      "θως": 6299,
      "γγι": 6300,
      "ττει": 6301,
      "ὑμῶν,": 6302,
      "μόλις": 6303,
      "λαὸς": 6304,
      "ὁποίαν": 6305,
      "ἀμύ": 6306,
      "διος": 6307,
      "θεια": 6308,
      "σαύτως": 6309,
      "ών.": 6310,
      "σιῶν": 6311,
      "ἄχρι": 6312,
      "ῥι": 6313,
      "μὼν": 6314,
      "Τρώ": 6315,
      "ποτέ": 6316,
      "ΥΝ": 6317,
      "λαιον": 6318,
      "διδ": 6319,
      "θεοὺς": 6320,
      "Για": 6321,
      "σύγ": 6322,
      "τῷ": 6323,
      "ἐποιή": 6324,
      "κ᾿": 6325,
      "απα": 6326,
      "τρίτον": 6327,
      "μεγάλου": 6328,
      "ἔχει,": 6329,
      "δικαιω": 6330,
      "θεῖον": 6331,
      "δηλονότι": 6332,
      "Κρά": 6333,
      "φησὶν": 6334,
      "ὁποῦ": 6335,
      "ΑΚ": 6336,
      "κατώ": 6337,
      "παίδων": 6338,
      "κυν": 6339,
      "ἄλλας": 6340,
      "κος,": 6341,
      "ἰδεῖν": 6342,
      "μιὰ": 6343,
      "φεί": 6344,
      "κεν.": 6345,
      "ἐκείνους": 6346,
      "αρχι": 6347,
      "πτειν": 6348,
      "αἰχμα": 6349,
      "μέγε": 6350,
      "γένους": 6351,
      "πάσῃ": 6352,
      "βολὴν": 6353,
      "φιλοσοφί": 6354,
      "μας.": 6355,
      "ἡμῖν,": 6356,
      "ζοντο": 6357,
      "γίου": 6358,
      "διατε": 6359,
      "στρατηγ": 6360,
      "προσώπου": 6361,
      "Μακεδον": 6362,
      "σημαντικό": 6363,
      "ἐνῷ": 6364,
      "αἰσθ": 6365,
      "κλῆς": 6366,
      "διδασκά": 6367,
      "ἀπέθαν": 6368,
      "διατη": 6369,
      "ἔπεμ": 6370,
      "χρει": 6371,
      "ἔλαβε": 6372,
      "σεώς": 6373,
      "τέως": 6374,
      "ΑΘ": 6375,
      "ὀρθο": 6376,
      "θεσις": 6377,
      "Αι": 6378,
      "ἀνό": 6379,
      "τινὰς": 6380,
      "ἐκκλησίας": 6381,
      "ρύ": 6382,
      "ψο": 6383,
      "πέτ": 6384,
      "ὁρᾷ": 6385,
      "Λακεδαιμονί": 6386,
      "φέρων": 6387,
      "θειαν": 6388,
      "190": 6389,
      "μητέρα": 6390,
      "ῥέ": 6391,
      "γραφή": 6392,
      "ΧΟ.": 6393,
      "προβ": 6394,
      "ἐμέ": 6395,
      "πλεῖστον": 6396,
      "προσδο": 6397,
      "ζημι": 6398,
      "πολλῆς": 6399,
      "ες.": 6400,
      "τίαν": 6401,
      "παρί": 6402,
      "ἐλθὼν": 6403,
      "ζέ": 6404,
      "με.": 6405,
      "ἄξιον": 6406,
      "βοηθ": 6407,
      "χαρ": 6408,
      "τινων": 6409,
      "θελή": 6410,
      "νος,": 6411,
      "παροι": 6412,
      "ἑρμην": 6413,
      "φίλων": 6414,
      "πλαί": 6415,
      "Λο": 6416,
      "ἔρω": 6417,
      "Ζεὺς": 6418,
      "περαι": 6419,
      "κλυ": 6420,
      "τύ": 6421,
      "Βοι": 6422,
      "διάφο": 6423,
      "ὡρισ": 6424,
      "ία.": 6425,
      "γυναικὸς": 6426,
      "τάχα": 6427,
      "ἰδίαν": 6428,
      "τησεν": 6429,
      "ποί": 6430,
      "σθῆ": 6431,
      "παντο": 6432,
      "σσά": 6433,
      "(9": 6434,
      "16.": 6435,
      "στως": 6436,
      "7,": 6437,
      "Πνεύματος": 6438,
      "δῳ": 6439,
      "ἀπεκρί": 6440,
      "ΙΚΗ": 6441,
      "ἠδύνατο": 6442,
      "Πολλ": 6443,
      "θανα": 6444,
      "καθί": 6445,
      "τόπου": 6446,
      "πέρα": 6447,
      "μάχ": 6448,
      "ἡνί": 6449,
      "ἐάν": 6450,
      "πρότα": 6451,
      "Εὐρώ": 6452,
      "τως,": 6453,
      "νοντες": 6454,
      "ἐφέ": 6455,
      "σομεν": 6456,
      "Ό": 6457,
      "ὄρ": 6458,
      "γωγ": 6459,
      "ναι,": 6460,
      "πε,": 6461,
      "κυρίως": 6462,
      "κατάστα": 6463,
      "γιον": 6464,
      "ζεται,": 6465,
      "Επί": 6466,
      "ἤθελε": 6467,
      "τὰν": 6468,
      "λον.": 6469,
      "χιστα": 6470,
      "ριστα": 6471,
      "φύσις": 6472,
      "νως": 6473,
      "καύ": 6474,
      "ἐπῆ": 6475,
      "φθα": 6476,
      "ὠφέ": 6477,
      "Σχο": 6478,
      "πὴν": 6479,
      "μμε": 6480,
      "τα·": 6481,
      "Παλαι": 6482,
      "Παῦλος": 6483,
      "μέναι": 6484,
      "πυρὸς": 6485,
      "εἶπον": 6486,
      "τῆρος": 6487,
      "φασί": 6488,
      "Ἰού": 6489,
      "Ναυ": 6490,
      "ΙΑΔΟΣ": 6491,
      "ἀληθι": 6492,
      "ἁγι": 6493,
      "μως,": 6494,
      "ποσ": 6495,
      "θεῖσαν": 6496,
      "τὴν": 6497,
      "μέγαν": 6498,
      "Ευρωπαϊκής": 6499,
      "ἐνθά": 6500,
      "θεοὶ": 6501,
      "οντι": 6502,
      "παῖδας": 6503,
      "ἀργύ": 6504,
      "σοι,": 6505,
      "χρω": 6506,
      "ῥο": 6507,
      "(8": 6508,
      "προτά": 6509,
      "λέγειν,": 6510,
      "βὰς": 6511,
      "αγ": 6512,
      "ξ.": 6513,
      "ζητή": 6514,
      "κί": 6515,
      "ρᾶ": 6516,
      "ζοντας": 6517,
      "ζομένων": 6518,
      "ἀπῆ": 6519,
      "πὸ": 6520,
      "μελι": 6521,
      "ρου.": 6522,
      "ἀκου": 6523,
      "παρ᾿": 6524,
      "ΟΠ": 6525,
      "μαϊ": 6526,
      "πόλιν,": 6527,
      "ΙΛΙΑΔΟΣ": 6528,
      "κομ": 6529,
      "΄,": 6530,
      "θετο": 6531,
      "σθα": 6532,
      "ὀφείλει": 6533,
      "δόξα": 6534,
      "αἱρε": 6535,
      "γαγε": 6536,
      "θέως": 6537,
      "εξε": 6538,
      "θήκης": 6539,
      "κάρ": 6540,
      "φορο": 6541,
      "ἀποστο": 6542,
      "χιλιά": 6543,
      "σύνο": 6544,
      "στάν": 6545,
      "νό": 6546,
      "πατρό": 6547,
      "ἕλ": 6548,
      "λέων": 6549,
      "Από": 6550,
      "αἰσθή": 6551,
      "λογο": 6552,
      "μαλα": 6553,
      "οὐσίας": 6554,
      "τίνος": 6555,
      "Επιτροπής": 6556,
      "Ἕλληνες": 6557,
      "τησις": 6558,
      "19.": 6559,
      "ἔλεγε": 6560,
      "τία": 6561,
      "γόνα": 6562,
      "θης": 6563,
      "μέγιστον": 6564,
      "μένοις,": 6565,
      "φθαρ": 6566,
      "πτα": 6567,
      "δυνατό": 6568,
      "εἰδι": 6569,
      "προσκυν": 6570,
      "ζουσα": 6571,
      "χθησαν": 6572,
      "συζήτη": 6573,
      "ταπειν": 6574,
      "τοιαῦ": 6575,
      "ιο": 6576,
      "κτύ": 6577,
      "πεποιη": 6578,
      "πολεμι": 6579,
      "εν·": 6580,
      "Ἱερουσα": 6581,
      "σφ": 6582,
      "γαγεν": 6583,
      "καρδίας": 6584,
      "Δύ": 6585,
      "συμβά": 6586,
      "πρώτη": 6587,
      "λόγος,": 6588,
      "λογία": 6589,
      "ροι,": 6590,
      "πότε": 6591,
      "ἁρμό": 6592,
      "ὁδ": 6593,
      "πάρ": 6594,
      "στὴ": 6595,
      "ae": 6596,
      "τρέ": 6597,
      "φημι": 6598,
      "Ὣς": 6599,
      "Κρή": 6600,
      "πτύ": 6601,
      "id": 6602,
      "οὐδενὸς": 6603,
      "τινὶ": 6604,
      "ἀνδρά": 6605,
      "ζά": 6606,
      "ούντων": 6607,
      "γραφῆς": 6608,
      "Εἶτα": 6609,
      "στηρί": 6610,
      "κας,": 6611,
      "σία,": 6612,
      "μεθ᾿": 6613,
      "στηρι": 6614,
      "ὕψ": 6615,
      "μένη.": 6616,
      "σιώ": 6617,
      "είᾳ": 6618,
      "ἑσπέ": 6619,
      "ac": 6620,
      "ἐξουσίαν": 6621,
      "προσευ": 6622,
      "ἑαυτοῖς": 6623,
      "τε·": 6624,
      "περιτ": 6625,
      "ζουσιν": 6626,
      "τριάκοντα": 6627,
      "φησὶ": 6628,
      "πρώ": 6629,
      "ἡμᾶς,": 6630,
      "Μωϋ": 6631,
      "κινδυνεύ": 6632,
      "λόγοι": 6633,
      "νεώ": 6634,
      "φίλος": 6635,
      "Καν": 6636,
      "γυναικῶν": 6637,
      "μελε": 6638,
      "ρειν": 6639,
      "παιδι": 6640,
      "μόν,": 6641,
      "βάλλει": 6642,
      "ὸς,": 6643,
      "Τά": 6644,
      "τρόπῳ": 6645,
      "υἱοῦ": 6646,
      "ματά": 6647,
      "μήτηρ": 6648,
      "φωνὴν": 6649,
      "κια": 6650,
      "σβη": 6651,
      "πανταχοῦ": 6652,
      "κον,": 6653,
      "κλύ": 6654,
      "συνεργα": 6655,
      "λου.": 6656,
      "βασιλείαν": 6657,
      "ζοντα": 6658,
      "λλου": 6659,
      "γνη": 6660,
      "ξασθαι": 6661,
      "φησί,": 6662,
      "ξάμενος": 6663,
      "ωσι": 6664,
      "ἐνδε": 6665,
      "ψή": 6666,
      "μένες": 6667,
      "ἀλλοτρί": 6668,
      "κι'": 6669,
      "νά": 6670,
      "ἁρμο": 6671,
      "νουμε": 6672,
      "λαὸν": 6673,
      "κρού": 6674,
      "(2)": 6675,
      "νεο": 6676,
      "ἣ": 6677,
      "ζομεν": 6678,
      "s.": 6679,
      "οτά": 6680,
      "ποιῶν": 6681,
      "καθώς": 6682,
      "9,": 6683,
      "ἑλ": 6684,
      "προα": 6685,
      "Φε": 6686,
      "αυτά": 6687,
      "μίου": 6688,
      "μνα": 6689,
      "σοφι": 6690,
      "εὑρε": 6691,
      "῾Η": 6692,
      "ἐδόκει": 6693,
      "σεων.": 6694,
      "τάξιν": 6695,
      "λικῆς": 6696,
      "σαφ": 6697,
      "δοξά": 6698,
      "λαβόντες": 6699,
      "γρά": 6700,
      "θ.": 6701,
      "οὐρανὸν": 6702,
      "σιμον": 6703,
      "πυκ": 6704,
      "σασθαι,": 6705,
      "ἱστορι": 6706,
      "νοῦς": 6707,
      "πνευματι": 6708,
      "Πλάτων": 6709,
      "πρόσθεν": 6710,
      "θέλω": 6711,
      "᾿Αθηναίων": 6712,
      "γοι": 6713,
      "θαλάσσης": 6714,
      "ἐπίσης": 6715,
      "καῖς": 6716,
      "κατω": 6717,
      "δικη": 6718,
      "οἶδα": 6719,
      "νόμων": 6720,
      "θεοῖς": 6721,
      "γένηται": 6722,
      "καλῶν": 6723,
      "βέρνη": 6724,
      "Χρυ": 6725,
      "ρόν,": 6726,
      "προθεσ": 6727,
      "Ἐκκλησίας": 6728,
      "δηλώ": 6729,
      "γῳ": 6730,
      "Χά": 6731,
      "Επει": 6732,
      "οὐδεμίαν": 6733,
      "σο,": 6734,
      "πια": 6735,
      "σουσιν": 6736,
      "ομένων": 6737,
      "οὐσίαν": 6738,
      "φορᾶς": 6739,
      "διαθέ": 6740,
      "συλλα": 6741,
      "πρέσβ": 6742,
      "τισ": 6743,
      "γματι": 6744,
      "ἀποφάσεως": 6745,
      "ΦΙΛ": 6746,
      "νοὺς": 6747,
      "πολογι": 6748,
      "od": 6749,
      "λεσμα": 6750,
      "ἐφη": 6751,
      "καθίστα": 6752,
      "γράμματα": 6753,
      "λεχ": 6754,
      "ρείου": 6755,
      "ἀρχη": 6756,
      "ἐγένοντο": 6757,
      "κὶ": 6758,
      "τές": 6759,
      "λέγων,": 6760,
      "ποίη": 6761,
      "ρίας.": 6762,
      "ρχος": 6763,
      "αἰσχύ": 6764,
      "ΕΙΑΣ": 6765,
      "χον,": 6766,
      "ρὼν": 6767,
      "ἂς": 6768,
      "καλο": 6769,
      "χεύ": 6770,
      "Γρη": 6771,
      "χεί": 6772,
      "ΩΡ": 6773,
      "ροῖ": 6774,
      "σμῷ": 6775,
      "ἀναγκαῖον": 6776,
      "Τῇ": 6777,
      "μεύ": 6778,
      "κρό": 6779,
      "Δή": 6780,
      "φῇ": 6781,
      "δίων": 6782,
      "ὄψιν": 6783,
      "προηγου": 6784,
      "ἀριστε": 6785,
      "ἐφο": 6786,
      "πολὺν": 6787,
      "πλοῖ": 6788,
      "᾿Αθην": 6789,
      "κακὰ": 6790,
      "κεῖται": 6791,
      "ἱδ": 6792,
      "Δυ": 6793,
      "ἐφ᾿": 6794,
      "θέντας": 6795,
      "Βαβυ": 6796,
      "βεβαίως": 6797,
      "σχῆμα": 6798,
      "μῦ": 6799,
      "Μεγα": 6800,
      "συντε": 6801,
      "προϋ": 6802,
      "κιον": 6803,
      "ταχέ": 6804,
      "υἱοὶ": 6805,
      "μέρει": 6806,
      "καιρῷ": 6807,
      "οί,": 6808,
      "Γερμαν": 6809,
      "70": 6810,
      "μένα": 6811,
      "᾿Αριστο": 6812,
      "ἀντε": 6813,
      "χωρίον": 6814,
      "ργο": 6815,
      "ὄντως": 6816,
      "σίως": 6817,
      "παρόντος": 6818,
      "όμεναι": 6819,
      "κερα": 6820,
      "ἔλεγον": 6821,
      "Παύ": 6822,
      "ηι": 6823,
      "σπαν": 6824,
      "αἴσθη": 6825,
      "μένειν": 6826,
      "χῶ": 6827,
      "πράξεις": 6828,
      "κράτος": 6829,
      "οὐδένα": 6830,
      "μίαν,": 6831,
      "μνημονεύ": 6832,
      "ἀξιώ": 6833,
      "κουν": 6834,
      "ὑπῆρ": 6835,
      "ρχονται": 6836,
      "ζῆν": 6837,
      "Αἰγυπτί": 6838,
      "τώρα": 6839,
      "δώδεκα": 6840,
      "οἶμαι": 6841,
      "εῖ,": 6842,
      "νική": 6843,
      "Φίλιπ": 6844,
      "φίλους": 6845,
      "βαρύ": 6846,
      "ολο": 6847,
      "ζης": 6848,
      "ἑταί": 6849,
      "τὸν": 6850,
      "γαι": 6851,
      "μόνη": 6852,
      "οὐδέποτε": 6853,
      "λίας,": 6854,
      "ἀγαπη": 6855,
      "ΙΒ": 6856,
      "πέρ": 6857,
      "ἰδίως": 6858,
      "βρε": 6859,
      "ἀπεί": 6860,
      "Γεω": 6861,
      "νόμῳ": 6862,
      "ἱερο": 6863,
      "τὶς": 6864,
      "ἔπρα": 6865,
      "μηδ᾽": 6866,
      "βολῆς": 6867,
      "ονο": 6868,
      "Φιλο": 6869,
      "πιά": 6870,
      "ἰδ": 6871,
      "θῶσιν": 6872,
      "λειφ": 6873,
      "βας": 6874,
      "ἰατ": 6875,
      "κεφαλῆς": 6876,
      "τροπολί": 6877,
      "te": 6878,
      "ἔσω": 6879,
      "ἀπολέ": 6880,
      "ἕνεκεν": 6881,
      "στώ": 6882,
      "ΑΥ": 6883,
      "ΠΑΡ": 6884,
      "αὐταῖς": 6885,
      "ξεως,": 6886,
      "Ὥ": 6887,
      "κότες": 6888,
      "ρὰς": 6889,
      "πεποίη": 6890,
      "χρῆμα": 6891,
      "ὡς": 6892,
      "Ζη": 6893,
      "Ρωμαί": 6894,
      "ῦσαι": 6895,
      "τʼ": 6896,
      "Δέ": 6897,
      "65": 6898,
      "μφί": 6899,
      "όμενος.": 6900,
      "᾿Αρχ": 6901,
      "ab": 6902,
      "ἐκεῖνα": 6903,
      "αὐτοὺς,": 6904,
      "χειμῶν": 6905,
      "λίῳ": 6906,
      "καλλί": 6907,
      "ης,": 6908,
      "πύργ": 6909,
      "χεῖρα": 6910,
      "παιδεύ": 6911,
      "εἴκοσι": 6912,
      "διοικη": 6913,
      "παιδευ": 6914,
      "κλ": 6915,
      "ἡγού": 6916,
      "Καρ": 6917,
      "κτου": 6918,
      "ρη,": 6919,
      "βάρβα": 6920,
      "ἐνθ": 6921,
      "ΚΑΤΑ": 6922,
      "είων": 6923,
      "᾿Αλλ'": 6924,
      "Ρώ": 6925,
      "ἐγκατα": 6926,
      "ῖ": 6927,
      "ωσις": 6928,
      "τορος": 6929,
      "τινά": 6930,
      "γέρον": 6931,
      "βέ": 6932,
      "ναρ": 6933,
      "ανάπτυ": 6934,
      "σκυ": 6935,
      "στ.": 6936,
      "Διονύ": 6937,
      "δὰν": 6938,
      "ην,": 6939,
      "ἡμι": 6940,
      "γίνεσθαι": 6941,
      "κόν,": 6942,
      "πεντή": 6943,
      "ἔχουσιν": 6944,
      "ί.": 6945,
      "6)": 6946,
      "ἐγώ,": 6947,
      "νήσου": 6948,
      "γέγραπ": 6949,
      "ἐκείνοις": 6950,
      "τές": 6951,
      "Δω": 6952,
      "οὔπω": 6953,
      "νῦν,": 6954,
      "ἀρχαῖ": 6955,
      "γράφει": 6956,
      "....": 6957,
      "δου,": 6958,
      "δύο": 6959,
      "πολεμίων": 6960,
      "ΤΗ": 6961,
      "ἐποίησεν": 6962,
      "ςα": 6963,
      "Χριστοῦ,": 6964,
      "νέας": 6965,
      "αγορά": 6966,
      "νέων": 6967,
      "ἔξωθεν": 6968,
      "γενομένης": 6969,
      "Κοινοβου": 6970,
      "τὸν,": 6971,
      "τῶς": 6972,
      "δῶς": 6973,
      "ὑπάρ": 6974,
      "θεραπεύ": 6975,
      "είας,": 6976,
      "τηρί": 6977,
      "ούσας": 6978,
      "διακρί": 6979,
      "νται": 6980,
      "εται,": 6981,
      "πνο": 6982,
      "βια": 6983,
      "εἰκότως": 6984,
      "Θεὸς,": 6985,
      "ΝΟΥ": 6986,
      "γραφὴν": 6987,
      "Κωνσταντί": 6988,
      "νίου": 6989,
      "εἴπω": 6990,
      "ΑΔ": 6991,
      "ἀπον": 6992,
      "ών.": 6993,
      "σημαίνει": 6994,
      "000": 6995,
      "σχύ": 6996,
      "φρέ": 6997,
      "φθον": 6998,
      "Πανα": 6999,
      "δοσιν": 7000,
      "νέον": 7001,
      "πάρε": 7002,
      "ὑμετέ": 7003,
      "ἀμέσως": 7004,
      "Κί": 7005,
      "ἄτο": 7006,
      "λέγεις": 7007,
      "ἔρη": 7008,
      "ἀσπί": 7009,
      "μαχί": 7010,
      "τίων": 7011,
      "σμα,": 7012,
      "λοι,": 7013,
      "βιβά": 7014,
      "κά,": 7015,
      "εὐδαιμον": 7016,
      "δ,": 7017,
      "πνεύματος": 7018,
      "κόλα": 7019,
      "ἀπαλλα": 7020,
      "ἑτέρων": 7021,
      "λαις": 7022,
      "γαῖ": 7023,
      "ἐκείνη": 7024,
      "νὰς": 7025,
      "Ἰδοὺ": 7026,
      "τερόν": 7027,
      "μιας": 7028,
      "ἔχομεν": 7029,
      "ἀφή": 7030,
      "δεις": 7031,
      "θρωπί": 7032,
      "χθῆναι": 7033,
      "λίπ": 7034,
      "χώρες": 7035,
      "ἁμαρτίας": 7036,
      "ἐκδο": 7037,
      "ηυ": 7038,
      "ἀλλα": 7039,
      "δήμου": 7040,
      "τῶν": 7041,
      "βος": 7042,
      "σοφο": 7043,
      "στῆναι": 7044,
      "τριή": 7045,
      "τητι": 7046,
      "δίκου": 7047,
      "ζουμε": 7048,
      "γνῶ": 7049,
      "λος.": 7050,
      "αυτού": 7051,
      "ρρο": 7052,
      "θησαυ": 7053,
      "μένοι,": 7054,
      "κάλυ": 7055,
      "θηκαν": 7056,
      "ἀνθρώπων,": 7057,
      "ὕδατος": 7058,
      "νεσθαι,": 7059,
      "θέμα": 7060,
      "ἀκολουθ": 7061,
      "καὶ,": 7062,
      "ζό": 7063,
      "ὂν": 7064,
      "ῃ,": 7065,
      "αἰτίας": 7066,
      "ὄντας": 7067,
      "ὴς": 7068,
      "τάλαν": 7069,
      "ἀλλήλοις": 7070,
      "μετο": 7071,
      "Οὗτος": 7072,
      "ἀγαθὰ": 7073,
      "ἔστη": 7074,
      "λθόντες": 7075,
      "όντες,": 7076,
      "πται": 7077,
      "μφων": 7078,
      "δία": 7079,
      "οικονομι": 7080,
      "εντα": 7081,
      "αντί": 7082,
      "ἀριθ.": 7083,
      "ἑωυ": 7084,
      "ἐμφαν": 7085,
      "έχουμε": 7086,
      "ΧΡ": 7087,
      "αὐτός": 7088,
      "τεσσα": 7089,
      "ὅρα": 7090,
      "κότα": 7091,
      "λῶν,": 7092,
      "ἑώ": 7093,
      "ὥραν": 7094,
      "αἰτή": 7095,
      "44": 7096,
      "πὸς": 7097,
      "Ἰουδαίων": 7098,
      "φέρεται": 7099,
      "ανον": 7100,
      "καλε": 7101,
      "Λακεδαιμόνι": 7102,
      "ἐγγὺς": 7103,
      "λώ": 7104,
      "ἕτερος": 7105,
      "om.": 7106,
      "ἀνοί": 7107,
      "Πατέρα": 7108,
      "διαί": 7109,
      "ἅπαξ": 7110,
      "θῆναι,": 7111,
      "πάντα,": 7112,
      "ἤγουν": 7113,
      "κύριον": 7114,
      "ἀδύνατον": 7115,
      "ἐλλ": 7116,
      "ζητεῖ": 7117,
      "κτος": 7118,
      "ἑκάστην": 7119,
      "χωρεῖ": 7120,
      "᾿Αλλ᾽": 7121,
      "λογα": 7122,
      "ναντίον": 7123,
      "ᾶ": 7124,
      "κολα": 7125,
      "στρατό": 7126,
      "όντων.": 7127,
      "ὁποίου": 7128,
      "ουσι,": 7129,
      "th": 7130,
      "Λύ": 7131,
      "τίτ": 7132,
      "βον": 7133,
      "ἀνδρὶ": 7134,
      "εἴδη": 7135,
      "νοντας": 7136,
      "σέως": 7137,
      "ἰδιω": 7138,
      "πρη": 7139,
      "ἀφ'": 7140,
      "σκαλ": 7141,
      "ά.": 7142,
      "μέχρις": 7143,
      "εἰκὸς": 7144,
      "σπε": 7145,
      "ταξε": 7146,
      "μητρὸς": 7147,
      "εἶδον": 7148,
      "οἴκου": 7149,
      "δρον": 7150,
      "μπε": 7151,
      "Οὕτως": 7152,
      "τάξεως": 7153,
      "δύναμις": 7154,
      "Τ.": 7155,
      "ἦλθον": 7156,
      "Σὺ": 7157,
      "ημε": 7158,
      "ἐστιν.": 7159,
      "τμη": 7160,
      "στοιχεῖ": 7161,
      "σελή": 7162,
      "πισθεν": 7163,
      "Ἑλλάδος": 7164,
      "ἐπιτή": 7165,
      "ἔξο": 7166,
      "ἠδὲ": 7167,
      "ἀπολύ": 7168,
      "ΠΡΟΣ": 7169,
      "Ἤ": 7170,
      "ώστε": 7171,
      "σεύ": 7172,
      "ἰδίας": 7173,
      "ἀπαλλά": 7174,
      "λοιπῶν": 7175,
      "πων.": 7176,
      "σκων": 7177,
      "τέων": 7178,
      "παῖδα": 7179,
      "σμένον": 7180,
      "ἀγὼ": 7181,
      "σταί": 7182,
      "ἀξίαν": 7183,
      "ἅτινα": 7184,
      "παραδεί": 7185,
      "ἄλλης": 7186,
      "ἀπολαύ": 7187,
      "ἰδιο": 7188,
      "αὐτῷ·": 7189,
      "δυνή": 7190,
      "μένους.": 7191,
      "ἓξ": 7192,
      "σσω": 7193,
      "στῇ": 7194,
      "βέβαι": 7195,
      "Υἱοῦ": 7196,
      "Βοιω": 7197,
      "κείας": 7198,
      "νες,": 7199,
      "ποταμοῦ": 7200,
      "ἀποκρι": 7201,
      "εἶπεν·": 7202,
      "ἐλθεῖν": 7203,
      "κάθε": 7204,
      "Δελ": 7205,
      "ὄρος": 7206,
      "21.": 7207,
      "οτε": 7208,
      "᾿Αλλ᾿": 7209,
      "εἰκόνα": 7210,
      "ἐπαγγε": 7211,
      "ἀει": 7212,
      "ἡγεῖ": 7213,
      "ὑμᾶς,": 7214,
      "ζων,": 7215,
      "τέροις": 7216,
      "κότων": 7217,
      "νῶς": 7218,
      "κατασκευά": 7219,
      "λευθε": 7220,
      "ταρά": 7221,
      "ἀτ": 7222,
      "σσων": 7223,
      "σσαν": 7224,
      "μματα": 7225,
      "προν": 7226,
      "μάτια": 7227,
      "ἡμῶν.": 7228,
      "τῆς": 7229,
      "ἱππέ": 7230,
      "ἀτι": 7231,
      "ἐφό": 7232,
      "παρασκευά": 7233,
      "τέρῳ": 7234,
      "ρὸν,": 7235,
      "ἀλλό": 7236,
      "ἔχεις": 7237,
      "σίοις": 7238,
      "ζητη": 7239,
      "κυρί": 7240,
      "ἀπέστει": 7241,
      "δρά": 7242,
      "γλω": 7243,
      "λεθ": 7244,
      "μεση": 7245,
      "ἀνώ": 7246,
      "χρηματο": 7247,
      "ἀρχῇ": 7248,
      "σημεῖον": 7249,
      "ἴσον": 7250,
      "Ὑπουργ": 7251,
      "τικοὶ": 7252,
      "ἀξιο": 7253,
      "αποτελεί": 7254,
      "νεα": 7255,
      "γνώμης": 7256,
      "τ᾽,": 7257,
      "τέρ": 7258,
      "ἄλλοτε": 7259,
      "ὁδη": 7260,
      "γε.": 7261,
      "ἀνάγκην": 7262,
      "κὸς,": 7263,
      "αἶ": 7264,
      "πόθεν": 7265,
      "καλά": 7266,
      "ἠξί": 7267,
      "στάσεις": 7268,
      "μεγάλης": 7269,
      "Κύριον": 7270,
      "σπεύ": 7271,
      "oc": 7272,
      "χρή": 7273,
      "τεθ": 7274,
      "ἔθνη": 7275,
      "ψηφι": 7276,
      "θέσιν": 7277,
      "γένοιτο": 7278,
      "σθε.": 7279,
      "βαπτί": 7280,
      "αρίου": 7281,
      "ῶται": 7282,
      "id.": 7283,
      "λτά": 7284,
      "πολιτείας": 7285,
      "σφρα": 7286,
      "όχι": 7287,
      "ειν·": 7288,
      "ζεν": 7289,
      "τὰρ": 7290,
      "πλέ": 7291,
      "λικοῦ": 7292,
      "δηλοῖ": 7293,
      "λημ": 7294,
      "ττων": 7295,
      "ῶν·": 7296,
      "ἐρα": 7297,
      "ἀλλ’": 7298,
      "ανὸς": 7299,
      "σάρκα": 7300,
      "ὁλό": 7301,
      "στατον": 7302,
      "θηναῖοι,": 7303,
      "χρησιμο": 7304,
      "ἔνδον": 7305,
      "ὁμό": 7306,
      "γενῆ": 7307,
      "ΗΛ": 7308,
      "ΚΕΦΑΛ": 7309,
      "νουσι": 7310,
      "σιδη": 7311,
      "ή,": 7312,
      "ωση": 7313,
      "ἄνε": 7314,
      "γμάτων": 7315,
      "Κου": 7316,
      "ἐπιστρέ": 7317,
      "ρέθη": 7318,
      "σαμε": 7319,
      "γενέσθαι,": 7320,
      "προϋ": 7321,
      "μικρὰ": 7322,
      "δαπαν": 7323,
      "ΤΟΝ": 7324,
      "πάθος": 7325,
      "ᾐ": 7326,
      "οἰκίας": 7327,
      "μετρί": 7328,
      "γέγονεν": 7329,
      "πνευμα": 7330,
      "ρία,": 7331,
      "εἰκόν": 7332,
      "κεκτη": 7333,
      "ὀκτω": 7334,
      "νή": 7335,
      "ἔχου": 7336,
      "κἀκεῖν": 7337,
      "Τοὺς": 7338,
      "δάν": 7339,
      "ομεν,": 7340,
      "πτων": 7341,
      "ὡσαύτως": 7342,
      "κόν.": 7343,
      "χρεί": 7344,
      "φαινό": 7345,
      "25.": 7346,
      "ναῦς": 7347,
      "ἐπορεύ": 7348,
      "ἐρη": 7349,
      "Μί": 7350,
      "ξεις,": 7351,
      "πην": 7352,
      "ἐγγράφ": 7353,
      "μῇ": 7354,
      "ἀλα": 7355,
      "μόν.": 7356,
      "δικαίου": 7357,
      "ζόμενον": 7358,
      "τρόπο": 7359,
      "βραχυ": 7360,
      "κακί": 7361,
      "ιος": 7362,
      "μένον.": 7363,
      "κέτι": 7364,
      "ἐχρη": 7365,
      "πεῖν": 7366,
      "βλασ": 7367,
      "ρῇ": 7368,
      "βαίνει": 7369,
      "κὼν": 7370,
      "και,": 7371,
      "μακρὰν": 7372,
      "τεχνι": 7373,
      "μβα": 7374,
      "φωνῆς": 7375,
      "ρκει": 7376,
      "ρόν.": 7377,
      "δόσεως": 7378,
      "μεγάλων": 7379,
      "βαρυ": 7380,
      "γνώ": 7381,
      "τελευτή": 7382,
      "ἐφαρμο": 7383,
      "τιθέ": 7384,
      "].": 7385,
      "μον.": 7386,
      "ρός,": 7387,
      "Ένωση": 7388,
      "συγκεκρι": 7389,
      "μόνα": 7390,
      "188": 7391,
      "χῇ": 7392,
      "ἕν": 7393,
      "μελλ": 7394,
      "βρέ": 7395,
      "θυμὸν": 7396,
      "ἔπα": 7397,
      "ἔθνος": 7398,
      "πλεῖστα": 7399,
      "σωτηρίαν": 7400,
      "ἀμοι": 7401,
      "διατάξεις": 7402,
      "Συνε": 7403,
      "ιδιαί": 7404,
      "ἕτερα": 7405,
      "κός,": 7406,
      "πόλεων": 7407,
      "τών": 7408,
      "ἀφορ": 7409,
      "οιο": 7410,
      "ποιοῦ": 7411,
      "πτ": 7412,
      "Ί": 7413,
      "λέγω,": 7414,
      "Ποσει": 7415,
      "Στρα": 7416,
      "τιμὴν": 7417,
      "λὰ": 7418,
      "γραφὴ": 7419,
      "δυνάμεις": 7420,
      "ἔχοι": 7421,
      "πλή": 7422,
      "43": 7423,
      "ἀριθμὸν": 7424,
      "Αργ": 7425,
      "σώματι": 7426,
      "δέχε": 7427,
      "ΥΣΣ": 7428,
      "λόγω": 7429,
      "προσῆ": 7430,
      "κων,": 7431,
      "γραφον": 7432,
      "ἐλεύθε": 7433,
      "λοιποι": 7434,
      "μίᾳ": 7435,
      "όνα": 7436,
      "νός": 7437,
      "ὁπότε": 7438,
      "γον,": 7439,
      "πρί": 7440,
      "θρώ": 7441,
      "᾿Απὸ": 7442,
      "μεγέ": 7443,
      "ἐπισκο": 7444,
      "αὐτόθι": 7445,
      "͂ν.": 7446,
      "Τρα": 7447,
      "σμάτων": 7448,
      "τουν": 7449,
      "φών": 7450,
      "Πί": 7451,
      "ἄλλῳ": 7452,
      "ούμενος": 7453,
      "πρώτης": 7454,
      "γνωρί": 7455,
      "ἐτε": 7456,
      "ὁποίων": 7457,
      "Ἦ": 7458,
      "Συρα": 7459,
      "υπηρε": 7460,
      "λέγον": 7461,
      "αυτές": 7462,
      "Οδυσ": 7463,
      "αίρεσιν": 7464,
      "τάπα": 7465,
      "θῶσι": 7466,
      "τετρά": 7467,
      "ὄντι": 7468,
      "πυρ": 7469,
      "γνυ": 7470,
      "Ατ": 7471,
      "δοκί": 7472,
      "ζευ": 7473,
      "ὑπέρ": 7474,
      "ούν": 7475,
      "γεγονός": 7476,
      "κύρι": 7477,
      "Μετα": 7478,
      "Είναι": 7479,
      "λέγουσιν": 7480,
      "πιστευ": 7481,
      "ᾄ": 7482,
      "ἑνὶ": 7483,
      "χειρὸς": 7484,
      "γόρευ": 7485,
      "βαδί": 7486,
      "ομαι": 7487,
      "χθῇ": 7488,
      "ἄρτι": 7489,
      "β,": 7490,
      "90": 7491,
      "τῳ,": 7492,
      "εἶναι·": 7493,
      "σεν·": 7494,
      "εἴποι": 7495,
      "ὥστ᾽": 7496,
      "γιγνώ": 7497,
      "δίδο": 7498,
      "ΙΓ": 7499,
      "κακοῦ": 7500,
      "εἰπόν": 7501,
      "ὀφειλέ": 7502,
      "φρε": 7503,
      "ἐμοί": 7504,
      "τροπολογ": 7505,
      "συμφο": 7506,
      "φροδί": 7507,
      "πάθη": 7508,
      "χαρακτῆ": 7509,
      "ἐγένετο,": 7510,
      "εἰσί": 7511,
      "βεβλη": 7512,
      "ΚΛΕ": 7513,
      "εἶναί": 7514,
      "θάλασσαν": 7515,
      "χριστιανι": 7516,
      "Κύριε,": 7517,
      "λετο": 7518,
      "ἐγγύ": 7519,
      "Ταύ": 7520,
      "75": 7521,
      "ἡλίου": 7522,
      "τοὔ": 7523,
      "εφαρμο": 7524,
      "ἦτον": 7525,
      "ἐτύ": 7526,
      "σέβει": 7527,
      "εἴρηται": 7528,
      "πολιν": 7529,
      "μειν": 7530,
      "ἀμφοτέρων": 7531,
      "ρχου": 7532,
      "πλαίσιο": 7533,
      "πράγματος": 7534,
      "ποὺς": 7535,
      "ΜΑΤ": 7536,
      "μοι.": 7537,
      "ΔΗΜ": 7538,
      "γράφε": 7539,
      "συκο": 7540,
      "σεαυ": 7541,
      "πότερον": 7542,
      "σθέντες": 7543,
      "μαθή": 7544,
      "σοβα": 7545,
      "ὲς": 7546,
      "τραπέ": 7547,
      "Μεγά": 7548,
      "κοδο": 7549,
      "ίαν.": 7550,
      "εσθαι,": 7551,
      "δύνασθαι": 7552,
      "θάνατος": 7553,
      "Απο": 7554,
      "Ἥ": 7555,
      "ἀσεβ": 7556,
      "ἔδωκεν": 7557,
      "καλύ": 7558,
      "ελ": 7559,
      "οἰκίαν": 7560,
      "κλῆ": 7561,
      "θύ": 7562,
      "παῖδες": 7563,
      "Φιλίπ": 7564,
      "οὖσα": 7565,
      "ι.": 7566,
      "ύω": 7567,
      "τομέα": 7568,
      "εῖς,": 7569,
      "ΠΟ": 7570,
      "ρῶν.": 7571,
      "ἐξό": 7572,
      "όταν": 7573,
      "λίθ": 7574,
      "σουσι": 7575,
      "αἵτινες": 7576,
      "συμπερι": 7577,
      "καρδίαν": 7578,
      "ἀναγκά": 7579,
      "σίῳ": 7580,
      "τέρᾳ": 7581,
      "ἔρχεται": 7582,
      "ὁδοῦ": 7583,
      "θυγατέρα": 7584,
      "Αἰγύπ": 7585,
      "καλεῖται": 7586,
      "ἐμὸν": 7587,
      "λός": 7588,
      "εία": 7589,
      "ρέσεως": 7590,
      "δακρύ": 7591,
      "εἰσῆ": 7592,
      "κυβερνή": 7593,
      "διακο": 7594,
      "ὀπίσω": 7595,
      "ἀληθὲς": 7596,
      "υπάρχει": 7597,
      "ἀπαιτεῖ": 7598,
      "ἐμπορι": 7599,
      "λη,": 7600,
      "ΟΥ.": 7601,
      "τοιοῦτος": 7602,
      "'ς": 7603,
      "βρά": 7604,
      "κὸν,": 7605,
      "διεθ": 7606,
      "Καλλι": 7607,
      "ἑπομένως": 7608,
      "ἀνθρώποι": 7609,
      "ζωο": 7610,
      "ἀνί": 7611,
      "στοις": 7612,
      "γῆς.": 7613,
      "ὀγ": 7614,
      "Νὰ": 7615,
      "σώματα": 7616,
      "κειτο": 7617,
      "δή,": 7618,
      "θάρ": 7619,
      "τεύ": 7620,
      "εθνι": 7621,
      "καταρ": 7622,
      "Θεοῦ.": 7623,
      "γοντες": 7624,
      "κρίσιν": 7625,
      "οῦσαι": 7626,
      "δοκοῦν": 7627,
      "ἀλήθειαν": 7628,
      "ἀπαιτή": 7629,
      "οὔσης": 7630,
      "χος,": 7631,
      "βλέπει": 7632,
      "θες": 7633,
      "λαμβάνειν": 7634,
      "μονά": 7635,
      "βλάβη": 7636,
      "ἀνάγκης": 7637,
      "Ευρωπαϊκό": 7638,
      "μην.": 7639,
      "σσει": 7640,
      "ἀπω": 7641,
      "ροῦντες": 7642,
      "μακρο": 7643,
      "οἰκέ": 7644,
      "γας": 7645,
      "τικὸς": 7646,
      "λυν": 7647,
      "δη,": 7648,
      "καθόλου": 7649,
      "S.": 7650,
      "ῶσι": 7651,
      "ΙΤ": 7652,
      "σῶ": 7653,
      "ἐπαί": 7654,
      "ἐπιστη": 7655,
      "Α,": 7656,
      "χειρὶ": 7657,
      "φρων": 7658,
      "ούσῃ": 7659,
      "λίαν,": 7660,
      "κασι": 7661,
      "ροῦ,": 7662,
      "ἑτέραν": 7663,
      "οῖς,": 7664,
      "αἷς": 7665,
      "τοιο": 7666,
      "ΟΔΥΣΣ": 7667,
      "ἀχ": 7668,
      "πολέμι": 7669,
      "μὰς": 7670,
      "μιᾷ": 7671,
      "ὀλίγα": 7672,
      "ρηται": 7673,
      "ἐνθυ": 7674,
      "μή,": 7675,
      "σκεύα": 7676,
      "μενοι.": 7677,
      "ἀποκρί": 7678,
      "ζῇ": 7679,
      "χειροτον": 7680,
      "ανθρώ": 7681,
      "επιχει": 7682,
      "κατι": 7683,
      "ἔπι": 7684,
      "ἐδῶ": 7685,
      "σση": 7686,
      "τρόπου": 7687,
      "ζω,": 7688,
      "ἁγίας": 7689,
      "τείαν": 7690,
      "ἄγε": 7691,
      "Αντι": 7692,
      "ρῳ,": 7693,
      "νηται": 7694,
      "διδόναι": 7695,
      "β'.": 7696,
      "συντα": 7697,
      "ἡμέρα": 7698,
      "χρῆσθαι": 7699,
      "διορί": 7700,
      "αἴτιον": 7701,
      "ἀπέκ": 7702,
      "ἔξε": 7703,
      "δαπά": 7704,
      "ὅν": 7705,
      "χείρη": 7706,
      "μων.": 7707,
      "εἰσά": 7708,
      "σωτηρίας": 7709,
      "συμβι": 7710,
      "Σώκρα": 7711,
      "οποίες": 7712,
      "μος.": 7713,
      "ἁμαρτω": 7714,
      "γέγονε": 7715,
      "εὐσε": 7716,
      "δεή": 7717,
      "φρεν": 7718,
      "σμι": 7719,
      "προειρη": 7720,
      "66": 7721,
      "φησίν,": 7722,
      "ἀσε": 7723,
      "ἔφυ": 7724,
      "πυρο": 7725,
      "ἡγεμον": 7726,
      "οΐ": 7727,
      "βων": 7728,
      "μέλι": 7729,
      "βουλόμενος": 7730,
      "μοιο": 7731,
      "στόσο,": 7732,
      "μπ": 7733,
      "εὐτυ": 7734,
      "πατρίδα": 7735,
      "ἐλαί": 7736,
      "χας": 7737,
      "τυράν": 7738,
      "βαλὼν": 7739,
      "ἐνόμι": 7740,
      "κούς": 7741,
      "Αἴγυ": 7742,
      "διαφόρων": 7743,
      "ακόμη": 7744,
      "ἅπαντας": 7745,
      "αὐτούς.": 7746,
      "τέρες": 7747,
      "νατο": 7748,
      "ἀναγνώ": 7749,
      "ἄκου": 7750,
      "μένου.": 7751,
      "καρτε": 7752,
      "τόσο": 7753,
      "λ᾽": 7754,
      "νέου": 7755,
      "ἐπιφαν": 7756,
      "έναι,": 7757,
      "Ἱπ": 7758,
      "ξαντο": 7759,
      "ΙΣ.": 7760,
      "ά,": 7761,
      "οἶμαι,": 7762,
      "ἐπειδὰν": 7763,
      "Νόμου": 7764,
      "τάχιστα": 7765,
      "χρονι": 7766,
      "τός,": 7767,
      "κύκλῳ": 7768,
      "δεί": 7769,
      "έναν": 7770,
      "χῆ": 7771,
      "σμοῦ,": 7772,
      "Δεσπό": 7773,
      "παρῆ": 7774,
      "ἡμί": 7775,
      "χονται": 7776,
      "οὐδαμῶς": 7777,
      "ἐπιστά": 7778,
      "επίπε": 7779,
      "νειν,": 7780,
      "σόμεθα": 7781,
      "ἅπαντες": 7782,
      "είαν": 7783,
      "σπουδά": 7784,
      "πιστω": 7785,
      "ῶ,": 7786,
      "αἵματος": 7787,
      "ὅλης": 7788,
      "ἀπόφασις": 7789,
      "58": 7790,
      "πεντήκοντα": 7791,
      "στήρι": 7792,
      "κάλε": 7793,
      "εὑρή": 7794,
      "στρατοῦ": 7795,
      "κἀγὼ": 7796,
      "λήψε": 7797,
      "πλείους": 7798,
      ".]": 7799,
      "στὸς": 7800,
      "πρόβα": 7801,
      "ἐρ": 7802,
      "ώθη": 7803,
      "ληπ": 7804,
      "παραί": 7805,
      "ἀγωνι": 7806,
      "ανθρω": 7807,
      "πικ": 7808,
      "κευ": 7809,
      "χθεῖ": 7810,
      "εἰσή": 7811,
      "μικρο": 7812,
      "παρει": 7813,
      "Νῦν": 7814,
      "ἀφῆ": 7815,
      "ψαλ": 7816,
      "Κερ": 7817,
      "περά": 7818,
      "προθύ": 7819,
      "προσι": 7820,
      "ψυχῇ": 7821,
      "κλέους": 7822,
      "σατο.": 7823,
      "P.": 7824,
      "Οτι": 7825,
      "ές": 7826,
      "Sch": 7827,
      "κεφαλαί": 7828,
      "ἐπιει": 7829,
      "ρεται": 7830,
      "ἔχειν,": 7831,
      "σκειν": 7832,
      "σίς": 7833,
      "μυρί": 7834,
      "μάχης": 7835,
      "κά.": 7836,
      "42": 7837,
      "μάχην": 7838,
      "ψί": 7839,
      "μηχανι": 7840,
      "οὖσαν": 7841,
      "λαθ": 7842,
      "ἴσα": 7843,
      "ἐλλεί": 7844,
      "νίκη": 7845,
      "τρύ": 7846,
      "Κυβερ": 7847,
      "η.": 7848,
      "Αχαι": 7849,
      "ζεσθαι,": 7850,
      "α)": 7851,
      "κἀ": 7852,
      "ράκοντα": 7853,
      "ὥρας": 7854,
      "πλείω": 7855,
      "απ": 7856,
      "Μιχα": 7857,
      "ζεται.": 7858,
      "τερ,": 7859,
      "ις": 7860,
      "βελτί": 7861,
      "ζεις": 7862,
      "Σκύ": 7863,
      "νδ": 7864,
      "ζῆ": 7865,
      "βούλη": 7866,
      "ἡσυ": 7867,
      "Θή": 7868,
      "καταστρο": 7869,
      "ΧΟΡΟΣ.": 7870,
      "σωμα": 7871,
      "μισυ": 7872,
      "δηλαδὴ": 7873,
      "ΔΙΚ": 7874,
      "σόν": 7875,
      "ri": 7876,
      "ὑπερο": 7877,
      "πὴ": 7878,
      "μελ": 7879,
      "φαινο": 7880,
      "δίκης": 7881,
      "νύκτα": 7882,
      "Ἰωάννης": 7883,
      "Οὐδὲ": 7884,
      "ἦν.": 7885,
      "τέμ": 7886,
      "ΑΙΟΝ": 7887,
      "νησε": 7888,
      "ἔτυ": 7889,
      "λε,": 7890,
      "νοντα": 7891,
      "ττου": 7892,
      "μᾶλλον,": 7893,
      "ττειν": 7894,
      "φερόν": 7895,
      "θείου": 7896,
      "θρησκ": 7897,
      "ἀη": 7898,
      "αυτήν": 7899,
      "ή.": 7900,
      "ἀντικεί": 7901,
      "εῖν·": 7902,
      "ενέ": 7903,
      "ββα": 7904,
      "ὑστε": 7905,
      "σπεί": 7906,
      "στρατόπε": 7907,
      "ἀνω": 7908,
      "est": 7909,
      "μετά": 7910,
      "κιστα": 7911,
      "διαθήκη": 7912,
      "μέγεθος": 7913,
      "λαῖς": 7914,
      "δεινὸν": 7915,
      "όμως": 7916,
      "Αλ": 7917,
      "ωνται": 7918,
      "Πλα": 7919,
      "τητα,": 7920,
      "διπλ": 7921,
      "διατρί": 7922,
      "φθόν": 7923,
      "Φυ": 7924,
      "πᾶσαι": 7925,
      "εἶδε": 7926,
      "ὀμ": 7927,
      "Ξέρ": 7928,
      "παντελῶς": 7929,
      "ύς": 7930,
      "δεῖξαι": 7931,
      "συνοι": 7932,
      "παμ": 7933,
      "Διά": 7934,
      "δουλεύ": 7935,
      "πρόταση": 7936,
      "ότα": 7937,
      "περιπτώσει": 7938,
      "χειρῶν": 7939,
      "ἔσχα": 7940,
      "ἐκεῖσε": 7941,
      "σίαις": 7942,
      "λοιπὰ": 7943,
      "φθέ": 7944,
      "ίΐ": 7945,
      "ψαντες": 7946,
      "γεί": 7947,
      "λλό": 7948,
      "ούς.": 7949,
      "ex": 7950,
      "γυμνα": 7951,
      "b.": 7952,
      "ζήτημα": 7953,
      "ΟΙ.": 7954,
      "πες": 7955,
      "πρώτου": 7956,
      "ρά,": 7957,
      "(3)": 7958,
      "Πέτρος": 7959,
      "νοντο": 7960,
      "ἔρ": 7961,
      "ΕΛΛ": 7962,
      "μετω": 7963,
      "ασφά": 7964,
      "ἴδω": 7965,
      "ΑΝΔ": 7966,
      "φέρω": 7967,
      "ἔς": 7968,
      "πατ": 7969,
      "ἀστέ": 7970,
      "πολιτῶν": 7971,
      "εἰρήνην": 7972,
      "πασῶν": 7973,
      "νομοθέ": 7974,
      "μένα.": 7975,
      "νους,": 7976,
      "τόπῳ": 7977,
      "σεσι": 7978,
      "στρατευ": 7979,
      "μανθάν": 7980,
      "Εὐαγγε": 7981,
      "ἱερῶν": 7982,
      "λόγως": 7983,
      "παντάπα": 7984,
      "τὲς": 7985,
      "7)": 7986,
      "βώ": 7987,
      "ΜΕΝ": 7988,
      "59": 7989,
      "κλα": 7990,
      "᾿Αθη": 7991,
      "ὀνει": 7992,
      "στήρια": 7993,
      "ὑπή": 7994,
      "22.": 7995,
      "ότητι": 7996,
      "56": 7997,
      "ἀφαι": 7998,
      "πράττειν": 7999,
      "ρπα": 8000,
      "βλ.": 8001,
      "θέλου": 8002,
      "ενός": 8003,
      "φ'": 8004,
      "Ἰουδαῖ": 8005,
      "ἀθανά": 8006,
      "χρόνος": 8007,
      "ἁμαρτά": 8008,
      "μυριά": 8009,
      "πρωτό": 8010,
      "ἀλλʼ": 8011,
      "ἀγγε": 8012,
      "ὅσῳ": 8013,
      "πεφυ": 8014,
      "πελά": 8015,
      "ωμεν": 8016,
      "μίων": 8017,
      "ἐγεί": 8018,
      "έν": 8019,
      "θεὶς,": 8020,
      "λάβω": 8021,
      "σάμενος,": 8022,
      "σίαι": 8023,
      "λοὶ": 8024,
      "κατανα": 8025,
      "όμενον.": 8026,
      "Κῦρος": 8027,
      "ξαντες": 8028,
      "σταλ": 8029,
      "συμμά": 8030,
      "κτε": 8031,
      "ποιή": 8032,
      "κες,": 8033,
      "ἵππους": 8034,
      "αὐτόν·": 8035,
      "μπαν": 8036,
      "τηλε": 8037,
      "πραγματο": 8038,
      "ἐμπό": 8039,
      "νην.": 8040,
      "Λί": 8041,
      "ἀγορα": 8042,
      "πλεύ": 8043,
      "δικος": 8044,
      "Ὅταν": 8045,
      "ΙΑΣ": 8046,
      "Μενέ": 8047,
      "τιμῆς": 8048,
      "ταύτην,": 8049,
      "οῦμεν": 8050,
      "ἀπέν": 8051,
      "8)": 8052,
      "δωκε": 8053,
      "ἐκτέλε": 8054,
      "ψηφο": 8055,
      "ξεύ": 8056,
      "ΑΛΛ": 8057,
      "πατρίδος": 8058,
      "κατομ": 8059,
      "β'": 8060,
      "σωφρον": 8061,
      "οῦντα": 8062,
      "λομεν": 8063,
      "λτα": 8064,
      "χρόνους": 8065,
      "ρια,": 8066,
      "προσά": 8067,
      "φό": 8068,
      "αϊ": 8069,
      "λίου,": 8070,
      "εδώ": 8071,
      "δικαστήριον": 8072,
      "ἐχθρῶν": 8073,
      "μεθ'": 8074,
      "πληθυ": 8075,
      "κάθε": 8076,
      "ἐφαί": 8077,
      "᾿Αλέξανδ": 8078,
      "τάφ": 8079,
      "τύραν": 8080,
      "όλα": 8081,
      "ΟΛΟΓ": 8082,
      "ῶσιν": 8083,
      "§.": 8084,
      "βούλεται": 8085,
      "ναύ": 8086,
      "μεταρ": 8087,
      "σταὶ": 8088,
      "δικον": 8089,
      "φάρμα": 8090,
      "νομεν": 8091,
      "φιλον": 8092,
      "Θρά": 8093,
      "σες": 8094,
      "παραδο": 8095,
      "σε·": 8096,
      "νας.": 8097,
      "ριώ": 8098,
      "συνό": 8099,
      "ήν,": 8100,
      "Εἶναι": 8101,
      "100": 8102,
      "καπ": 8103,
      "μένο": 8104,
      "σολύ": 8105,
      "συμβαίνει": 8106,
      "ὣς": 8107,
      "ἱππο": 8108,
      "ἄμφω": 8109,
      "ρός.": 8110,
      "τημα": 8111,
      "ἐπιτήδει": 8112,
      "χρεω": 8113,
      "δεσμ": 8114,
      "θερά": 8115,
      "ἠθέλη": 8116,
      "Ξενοφῶν": 8117,
      "΄)": 8118,
      "χρόνων": 8119,
      "την.": 8120,
      "τίθεται": 8121,
      "πάρχ": 8122,
      "λας,": 8123,
      "ἤθελεν": 8124,
      "γίνονται": 8125,
      "ούμενον": 8126,
      "φιλοτι": 8127,
      "μεῖζον": 8128,
      "γάμου": 8129,
      "ότητος,": 8130,
      "βάλῃ": 8131,
      "πέφυ": 8132,
      "θ᾽,": 8133,
      "εὑρίσκ": 8134,
      "δι,": 8135,
      "ὸς": 8136,
      "ρεσιν": 8137,
      "9)": 8138,
      "λεὺς": 8139,
      "υπερ": 8140,
      "εἴπῃ": 8141,
      "φέρει": 8142,
      "ἐγε": 8143,
      "ἀε": 8144,
      "φέρῃ": 8145,
      "μέσου": 8146,
      "ῥᾳδίως": 8147,
      "φιλοσό": 8148,
      "λίους": 8149,
      "εὐθέως": 8150,
      "ραῖς": 8151,
      "πεποι": 8152,
      "ἄνθρωπος,": 8153,
      "σήμερα": 8154,
      "θρησκευ": 8155,
      "λάχιστον": 8156,
      "co": 8157,
      "᾿Αθηναῖοι": 8158,
      "κρατών": 8159,
      "ἐκτελέ": 8160,
      "Ναί": 8161,
      "δεδε": 8162,
      "ἐπιτροπη": 8163,
      "ἐπίστα": 8164,
      "ραγ": 8165,
      "δίδου": 8166,
      "νου.": 8167,
      "χθύ": 8168,
      "φορι": 8169,
      "τω,": 8170,
      "πολί": 8171,
      "ψηφί": 8172,
      "ανάπτυξη": 8173,
      "λεπτο": 8174,
      "σιον,": 8175,
      "δωκεν": 8176,
      "οὗτος,": 8177,
      "ῤῥη": 8178,
      "γίγνεται": 8179,
      "ήδη": 8180,
      "λέως": 8181,
      "λεγό": 8182,
      "συγγρα": 8183,
      "ἐδίδα": 8184,
      "εια": 8185,
      "πράξεως": 8186,
      "σὴ": 8187,
      "γέννη": 8188,
      "ὀνόματα": 8189,
      "διακον": 8190,
      "ΟΔΥΣΣΕΙΑΣ": 8191,
      "εὐτυχ": 8192,
      "ἀκούσας": 8193,
      "Υἱὸς": 8194,
      "Πολ.": 8195,
      "θείων": 8196,
      "σθη,": 8197,
      "ἀνῆ": 8198,
      "ἄπο": 8199,
      "δα·": 8200,
      "μυστι": 8201,
      "γωγῆς": 8202,
      "στρατηγι": 8203,
      "βίῳ": 8204,
      "περιφε": 8205,
      "ἀκά": 8206,
      "ροῦνται": 8207,
      "ἀγωγῆς": 8208,
      "ἡδέ": 8209,
      "μονῆς": 8210,
      "μῳ,": 8211,
      "χριστιαν": 8212,
      "ώνυ": 8213,
      "σασθαι.": 8214,
      "σημε": 8215,
      "ΑΡΧ": 8216,
      "γενναί": 8217,
      "γωγὴν": 8218,
      "συμβε": 8219,
      "στώ": 8220,
      "σσυ": 8221,
      "τιο": 8222,
      "χετο": 8223,
      "πατρὶ": 8224,
      "βολή": 8225,
      "ήν.": 8226,
      "μός,": 8227,
      "ρέως": 8228,
      "πτη": 8229,
      "τηρή": 8230,
      "μεῖς,": 8231,
      "ρθέν": 8232,
      "οῦνται": 8233,
      "ταχέως": 8234,
      "στηρίου": 8235,
      "Διότι": 8236,
      "δρος": 8237,
      "ἰσο": 8238,
      "τρὸς,": 8239,
      "κάποι": 8240,
      "γονται": 8241,
      "λικῶν": 8242,
      "ὄπισθεν": 8243,
      "εκεί": 8244,
      "νεκα": 8245,
      "Γεν": 8246,
      "ἐκάλε": 8247,
      "͂σαι.": 8248,
      "καιρὸς": 8249,
      "γυναῖκες": 8250,
      "τρου": 8251,
      "λιον,": 8252,
      "τὰ": 8253,
      "φιλανθρωπί": 8254,
      "Ιπ": 8255,
      "τὲ": 8256,
      "συνδρο": 8257,
      "κανόν": 8258,
      "ξό": 8259,
      "ανό": 8260,
      "βαλεῖν": 8261,
      "ἡμέραις": 8262,
      "στατα": 8263,
      "εἰδὼς": 8264,
      "ὑπηρέ": 8265,
      "πλημμε": 8266,
      "ΙΩ": 8267,
      "μέσ": 8268,
      "],": 8269,
      "D.": 8270,
      "di": 8271,
      "ἐκλο": 8272,
      "L.": 8273,
      "γνή": 8274,
      "Κυβερνή": 8275,
      "ἀναγκα": 8276,
      "ὼν,": 8277,
      "ζεύ": 8278,
      "ῥύ": 8279,
      "νικη": 8280,
      "υπέ": 8281,
      "εργέ": 8282,
      "ροῦσι": 8283,
      "σωμάτων": 8284,
      "χάρις": 8285,
      "ανέ": 8286,
      "μορφ": 8287,
      "ἀποτελεῖ": 8288,
      "ειδι": 8289,
      "ἰδίων": 8290,
      "ἱκε": 8291,
      "ἐνίοτε": 8292,
      "ΟΥΛ": 8293,
      "στρατοπέ": 8294,
      "νῶν,": 8295,
      "δῆμον": 8296,
      "ἑξη": 8297,
      "γαστ": 8298,
      "νετο.": 8299,
      "σάκις": 8300,
      "23.": 8301,
      "τοιούτου": 8302,
      "βίβ": 8303,
      "ζοι": 8304,
      "λλω": 8305,
      "σίαν.": 8306,
      "γους": 8307,
      "ἐκρά": 8308,
      "δίαν": 8309,
      "con": 8310,
      "ξεν,": 8311,
      "ἀκροα": 8312,
      "σκοπὸν": 8313,
      "διηγή": 8314,
      "᾿Απόλλων": 8315,
      "ρισμοῦ": 8316,
      "ὕμ": 8317,
      "φισμα": 8318,
      "ἀποθνή": 8319,
      "ἀτε": 8320,
      "Ἀλλ᾿": 8321,
      "ντων,": 8322,
      "ϲ,": 8323,
      "ἀφ᾿": 8324,
      "ίῳ": 8325,
      "αὶ,": 8326,
      "ΰ": 8327,
      "ἀπόστο": 8328,
      "κοινῇ": 8329,
      "κεύ": 8330,
      "Αθή": 8331,
      "ργυ": 8332,
      "φρού": 8333,
      "αἰῶνος": 8334,
      "γιγνο": 8335,
      "ter": 8336,
      "κρου": 8337,
      "ζειν.": 8338,
      "ἔκα": 8339,
      "τινῶν": 8340,
      "Θηβαί": 8341,
      "Ἵ": 8342,
      "ία,": 8343,
      "σαρκὸς": 8344,
      "χοντο": 8345,
      "τεῖχος": 8346,
      "σθέντα": 8347,
      "(3": 8348,
      "αὐτῶν·": 8349,
      "ἱερὰ": 8350,
      "δοκοῦ": 8351,
      "προκειμένου": 8352,
      "ζοντος": 8353,
      "ἀμφότερα": 8354,
      "ποιεῖν,": 8355,
      "γορευ": 8356,
      "βουλη": 8357,
      "h.": 8358,
      "παιδὸς": 8359,
      "εμπο": 8360,
      "ἡγεμόν": 8361,
      "οντο,": 8362,
      "οῦντας": 8363,
      "δημοσιεύ": 8364,
      "φοβη": 8365,
      "Μαυ": 8366,
      "ἐπάνω": 8367,
      "ζημί": 8368,
      "λυπη": 8369,
      "διότι": 8370,
      "ἐπικρα": 8371,
      "ἠπεί": 8372,
      "Ὕ": 8373,
      "ἐξωτερι": 8374,
      "γνῶν": 8375,
      "ἠρώ": 8376,
      "γυναῖκας": 8377,
      "Πατριάρχ": 8378,
      "συνέβη": 8379,
      "ισ": 8380,
      "Γέ": 8381,
      "αἴτι": 8382,
      "γαρ": 8383,
      "υπ": 8384,
      "a.": 8385,
      "ἐχόντων": 8386,
      "Δό": 8387,
      "͂ται,": 8388,
      "θμι": 8389,
      "οὐδενὶ": 8390,
      "νοια": 8391,
      "μηκέτι": 8392,
      "μενα.": 8393,
      "ἐπιτε": 8394,
      "χόθεν": 8395,
      "γῆν,": 8396,
      "απαι": 8397,
      "στος,": 8398,
      "τωσαν": 8399,
      "Ἑρ": 8400,
      "Ρα": 8401,
      "νόμου,": 8402,
      "συζήτηση": 8403,
      "ἐποίησε": 8404,
      "αυτο": 8405,
      "ἄμειν": 8406,
      "γίαν": 8407,
      "είας.": 8408,
      "μένος.": 8409,
      "τικῷ": 8410,
      "μένην.": 8411,
      "θάλα": 8412,
      "ἥμισυ": 8413,
      "᾿Αλεξάν": 8414,
      "ἀκυ": 8415,
      "δεῦρο": 8416,
      "ζαν": 8417,
      "εσσι": 8418,
      "ἑκάστη": 8419,
      "όσο": 8420,
      "δώσῃ": 8421,
      "ius": 8422,
      "αλι": 8423,
      "ρρη": 8424,
      "κατάσταση": 8425,
      "νοί": 8426,
      "καίπερ": 8427,
      "φθεί": 8428,
      "υἱῶν": 8429,
      "τασιν": 8430,
      "διαφέρει": 8431,
      "στας": 8432,
      "τάξει": 8433,
      "Ιωάν": 8434,
      "ὀνο": 8435,
      "δίω": 8436,
      "ὄφε": 8437,
      "85": 8438,
      "δεο": 8439,
      "μηδένα": 8440,
      "ζει.": 8441,
      "θλι": 8442,
      "θεῖς": 8443,
      "γνῶσιν": 8444,
      "σειεν": 8445,
      "εη": 8446,
      "φωνῇ": 8447,
      "λιστα": 8448,
      "σκου": 8449,
      "Τύ": 8450,
      "ζῴ": 8451,
      "εΐ": 8452,
      "ἐπαύ": 8453,
      "ία,": 8454,
      "διαλύ": 8455,
      "ἐξαι": 8456,
      "ύθυν": 8457,
      "ὑπαρχ": 8458,
      "Περσῶν": 8459,
      "κράτει": 8460,
      "ὥρα": 8461,
      "θυγά": 8462,
      "τηρη": 8463,
      "λέγει·": 8464,
      "φθι": 8465,
      "δικεί": 8466,
      "όμαστε": 8467,
      "διατρι": 8468,
      "τμή": 8469,
      "ἀποδο": 8470,
      "τελευτα": 8471,
      "ὄρνι": 8472,
      "στέφαν": 8473,
      "κλαί": 8474,
      "σσεται": 8475,
      "λικὸν": 8476,
      "ἵπποι": 8477,
      "σῷ": 8478,
      "Τουρ": 8479,
      ".”": 8480,
      "Ια": 8481,
      "αὐτήν.": 8482,
      "εὐρυ": 8483,
      "κήν": 8484,
      "ληψιν": 8485,
      "στοιχεί": 8486,
      "τορα": 8487,
      "ἵππων": 8488,
      "Λακεδαιμονίων": 8489,
      "̓ῥη": 8490,
      "δόξῃ": 8491,
      "οἶδε": 8492,
      "χρησ": 8493,
      "λαμβανο": 8494,
      "κύριε": 8495,
      "ἔνθεν": 8496,
      "τυπώ": 8497,
      "επίπεδο": 8498,
      "ὅμοιον": 8499,
      "τοῦντες": 8500,
      "τός.": 8501,
      "and": 8502,
      "λέγοντος": 8503,
      "γίνεται,": 8504,
      "ίνει": 8505,
      "ποδῶν": 8506,
      "ἀπάν": 8507,
      "ὦν": 8508,
      "μοναχ": 8509,
      "τέθη": 8510,
      "όρ": 8511,
      "συνεργ": 8512,
      "ἐδά": 8513,
      "κατοί": 8514,
      "κόσμῳ": 8515,
      "ξεί": 8516,
      "πειρά": 8517,
      "ῤῥή": 8518,
      "γὰ": 8519,
      "γραμμάτων": 8520,
      "Ι,": 8521,
      "Υἱὸν": 8522,
      "ταῦτά": 8523,
      "νοίας": 8524,
      "ἴδε": 8525,
      "μάτην": 8526,
      "ἑαυτῆς": 8527,
      "ευχαρι": 8528,
      "στον,": 8529,
      "ἔλθ": 8530,
      "γεγόνα": 8531,
      "αὐτοῖς.": 8532,
      "νωσιν": 8533,
      "οῖν": 8534,
      "ἀρέ": 8535,
      "τυγχάνει": 8536,
      "νύμ": 8537,
      "ηὐ": 8538,
      "εἴρηται,": 8539,
      "δός": 8540,
      "δίκαια": 8541,
      "ὅλου": 8542,
      "ἀλλη": 8543,
      "ὀκτὼ": 8544,
      "Κυρίῳ": 8545,
      "Πλὴν": 8546,
      "θείαν": 8547,
      "καθηγη": 8548,
      "τεῖς": 8549,
      "ταπει": 8550,
      "πνεύματι": 8551,
      "ποιεῖσθαι": 8552,
      "ιΐ": 8553,
      "μέλει": 8554,
      "τυραννί": 8555,
      "πυν": 8556,
      "ἦταν": 8557,
      "πάλιν,": 8558,
      "ἔσχε": 8559,
      "ποταμὸν": 8560,
      "ττη": 8561,
      "μόνην": 8562,
      "χ᾽": 8563,
      "συλλογι": 8564,
      "αἰεὶ": 8565,
      "φαύ": 8566,
      "μεγαλύ": 8567,
      "προσπά": 8568,
      "τουρκι": 8569,
      "ριον.": 8570,
      "λειν": 8571,
      "τῦ": 8572,
      "ΚΡΑΤ": 8573,
      "ΝΕ": 8574,
      "θέση": 8575,
      "Βού": 8576,
      "ποινι": 8577,
      "ρης,": 8578,
      "σωφροσύ": 8579,
      "κει,": 8580,
      "κετο": 8581,
      "πέμπει": 8582,
      "ψον": 8583,
      "κρέ": 8584,
      "κελευ": 8585,
      "γες": 8586,
      "Πομ": 8587,
      "νηυ": 8588,
      "Κοριν": 8589,
      "γγυ": 8590,
      "οὐδεμία": 8591,
      "φερε": 8592,
      "ἐφαρ": 8593,
      "λης,": 8594,
      "χωρί": 8595,
      "ἰδιώ": 8596,
      "κατόπιν": 8597,
      "σκευασ": 8598,
      "θὴς": 8599,
      "Ἑβ": 8600,
      "Κορίν": 8601,
      "κολούθη": 8602,
      "ἐπιχειρή": 8603,
      "Γαλλ": 8604,
      "Κέ": 8605,
      "ver": 8606,
      "άς": 8607,
      "τώρα": 8608,
      "ἀποδεικνύ": 8609,
      "σοφίας": 8610,
      "ἔπαι": 8611,
      "σκαν": 8612,
      "στεῖ": 8613,
      "αριθ": 8614,
      "ἑτέρας": 8615,
      "σθέντος": 8616,
      "δώσει": 8617,
      "ΡΑΦ": 8618,
      "δεικνυ": 8619,
      "ΥΜ": 8620,
      "ἕτοι": 8621,
      "ρισμὸν": 8622,
      "ἐστίν.": 8623,
      "σπέρ": 8624,
      "ϲ.": 8625,
      "κοί": 8626,
      "νός,": 8627,
      "τετάρ": 8628,
      "ἱκέ": 8629,
      "τριον": 8630,
      "ὅλοι": 8631,
      "ριπί": 8632,
      "δεσπο": 8633,
      "Πειραι": 8634,
      "ρει,": 8635,
      "αὐτὴν,": 8636,
      "πλήθει": 8637,
      "χρυσο": 8638,
      "εἴη,": 8639,
      "σητε": 8640,
      "ἀδίκ": 8641,
      "μενη": 8642,
      "Θεοτό": 8643,
      "σον.": 8644,
      "57": 8645,
      "δεται": 8646,
      "ἄδει": 8647,
      "στερε": 8648,
      "24.": 8649,
      "ἐσθί": 8650,
      "Νί": 8651,
      "Λιβύ": 8652,
      "ἑτοι": 8653,
      "θυμῷ": 8654,
      "τικὰς": 8655,
      "ἑταῖ": 8656,
      "πολεμίους": 8657,
      "ἱερα": 8658,
      "λαχ": 8659,
      "βαλεν": 8660,
      "ἂν,": 8661,
      "ποιέ": 8662,
      "ἀφέ": 8663,
      "πολὺς": 8664,
      "τραν": 8665,
      "τικοῖς": 8666,
      "πολέμῳ": 8667,
      "ΕΞ": 8668,
      "ἔδωκε": 8669,
      "δήπου": 8670,
      "ὡμο": 8671,
      "Πρέπει": 8672,
      "41": 8673,
      "κόσμος": 8674,
      "ἐμὴν": 8675,
      "αντιμετω": 8676,
      "ἀνθρώπι": 8677,
      "στηκε": 8678,
      "ἐρχ": 8679,
      "γωγή": 8680,
      "ἔγωγε": 8681,
      "ἀνακο": 8682,
      "e.": 8683,
      "εἴς": 8684,
      "τοὐναντίον": 8685,
      "συγγραφ": 8686,
      "δωρος": 8687,
      "συνεί": 8688,
      "ἔχοντας": 8689,
      "ἐνθάδε": 8690,
      "ἀντέ": 8691,
      "Ελλά": 8692,
      "γὰρ": 8693,
      "προτι": 8694,
      "σομαι,": 8695,
      "ὀκ": 8696,
      "ἐγνώ": 8697,
      "ἄγα": 8698,
      "ΑΧ": 8699,
      "γέρων": 8700,
      "εἰρήνης": 8701,
      "ΟΥΚ": 8702,
      "στεφάν": 8703,
      "νόμα": 8704,
      "μι,": 8705,
      "συνεχ": 8706,
      "κότος": 8707,
      "τηση": 8708,
      "ἰχθύ": 8709,
      "μόνῳ": 8710,
      "ΟΚ": 8711,
      "θηκεν": 8712,
      "ἱερω": 8713,
      "νέος": 8714,
      "σφαλ": 8715,
      "ἐφί": 8716,
      "κληρι": 8717,
      "δύναι": 8718,
      "(2": 8719,
      "επει": 8720,
      "σεσθε": 8721,
      "σύζυ": 8722,
      "ἀμφί": 8723,
      "πτωχ": 8724,
      "ρθρ.": 8725,
      "ἀντικει": 8726,
      "Θεός": 8727,
      "άνων": 8728,
      "συνόδου": 8729,
      "σὴν": 8730,
      "βαλον": 8731,
      "͂σα": 8732,
      "ἔλθῃ": 8733,
      "φεί": 8734,
      "ψυχὰς": 8735,
      "tr": 8736,
      "io": 8737,
      "βούλευ": 8738,
      "φὰς": 8739,
      "μήν.": 8740,
      "διδο": 8741,
      "Ευρωπαϊκού": 8742,
      "Γεώ": 8743,
      "φόρου": 8744,
      "οντας,": 8745,
      "ρών": 8746,
      "ταύτης,": 8747,
      "καθῆ": 8748,
      "ἑρμη": 8749,
      "Στε": 8750,
      "ἑπό": 8751,
      "ποντες": 8752,
      "τόνδε": 8753,
      "πατέρων": 8754,
      "ἀθρό": 8755,
      "ομά": 8756,
      "Παι": 8757,
      "Αὐτο": 8758,
      "Ἰωάννου": 8759,
      "δεχο": 8760,
      "τέταρ": 8761,
      "καινο": 8762,
      "ἥκιστα": 8763,
      "γαλλι": 8764,
      "στησαν": 8765,
      "χρείαν": 8766,
      "ρωθεν": 8767,
      "Ἰησοῦν": 8768,
      "προφαν": 8769,
      "ΤΟΣ": 8770,
      "βαρβάρων": 8771,
      "δεξά": 8772,
      "Βαρ": 8773,
      "οἰκογεν": 8774,
      "πωλη": 8775,
      "δοκεῖν": 8776,
      "συνῆ": 8777,
      "λαὶ": 8778,
      "βλασφη": 8779,
      "μός.": 8780,
      "τίθεν": 8781,
      "ᾳ.": 8782,
      "σμένος": 8783,
      "δρας": 8784,
      "Παυ": 8785,
      "διάφορα": 8786,
      "Ομά": 8787,
      "κλε": 8788,
      "30.": 8789,
      "κράτους": 8790,
      "γιγνό": 8791,
      "σαντι": 8792,
      "νόμοι": 8793,
      "Φαί": 8794,
      "θεοῦ,": 8795,
      "πος.": 8796,
      "δ'.": 8797,
      "καται": 8798,
      "λονί": 8799,
      "δώ": 8800,
      "Ἔστι": 8801,
      "ένα": 8802,
      "τέχνης": 8803,
      "πτεται": 8804,
      "κίου": 8805,
      "βέλτι": 8806,
      "ἀμφισβη": 8807,
      "ἀγαθοῦ": 8808,
      "νει.": 8809,
      "ότητα,": 8810,
      "ἴδια": 8811,
      "Γεωργ": 8812,
      "τροφῆς": 8813,
      "λων.": 8814,
      "γενόμενον": 8815,
      "εἰρημένων": 8816,
      "διον,": 8817,
      "γαν": 8818,
      "εξαι": 8819,
      "ἔχε": 8820,
      "κορ": 8821,
      "μικροῦ": 8822,
      "πέρας": 8823,
      "λὴν,": 8824,
      "ἀπορ": 8825,
      "ιδιαίτερα": 8826,
      "ἀσφά": 8827,
      "οῦντος": 8828,
      "σπί": 8829,
      "ἀγῶνα": 8830,
      "θυσια": 8831,
      "μις": 8832,
      "θαλάτ": 8833,
      "λλεται": 8834,
      "εἶπε,": 8835,
      "Πρα": 8836,
      "δύω": 8837,
      "ἀποστα": 8838,
      "νεῶν": 8839,
      "όλη": 8840,
      "παρακαλ": 8841,
      "τόν·": 8842,
      "σπουδαί": 8843,
      "Αὐτὸς": 8844,
      "φθό": 8845,
      "στὶ": 8846,
      "ἔχει.": 8847,
      "Τρω": 8848,
      "πεῖς": 8849,
      "λεύ": 8850,
      "ζομένη": 8851,
      "ΣΧ": 8852,
      "φωνὴ": 8853,
      "μπορούμε": 8854,
      "ἀνοι": 8855,
      "μεῖον": 8856,
      "σθένει": 8857,
      "ὑπερη": 8858,
      "βασιν": 8859,
      "τύχῃ": 8860,
      "ὁπλί": 8861,
      "λάμβ": 8862,
      "καιο": 8863,
      "οἰκει": 8864,
      "Καρχη": 8865,
      "᾿Αγγ": 8866,
      "ξε,": 8867,
      "ἀοι": 8868,
      "δικῶν": 8869,
      "ἐςι": 8870,
      "τίνων": 8871,
      "ππα": 8872,
      "᾿Αθηνῶν": 8873,
      "λοὺς": 8874,
      "᾿Ο": 8875,
      "Διό": 8876,
      "τοῖσιν": 8877,
      "σπουδαι": 8878,
      "ἤν": 8879,
      "βολι": 8880,
      "εάν": 8881,
      "Ένωσης": 8882,
      "68": 8883,
      "πρόκειται": 8884,
      "πάντων,": 8885,
      "πεπραγ": 8886,
      "ῶμεν": 8887,
      "σμός": 8888,
      "γωνί": 8889,
      "σμένοι": 8890,
      "Νικο": 8891,
      "ὑποκει": 8892,
      "τόπος": 8893,
      "τητος,": 8894,
      "τ’": 8895,
      "τηρίου": 8896,
      "ῖς": 8897,
      "διαπραγμα": 8898,
      "ξωτερι": 8899,
      "νεκρῶν": 8900,
      "Ει": 8901,
      "ας·": 8902,
      "δέσ": 8903,
      "ἡλικί": 8904,
      "βασίλευ": 8905,
      "Πατὴρ": 8906,
      "ξεται": 8907,
      "Δικονο": 8908,
      "νυν,": 8909,
      "μὸν,": 8910,
      "Σκυ": 8911,
      "ἀγαθὸς": 8912,
      "θεύ": 8913,
      "ρεῖσθαι": 8914,
      "νεφέ": 8915,
      "Μὰ": 8916,
      "Προεδ": 8917,
      "95": 8918,
      "μέτρον": 8919,
      "εἰμὴ": 8920,
      "Πατρό": 8921,
      "διδάσκαλ": 8922,
      "σύντα": 8923,
      "per": 8924,
      "ἔφη.": 8925,
      "διδάσκα": 8926,
      "αξιο": 8927,
      "ἐνοι": 8928,
      "ἀδελφὸν": 8929,
      "κοντα,": 8930,
      "χαῖς": 8931,
      "βοῦς": 8932,
      "κίνδυνον": 8933,
      "τησαν": 8934,
      "ροις,": 8935,
      "ἐπιστα": 8936,
      "χαρά": 8937,
      "κών": 8938,
      "ἀνθρώπῳ": 8939,
      "ἐλατ": 8940,
      "Α'": 8941,
      "τητας": 8942,
      "Ερ": 8943,
      "τῷ,": 8944,
      "κότας": 8945,
      "μου·": 8946,
      "συναι": 8947,
      "ἔργῳ": 8948,
      "βησαν": 8949,
      "αὐτούς,": 8950,
      "δικαστηρίου": 8951,
      "Δημή": 8952,
      "(s": 8953,
      "Ηρα": 8954,
      "ζόντων": 8955,
      "γεῖν": 8956,
      "μετρι": 8957,
      "καθυ": 8958,
      "δικαιώ": 8959,
      "δῆμος": 8960,
      "ποῖ": 8961,
      "ενέργει": 8962,
      "ουσια": 8963,
      "μαχος": 8964,
      "συμβεβη": 8965,
      "θάλατ": 8966,
      "σῖ": 8967,
      "πώποτε": 8968,
      "ἔπος": 8969,
      "τη.": 8970,
      "χρονο": 8971,
      "πανη": 8972,
      "ρεῖς,": 8973,
      "187": 8974,
      "θεωρή": 8975,
      "λεγόμενον": 8976,
      "Βη": 8977,
      "ρίοις": 8978,
      "ἐπανέ": 8979,
      "τός": 8980,
      "ῥῆμα": 8981,
      "πότ": 8982,
      "λὲς": 8983,
      "σπέρμα": 8984,
      "Χει": 8985,
      "θέσθαι": 8986,
      "ενώ": 8987,
      "ών·": 8988,
      "καιροῦ": 8989,
      "χαῖ": 8990,
      "προο": 8991,
      "προξεν": 8992,
      "ὀξυ": 8993,
      "μόνου": 8994,
      "Επίτρο": 8995,
      "δοξον": 8996,
      "φώνως": 8997,
      "ΛΟΓ": 8998,
      "μισθω": 8999,
      "ρεια": 9000,
      "κατέλι": 9001,
      "καταφρον": 9002,
      "ἤρξατο": 9003,
      "κα.": 9004,
      "ρίαν.": 9005,
      "ύμ": 9006,
      "ὅρκ": 9007,
      "ἄκρα": 9008,
      "que": 9009,
      "σφίσι": 9010,
      "γγελ": 9011,
      "δοκιμά": 9012,
      "οἰκή": 9013,
      "συγκατα": 9014,
      "ἑτέρα": 9015,
      "λύμ": 9016,
      "Θεὸν,": 9017,
      "Πρῶ": 9018,
      "ψῆ": 9019,
      "τῇδε": 9020,
      "πυρὶ": 9021,
      "βραὰμ": 9022,
      "ποιεῖται": 9023,
      "ἀλε": 9024,
      "πυρί": 9025,
      "οὶ,": 9026,
      "νον.": 9027,
      "ἐκείνῃ": 9028,
      "ἵν᾽": 9029,
      "ἀδελφὸς": 9030,
      "τοπο": 9031,
      "πίπτει": 9032,
      "νεσθαι.": 9033,
      "τροφὴν": 9034,
      "ικαν": 9035,
      "πατρώ": 9036,
      "δόγμα": 9037,
      "πορθ": 9038,
      "οδηγ": 9039,
      "σφέ": 9040,
      "Κω": 9041,
      "γεννα": 9042,
      "ἔπρεπε": 9043,
      "ἐῤῥ": 9044,
      "ent": 9045,
      "ὑπερέ": 9046,
      "λόγι": 9047,
      "ἄν,": 9048,
      "ΙΑ.": 9049,
      "Σωτῆρος": 9050,
      "προςέ": 9051,
      "φθει": 9052,
      "ποῖον": 9053,
      "μένῳ,": 9054,
      "ὀφθαλμῶν": 9055,
      "ναοῦ": 9056,
      "γαγον": 9057,
      "θῆναι.": 9058,
      "δῶρα": 9059,
      "ταῦτα.": 9060,
      "επε": 9061,
      "βοῶν": 9062,
      "θείς,": 9063,
      "τοῦ.": 9064,
      "ἀφη": 9065,
      "ἐφάνη": 9066,
      "πόλει,": 9067,
      "πτώ": 9068,
      "σφῶν": 9069,
      "Ἐπί": 9070,
      "κηρυ": 9071,
      "προσθή": 9072,
      "ἀῤῥ": 9073,
      "ψέ": 9074,
      "dem": 9075,
      "κεφ.": 9076,
      "ρὸς,": 9077,
      "τουτέστιν": 9078,
      "τον·": 9079,
      "μπορού": 9080,
      "συζύ": 9081,
      "δύναμιν,": 9082,
      "θῳ": 9083,
      "κακίας": 9084,
      "ὕπαρ": 9085,
      "χρόνως": 9086,
      "δῆθεν": 9087,
      "τέκνων": 9088,
      "υνά": 9089,
      "μπορούν": 9090,
      "Β΄.": 9091,
      "δραν": 9092,
      "λήθη": 9093,
      "ξυνε": 9094,
      "ἀπώλε": 9095,
      "ἐξαρ": 9096,
      "θείας,": 9097,
      "πρυ": 9098,
      "πολιτεύ": 9099,
      "Μό": 9100,
      "γρ.": 9101,
      "Τοῦρ": 9102,
      "ἐφι": 9103,
      "Δεκε": 9104,
      "ῶς,": 9105,
      "κεῖσθαι": 9106,
      "κή,": 9107,
      "λόγο": 9108,
      "χωρίς": 9109,
      "ἐλάλη": 9110,
      "προϋπολογι": 9111,
      "πώ": 9112,
      "αύ": 9113,
      "Πτο": 9114,
      "γγεί": 9115,
      "χάριτος": 9116,
      "στιν,": 9117,
      "μητροπολί": 9118,
      "τᾶ": 9119,
      "πειτα": 9120,
      "μὴ": 9121,
      "σφαλί": 9122,
      "ΕΓ": 9123,
      "Ἕλληνας": 9124,
      "ἑαυτὴν": 9125,
      "κοινοῦ": 9126,
      "ἔτ᾽": 9127,
      "ἀπαί": 9128,
      "ἄλλαι": 9129,
      "δό": 9130,
      "χερσὶν": 9131,
      "πλό": 9132,
      "προφήτης": 9133,
      "στύ": 9134,
      "πον.": 9135,
      "ῦτα": 9136,
      "ανη": 9137,
      "ποῦν": 9138,
      "λίμ": 9139,
      "ὕστε": 9140,
      "ΘΕΝ": 9141,
      "ζον,": 9142,
      "χρισ": 9143,
      "μέμνη": 9144,
      "μέτρα": 9145,
      "γενέσθαι.": 9146,
      "ὄργ": 9147,
      "ἔσεσθαι": 9148,
      "τραγῳ": 9149,
      "ἑτέρῳ": 9150,
      "πόλεμος": 9151,
      "θησαν.": 9152,
      "ΑΝΤΙ": 9153,
      "προτεί": 9154,
      "Ϊ": 9155,
      "κόντων": 9156,
      "καταλύ": 9157,
      "πρή": 9158,
      "αίων": 9159,
      "Πολύ": 9160,
      "δυσσ": 9161,
      "δώσω": 9162,
      "χθαι": 9163,
      "βοῦν": 9164,
      "κύριε": 9165,
      "αὑτὸν": 9166,
      "δαίμων": 9167,
      "ὀρθοδόξ": 9168,
      "πρεσβευ": 9169,
      "ἀπαγορεύ": 9170,
      "Th": 9171,
      "πρόν": 9172,
      "στέον": 9173,
      "μουν": 9174,
      "δύο,": 9175,
      "νυνὶ": 9176,
      "βρου": 9177,
      "ρες.": 9178,
      "λέγοι": 9179,
      "Ματ": 9180,
      "ὀνόματος": 9181,
      "ἡδυ": 9182,
      "ληλυ": 9183,
      "βρίου": 9184,
      "ὕψος": 9185,
      "ἔνε": 9186,
      "δικαιοσύνης": 9187,
      "προκύ": 9188,
      "γράφη": 9189,
      "πρέσβεις": 9190,
      "τράπεζ": 9191,
      "Σπάρ": 9192,
      "οὺς,": 9193,
      "δένδ": 9194,
      "τες·": 9195,
      "ώτα": 9196,
      "πολλαὶ": 9197,
      "᾿Αθήναις": 9198,
      "ec": 9199,
      "ὄνει": 9200,
      "αναφέ": 9201,
      "ΚΛΗΣ": 9202,
      "Τρο": 9203,
      "φρά": 9204,
      "ραϊ": 9205,
      "νία": 9206,
      "τόλμη": 9207,
      "δρέ": 9208,
      "ἡνίκα": 9209,
      "γενομένων": 9210,
      "γγέλ": 9211,
      "λόγου,": 9212,
      "μα·": 9213,
      "νουσιν": 9214,
      "άπο": 9215,
      "ἐπιστήμη": 9216,
      "αλ": 9217,
      "τέα": 9218,
      "δόμη": 9219,
      "πληρε": 9220,
      "βουλῆς": 9221,
      "ἠγά": 9222,
      "ἐπλή": 9223,
      "μία,": 9224,
      "ἀξιό": 9225,
      "ριῶν": 9226,
      "ἀποστε": 9227,
      "Αἰγύπτου": 9228,
      "φόβον": 9229,
      "μητρό": 9230,
      "δ΄.": 9231,
      "φύσιν,": 9232,
      "ποιήσεως": 9233,
      "του·": 9234,
      "μαῖοι": 9235,
      "μόρ": 9236,
      "ποιήσας": 9237,
      "μεσημβ": 9238,
      "ίου,": 9239,
      "εδρος": 9240,
      "ν;": 9241,
      "πίστει": 9242,
      "θεραπεί": 9243,
      "εἷ": 9244,
      "παιδεί": 9245,
      "επιχειρή": 9246,
      "οικονομικ": 9247,
      "Στα": 9248,
      "ἔμελλε": 9249,
      ".)": 9250,
      "ἀδελφῶν": 9251,
      "ἀπ᾽": 9252,
      "ὁποία": 9253,
      "μένο": 9254,
      "κόσι": 9255,
      "βασαν": 9256,
      "γγος": 9257,
      "ήλ,": 9258,
      "ΑΞ": 9259,
      "εται.": 9260,
      "ἀπέναντι": 9261,
      "πίων": 9262,
      "υπε": 9263,
      "ἠδ᾽": 9264,
      "67": 9265,
      "ἔχων,": 9266,
      "ἐφαρμό": 9267,
      "μπα": 9268,
      "βλημα": 9269,
      "τῆσαι": 9270,
      "δόλως": 9271,
      "στάσει": 9272,
      "ουμε": 9273,
      "τεκμή": 9274,
      "ἥλιος": 9275,
      "σῶμα,": 9276,
      "κολο": 9277,
      "κής": 9278,
      "δόθη": 9279,
      "ἤθελον": 9280,
      "τυχὸν": 9281,
      "σμον": 9282,
      "εὐαγγελι": 9283,
      "προκειμένου": 9284,
      "ζῷ": 9285,
      "οντος,": 9286,
      "φορᾷ": 9287,
      "κρίσεως": 9288,
      "ποικι": 9289,
      "ΤΑΙ": 9290,
      "παιδα": 9291,
      "κῃ": 9292,
      "δεινὰ": 9293,
      "Υπο": 9294,
      "au": 9295,
      "Κρι": 9296,
      "νεανί": 9297,
      "ἀπαρά": 9298,
      "Ποῦ": 9299,
      "μὴ,": 9300,
      "γ'.": 9301,
      "᾿Ανατο": 9302,
      "διανοί": 9303,
      "σαντο,": 9304,
      "στρατὸν": 9305,
      "ἐκ": 9306,
      "(4)": 9307,
      "κης,": 9308,
      "ἦσαν,": 9309,
      "οὕτως,": 9310,
      "ωσε": 9311,
      "ναγκά": 9312,
      "Λακεδαιμόνιοι": 9313,
      "αἰῶνα": 9314,
      "μερῶν": 9315,
      "ἀό": 9316,
      "Οὐδὲν": 9317,
      "κραυ": 9318,
      "σού": 9319,
      "οίκη": 9320,
      "πῳ,": 9321,
      "μηδενὸς": 9322,
      "πὼς": 9323,
      "σονται,": 9324,
      "ἐφεξῆς": 9325,
      "(4": 9326,
      "θεση": 9327,
      "σύνης": 9328,
      "Τρῶ": 9329,
      "ροισι": 9330,
      "ἡμετέρας": 9331,
      "Πτολε": 9332,
      "ἔλαβον": 9333,
      "Κλεο": 9334,
      "μέναις": 9335,
      "α'": 9336,
      "ναὸν": 9337,
      "δικαί": 9338,
      "σκω": 9339,
      "ὁρι": 9340,
      "ed": 9341,
      "λέγεται,": 9342,
      "λοιδο": 9343,
      "τοῦτο.": 9344,
      "βεβη": 9345,
      "ΙΔΟΥ": 9346,
      "ἐά": 9347,
      "ὁπλι": 9348,
      "βῇ": 9349,
      "βούλο": 9350,
      "σχον": 9351,
      "ἐκπε": 9352,
      "εὐχαρισ": 9353,
      "φαίνεται,": 9354,
      "κατει": 9355,
      "μες": 9356,
      "ἔλαβεν": 9357,
      "ἵν᾿": 9358,
      "Ἱεροσολύ": 9359,
      "νιν": 9360,
      "ρισε": 9361,
      "σίου,": 9362,
      "κῶς,": 9363,
      "τικοὺς": 9364,
      "῎Ε": 9365,
      "ἔθνους": 9366,
      "χωρίου": 9367,
      "ει·": 9368,
      "πέμπ": 9369,
      "Αρχ": 9370,
      "δύναντο": 9371,
      "Ἱερουσαλή": 9372,
      "τοιά": 9373,
      "κρισιν": 9374,
      "κατάστασιν": 9375,
      "χρῆσιν": 9376,
      "δεῖπ": 9377,
      "ol.": 9378,
      "κου,": 9379,
      "ρίσθη": 9380,
      "δῇ": 9381,
      "λὴς": 9382,
      "ἀκρό": 9383,
      "φνης": 9384,
      "χωρισ": 9385,
      "παθη": 9386,
      "τολμή": 9387,
      "ότατον": 9388,
      "λιπόν": 9389,
      "δοσις": 9390,
      "διαδο": 9391,
      "ἴχ": 9392,
      "κράτης": 9393,
      "βάλλεται": 9394,
      "λοχα": 9395,
      "μηδα": 9396,
      "ὑμέ": 9397,
      "Ζή": 9398,
      "βάλλειν": 9399,
      "ἐπανε": 9400,
      "ῥᾴ": 9401,
      "δὶς": 9402,
      "τοσούτῳ": 9403,
      "ρηση": 9404,
      "δυς": 9405,
      "ἄφε": 9406,
      "εῖα": 9407,
      "συγχω": 9408,
      "συνά": 9409,
      "λαιο": 9410,
      "αυτής": 9411,
      "ἀο": 9412,
      "ἔφθα": 9413,
      "συμβα": 9414,
      "ἐμῆς": 9415,
      "τᾶς": 9416,
      "ραὶ": 9417,
      "͂νε": 9418,
      "κριβ": 9419,
      "νετε": 9420,
      "ὕβ": 9421,
      "πετο": 9422,
      "σωμεν,": 9423,
      "νεωτέ": 9424,
      "ὄντα,": 9425,
      "σχεῖν": 9426,
      "ατο": 9427,
      "ὀσ": 9428,
      "φησιν,": 9429,
      "κι᾿": 9430,
      "περισσότερο": 9431,
      "δηλ.": 9432,
      "δημα": 9433,
      "μεσα": 9434,
      "Ελ": 9435,
      "ποιήσει": 9436,
      "χρί": 9437,
      "δακτύ": 9438,
      "αἱρέ": 9439,
      "αη": 9440,
      "σίες": 9441,
      "κληρο": 9442,
      "βελτι": 9443,
      "εσθαι.": 9444,
      "ΙΩΝ": 9445,
      "οί.": 9446,
      "μένοις.": 9447,
      "σσου": 9448,
      "πριν": 9449,
      "Ωστόσο,": 9450,
      "ὠνόμα": 9451,
      "χρόνον,": 9452,
      "σματι": 9453,
      "προγόν": 9454,
      "τῃ,": 9455,
      "Βυζαντί": 9456,
      "κοῦ,": 9457,
      "ἀποδει": 9458,
      "σφᾶς": 9459,
      "ἁρπά": 9460,
      "69": 9461,
      "κλπ.": 9462,
      "διαφθεί": 9463,
      "χευ": 9464,
      "γραφο": 9465,
      "πρόσωπα": 9466,
      "ὑμ": 9467,
      "Κυρια": 9468,
      "πομεν": 9469,
      "Κοινοβουλίου": 9470,
      "ὄφρα": 9471,
      "αἰτία": 9472,
      "φάνης": 9473,
      "στόματος": 9474,
      "θεία": 9475,
      "μιά": 9476,
      "θυμὸς": 9477,
      "λοις,": 9478,
      "τελευταῖον": 9479,
      "ζε,": 9480,
      "ἀνδρῶν,": 9481,
      "ττι": 9482,
      "νεῖν": 9483,
      "μματος": 9484,
      "ᾖ,": 9485,
      "κακου": 9486,
      "παρι": 9487,
      "Βασί": 9488,
      "μιγ": 9489,
      "ὀλίγων": 9490,
      "ἐτύγχ": 9491,
      "λικρι": 9492,
      "ἑξα": 9493,
      "27.": 9494,
      "κρεῖ": 9495,
      "τἆ": 9496,
      "Εὐριπί": 9497,
      "καλυ": 9498,
      "τάτην": 9499,
      "χία": 9500,
      "Ἢ": 9501,
      "ιά": 9502,
      "σαντος,": 9503,
      "τεσσά": 9504,
      "λόγον.": 9505,
      "σταθε": 9506,
      "ὀλέ": 9507,
      "ἐνεργείας": 9508,
      "ἡμέραι": 9509,
      "(1).": 9510,
      "Λόγος": 9511,
      "οἴκῳ": 9512,
      "ράς": 9513,
      "νησεν": 9514,
      "μηδ'": 9515,
      "χοντες": 9516,
      "λλὰς": 9517,
      "ΙΟΣ": 9518,
      "διαδικασία": 9519,
      "σὰ": 9520,
      "͂ναι,": 9521,
      "ἔννοιαν": 9522,
      "στική": 9523,
      "θνι": 9524,
      "Τοῖς": 9525,
      "ξις,": 9526,
      "Σπαρ": 9527,
      "ἵστα": 9528,
      "ψιν,": 9529,
      "ἐκθέ": 9530,
      "συμβουλεύ": 9531,
      "φόρων": 9532,
      "ἀποκτεί": 9533,
      "καί,": 9534,
      "κυρια": 9535,
      "ἐτά": 9536,
      "ζετε": 9537,
      "ἀγάπης": 9538,
      "οντα,": 9539,
      "χως": 9540,
      "ἀγαθη": 9541,
      "συκοφαν": 9542,
      "πολιτικής": 9543,
      "ξας,": 9544,
      "᾿Αγ": 9545,
      "μικῶν": 9546,
      "καταστα": 9547,
      "ωνύ": 9548,
      "ἐστὶν,": 9549,
      "τερος,": 9550,
      "πρόσ": 9551,
      "βρί": 9552,
      "ἀρχαιο": 9553,
      "Γυ": 9554,
      "ΙΑΣ.": 9555,
      "βραδύ": 9556,
      "Γί": 9557,
      "φωτὸς": 9558,
      "ἀρκεῖ": 9559,
      "βούλει": 9560,
      "όντα,": 9561,
      "διεξα": 9562,
      "ζομαι": 9563,
      "χῃ": 9564,
      "τερα,": 9565,
      "σσης": 9566,
      "ὑφί": 9567,
      "νίαν": 9568,
      "ἐρε": 9569,
      "ὀφθαλμοὺς": 9570,
      "υποστηρί": 9571,
      "ἕκαστα": 9572,
      "διηνε": 9573,
      "26.": 9574,
      "χουσι": 9575,
      "λαμβαν": 9576,
      "φασὶ": 9577,
      "πρόκειται": 9578,
      "σματα,": 9579,
      "μερ": 9580,
      "γίνῃ": 9581,
      "ψευδο": 9582,
      "φαῦ": 9583,
      "νὸς,": 9584,
      "δίκων": 9585,
      "κοσίων": 9586,
      "δυσκο": 9587,
      "Φοί": 9588,
      "ἕτεροι": 9589,
      "οἴκα": 9590,
      "βασις": 9591,
      "Ιτα": 9592,
      "νεσιν": 9593,
      "ἀποτελέ": 9594,
      "F.": 9595,
      "στράτευμα": 9596,
      "αποτελεσμα": 9597,
      "νίας": 9598,
      "ός·": 9599,
      "οισιν": 9600,
      "σας·": 9601,
      "λύπη": 9602,
      "ὄψει": 9603,
      "Κώ": 9604,
      "χρηματι": 9605,
      "μαθεῖν": 9606,
      "῞Ο": 9607,
      "τρων": 9608,
      "πείθε": 9609,
      "περίπτω": 9610,
      "εὐεργέ": 9611,
      "ὡραί": 9612,
      "Σαλα": 9613,
      "Βασιλεί": 9614,
      "ονα": 9615,
      "συμβιβα": 9616,
      "επιστη": 9617,
      "ἁμαρτή": 9618,
      "αντιμετωπί": 9619,
      "τεν": 9620,
      "199": 9621,
      "θεῖος": 9622,
      "παρέχει": 9623,
      "μολογ": 9624,
      "λείπει": 9625,
      "ὄμμα": 9626,
      "ἀκολού": 9627,
      "θέναι": 9628,
      "λιγ": 9629,
      "ραν.": 9630,
      "λοῦσι": 9631,
      "ΙΔΙΠ": 9632,
      "ἁγ": 9633,
      "σ᾿": 9634,
      "διαφέρον": 9635,
      "δευτέραν": 9636,
      "λὴμ": 9637,
      "ταξεν": 9638,
      "λυσι": 9639,
      "δυνάμεθα": 9640,
      "από": 9641,
      "σος,": 9642,
      "αὐτοῖς·": 9643,
      "μηνύ": 9644,
      "Ἰν": 9645,
      "στινι": 9646,
      "μνήμην": 9647,
      "παθεῖν": 9648,
      "γάλα": 9649,
      "διάκον": 9650,
      "τολμη": 9651,
      "βάσει": 9652,
      "τοσαῦτα": 9653,
      "κατορθώ": 9654,
      "ἐξαί": 9655,
      "τάτου": 9656,
      "ἱκανῶς": 9657,
      "εις,": 9658,
      "οἶνον": 9659,
      "βασιλέων": 9660,
      "μείζονα": 9661,
      "οἱον": 9662,
      "vi": 9663,
      "Φοι": 9664,
      "Σώκρατες,": 9665,
      "ἁλι": 9666,
      "γ΄.": 9667,
      "ἰά": 9668,
      "ἐκκλησίαν": 9669,
      "καθαρ": 9670,
      "Οὔτε": 9671,
      "διαβό": 9672,
      "κεῖς": 9673,
      "R.": 9674,
      "᾿Αντί": 9675,
      "εὐγεν": 9676,
      "Κωνσταντινουπόλεως": 9677,
      "προτά": 9678,
      "ψατο": 9679,
      "ζομένου": 9680,
      "δοξα": 9681,
      "χοντα": 9682,
      "δρ.": 9683,
      "οι·": 9684,
      "στῆσαι": 9685,
      "θέντες,": 9686,
      "Θὰ": 9687,
      "γέ": 9688,
      "ρίας": 9689,
      "ἑκατον": 9690,
      "μείς": 9691,
      "φόρον": 9692,
      "σφίσιν": 9693,
      "θησαν,": 9694,
      "Ρο": 9695,
      "τόπους": 9696,
      "to": 9697,
      "Δά": 9698,
      "ἐσωτερι": 9699,
      "βαλλον": 9700,
      "ἐρέ": 9701,
      "γεῖται": 9702,
      "ἐστίν,": 9703,
      "θανάτῳ": 9704,
      "θεωρεῖ": 9705,
      "βέρνη": 9706,
      "ἰδίου": 9707,
      "ήλ.": 9708,
      "ὑπῆρχ": 9709,
      "παλά": 9710,
      "σομαι.": 9711,
      "νομαι": 9712,
      "ἀνδρι": 9713,
      "φιά": 9714,
      "0,": 9715,
      "ἔνο": 9716,
      "τας·": 9717,
      "πολλὴ": 9718,
      "σεως·": 9719,
      "ὀδύ": 9720,
      "τύπον": 9721,
      "τῶνδε": 9722,
      "διανοίας": 9723,
      "πρότερον,": 9724,
      "Τούτων": 9725,
      "ἀνύ": 9726,
      "ἀμα": 9727,
      "πουλος": 9728,
      "ἡγου": 9729,
      "Ἁ": 9730,
      "λοιπόν": 9731,
      "γευ": 9732,
      "Ἀλλ᾽": 9733,
      "ro": 9734,
      "θέσεις": 9735,
      "οἰκείων": 9736,
      "Μενέλα": 9737,
      "ρεῖν,": 9738,
      "ἔργοις": 9739,
      "σθέντων": 9740,
      "εὐφ": 9741,
      "βούλον": 9742,
      "περίπου": 9743,
      "παθῶν": 9744,
      "στεφαν": 9745,
      "ἵππου": 9746,
      "῾Ελλά": 9747,
      "δική": 9748,
      "τιθε": 9749,
      "ἔα": 9750,
      "ΙΚΑ": 9751,
      "υπάρχουν": 9752,
      "δων.": 9753,
      "διάνοιαν": 9754,
      "ΒΙΒ": 9755,
      "διαφόρους": 9756,
      "ταὐτὰ": 9757,
      "σκεν": 9758,
      "θέντα,": 9759,
      "πυθ": 9760,
      "μισθὸν": 9761,
      "χερσὶ": 9762,
      "σαφέ": 9763,
      "ἀδελφοῦ": 9764,
      "σις·": 9765,
      "ΜΗ": 9766,
      "κτως": 9767,
      "ὀξύ": 9768,
      "δοκῶ": 9769,
      "γία": 9770,
      "λῳ,": 9771,
      "μέσω": 9772,
      "ρότητα": 9773,
      "ἐλπίδα": 9774,
      "αὐτοκρα": 9775,
      "αἰχμαλω": 9776,
      "έγ": 9777,
      "Γαλα": 9778,
      "Ἑλλάδα": 9779,
      "Δανα": 9780,
      "κεφαλή": 9781,
      "κτά": 9782,
      "έντες": 9783,
      "μητρι": 9784,
      "λέσθαι": 9785,
      "δον.": 9786,
      "θᾶ": 9787,
      "θρι": 9788,
      "λεῖται": 9789,
      "περιπα": 9790,
      "Δία": 9791,
      "Κρη": 9792,
      "επα": 9793,
      "σέων": 9794,
      "ὁριστι": 9795,
      "θοῦν": 9796,
      "προβλή": 9797,
      "ἄθ": 9798,
      "Σοφο": 9799,
      "νέα": 9800,
      "ἔμειν": 9801,
      "Αὐγού": 9802,
      "συμβού": 9803,
      "δοκεῖ,": 9804,
      "ονί": 9805,
      "αξ": 9806,
      "σύμβο": 9807,
      "ἐλή": 9808,
      "βασιλεία": 9809,
      "ουσιν.": 9810,
      "παράδειγμα": 9811,
      "β΄.": 9812,
      "Μωυ": 9813,
      "εἰργά": 9814,
      "τεία": 9815,
      "κάτι": 9816,
      "53": 9817,
      "Αλε": 9818,
      "ισχύ": 9819,
      "Θεσσαλονί": 9820,
      "τάτων": 9821,
      "φονεύ": 9822,
      "Σαρ": 9823,
      "Οἶ": 9824,
      "εὐλαβ": 9825,
      "ὑμῶν.": 9826,
      "μῆκος": 9827,
      "γέρ": 9828,
      "κλο": 9829,
      "πέραν": 9830,
      "τυχεῖν": 9831,
      "ἐναντι": 9832,
      "σθένης": 9833,
      "Νη": 9834,
      "σιος,": 9835,
      "ψό": 9836,
      "σημεί": 9837,
      "Συνθή": 9838,
      "πείας": 9839,
      "σοις": 9840,
      "μείζων": 9841,
      "χθεί": 9842,
      "γγύ": 9843,
      "τέχνην": 9844,
      "σαβ": 9845,
      "νω,": 9846,
      "βιβλιο": 9847,
      "γει,": 9848,
      "παραμυ": 9849,
      "πολιτευ": 9850,
      "ἐπίστευ": 9851,
      "ἐνέργειαν": 9852,
      "θέλεις": 9853,
      "ἐλπι": 9854,
      "ξὺν": 9855,
      "ἐνη": 9856,
      "δοκιμα": 9857,
      "ἰδιαι": 9858,
      "τίνι": 9859,
      "Δικα": 9860,
      "ἐζή": 9861,
      "ἐπλη": 9862,
      "διεκ": 9863,
      "ὅτου": 9864,
      "ἐρώ": 9865,
      "μάτιον": 9866,
      "κτικὸν": 9867,
      "βοηθή": 9868,
      "ΣΤΡ": 9869,
      "Σίμων": 9870,
      "a,": 9871,
      "ἱεροῦ": 9872,
      "Πάντα": 9873,
      "ανταγωνι": 9874,
      "μεταξύ": 9875,
      "βία": 9876,
      "ὁποῖ": 9877,
      "Μέν": 9878,
      "Μὲ": 9879,
      "σταδί": 9880,
      "υπόψη": 9881,
      "κἀν": 9882,
      "καίδεκα": 9883,
      "ὀργῆς": 9884,
      "Σταυ": 9885,
      "ΔΙΑ": 9886,
      "ἐπό": 9887,
      "κυβέρνη": 9888,
      "αὑτῷ": 9889,
      "οἴδα": 9890,
      "Πρωτο": 9891,
      "ὀλο": 9892,
      "ὺς": 9893,
      "συστή": 9894,
      "Τὰς": 9895,
      "βασιλεῖς": 9896,
      "ξυγ": 9897,
      "μαθηταὶ": 9898,
      "ἄστυ": 9899,
      "δεύ": 9900,
      "ὅτ᾽": 9901,
      "θεμελι": 9902,
      "όπου": 9903,
      "μελῶν": 9904,
      "Κυρί": 9905,
      "ἑβ": 9906,
      "φεύγον": 9907,
      "εὐω": 9908,
      "ἀληθέ": 9909,
      "αὐτήν,": 9910,
      "πᾷ": 9911,
      "ἐσθῆ": 9912,
      "φόρος": 9913,
      "Ζω": 9914,
      "ἄριστα": 9915,
      "βιβλίον": 9916,
      "ὕλη": 9917,
      "μίας.": 9918,
      "χειρι": 9919,
      "κέλευ": 9920,
      "βαθυ": 9921,
      "χρυσί": 9922,
      "όντος,": 9923,
      "Παρθέν": 9924,
      "μβου": 9925,
      "τιμῶν": 9926,
      "πλοῖα": 9927,
      "προή": 9928,
      "βολὴ": 9929,
      "κ,": 9930,
      "δεξα": 9931,
      "ὑδά": 9932,
      "ρωσιν": 9933,
      "σκώ": 9934,
      "προβά": 9935,
      "ούσης,": 9936,
      "ισχυ": 9937,
      "πλέον": 9938,
      "γενομένη": 9939,
      "νᾶ": 9940,
[...]
