{
  "version": "1.0",
  "truncation": null,
  "padding": null,
  "added_tokens": [
    {
      "id": 0,
      "content": "<|padding|>",
      "single_word": false,
      "lstrip": false,
      "rstrip": false,
      "normalized": false,
      "special": true
    },
    {
      "id": 1,
      "content": "<|endoftext|>",
      "single_word": false,
      "lstrip": false,
      "rstrip": false,
      "normalized": false,
      "special": true
    },
    {
      "id": 2,
      "content": "[UNK]",
      "single_word": false,
      "lstrip": false,
      "rstrip": false,
      "normalized": false,
      "special": true
    },
    {
      "id": 3,
      "content": "[CLS]",
      "single_word": false,
      "lstrip": false,
      "rstrip": false,
      "normalized": false,
      "special": true
    },
    {
      "id": 4,
      "content": "[SEP]",
      "single_word": false,
      "lstrip": false,
      "rstrip": false,
      "normalized": false,
      "special": true
    },
    {
      "id": 5,
      "content": "[PAD]",
      "single_word": false,
      "lstrip": false,
      "rstrip": false,
      "normalized": false,
      "special": true
    },
    {
      "id": 6,
      "content": "[MASK]",
      "single_word": false,
      "lstrip": true,
      "rstrip": false,
      "normalized": false,
      "special": true
    }
  ],
  "normalizer": {
    "type": "NFC"
  },
  "pre_tokenizer": {
    "type": "ByteLevel",
    "add_prefix_space": false,
    "trim_offsets": true,
    "use_regex": true
  },
  "post_processor": {
    "type": "TemplateProcessing",
    "single": [
      {
        "SpecialToken": {
          "id": "[CLS]",
          "type_id": 0
        }
      },
      {
        "Sequence": {
          "id": "A",
          "type_id": 0
        }
      },
      {
        "SpecialToken": {
          "id": "[SEP]",
          "type_id": 0
        }
      }
    ],
    "pair": [
      {
        "SpecialToken": {
          "id": "[CLS]",
          "type_id": 0
        }
      },
      {
        "Sequence": {
          "id": "A",
          "type_id": 0
        }
      },
      {
        "SpecialToken": {
          "id": "[SEP]",
          "type_id": 0
        }
      },
      {
        "Sequence": {
          "id": "B",
          "type_id": 0
        }
      },
      {
        "SpecialToken": {
          "id": "[SEP]",
          "type_id": 0
        }
      }
    ],
    "special_tokens": {
      "[CLS]": {
        "id": "[CLS]",
        "ids": [
          3
        ],
        "tokens": [
          "[CLS]"
        ]
      },
      "[MASK]": {
        "id": "[MASK]",
        "ids": [
          6
        ],
        "tokens": [
          "[MASK]"
        ]
      },
      "[PAD]": {
        "id": "[PAD]",
        "ids": [
          5
        ],
        "tokens": [
          "[PAD]"
        ]
      },
      "[SEP]": {
        "id": "[SEP]",
        "ids": [
          4
        ],
        "tokens": [
          "[SEP]"
        ]
      },
      "[UNK]": {
        "id": "[UNK]",
        "ids": [
          2
        ],
        "tokens": [
          "[UNK]"
        ]
      }
    }
  },
  "decoder": {
    "type": "ByteLevel",
    "add_prefix_space": false,
    "trim_offsets": true,
    "use_regex": true
  },
  "model": {
    "type": "BPE",
    "dropout": null,
    "unk_token": null,
    "continuing_subword_prefix": null,
    "end_of_word_suffix": null,
    "fuse_unk": false,
    "byte_fallback": false,
    "ignore_merges": false,
    "vocab": {
      "<|padding|>": 0,
      "<|endoftext|>": 1,
      "[UNK]": 2,
      "[CLS]": 3,
      "[SEP]": 4,
      "[PAD]": 5,
      "[MASK]": 6,
      "!": 7,
      "\"": 8,
      "#": 9,
      "$": 10,
      "%": 11,
      "&": 12,
      "'": 13,
      "(": 14,
      ")": 15,
      "*": 16,
      "+": 17,
      ",": 18,
      "-": 19,
      ".": 20,
      "/": 21,
      "0": 22,
      "1": 23,
      "2": 24,
      "3": 25,
      "4": 26,
      "5": 27,
      "6": 28,
      "7": 29,
      "8": 30,
      "9": 31,
      ":": 32,
      ";": 33,
      "<": 34,
      "=": 35,
      ">": 36,
      "?": 37,
      "@": 38,
      "A": 39,
      "B": 40,
      "C": 41,
      "D": 42,
      "E": 43,
      "F": 44,
      "G": 45,
      "H": 46,
      "I": 47,
      "J": 48,
      "K": 49,
      "L": 50,
      "M": 51,
      "N": 52,
      "O": 53,
      "P": 54,
      "Q": 55,
      "R": 56,
      "S": 57,
      "T": 58,
      "U": 59,
      "V": 60,
      "W": 61,
      "X": 62,
      "Y": 63,
      "Z": 64,
      "[": 65,
      "\\": 66,
      "]": 67,
      "^": 68,
      "_": 69,
      "`": 70,
      "a": 71,
      "b": 72,
      "c": 73,
      "d": 74,
      "e": 75,
      "f": 76,
      "g": 77,
      "h": 78,
      "i": 79,
      "j": 80,
      "k": 81,
      "l": 82,
      "m": 83,
      "n": 84,
      "o": 85,
      "p": 86,
      "q": 87,
      "r": 88,
      "s": 89,
      "t": 90,
      "u": 91,
      "v": 92,
      "w": 93,
      "x": 94,
      "y": 95,
      "z": 96,
      "{": 97,
      "|": 98,
      "}": 99,
      "~": 100,
      "¡": 101,
      "¢": 102,
      "£": 103,
      "¤": 104,
      "¥": 105,
      "¦": 106,
      "§": 107,
      "¨": 108,
      "©": 109,
      "ª": 110,
      "«": 111,
      "¬": 112,
      "®": 113,
      "¯": 114,
      "°": 115,
      "±": 116,
      "²": 117,
      "³": 118,
      "´": 119,
      "µ": 120,
      "¶": 121,
      "·": 122,
      "¸": 123,
      "¹": 124,
      "º": 125,
      "»": 126,
      "¼": 127,
      "½": 128,
      "¾": 129,
      "¿": 130,
      "À": 131,
      "Á": 132,
      "Â": 133,
      "Ã": 134,
      "Ä": 135,
      "Å": 136,
      "Æ": 137,
      "Ç": 138,
      "È": 139,
      "É": 140,
      "Ê": 141,
      "Ë": 142,
      "Ì": 143,
      "Í": 144,
      "Î": 145,
      "Ï": 146,
      "Ð": 147,
      "Ñ": 148,
      "Ò": 149,
      "Ó": 150,
      "Ô": 151,
      "Õ": 152,
      "Ö": 153,
      "×": 154,
      "Ø": 155,
      "Ù": 156,
      "Ú": 157,
      "Û": 158,
      "Ü": 159,
      "Ý": 160,
      "Þ": 161,
      "ß": 162,
      "à": 163,
      "á": 164,
      "â": 165,
      "ã": 166,
      "ä": 167,
      "å": 168,
      "æ": 169,
      "ç": 170,
      "è": 171,
      "é": 172,
      "ê": 173,
      "ë": 174,
      "ì": 175,
      "í": 176,
      "î": 177,
      "ï": 178,
      "ð": 179,
      "ñ": 180,
      "ò": 181,
      "ó": 182,
      "ô": 183,
      "õ": 184,
      "ö": 185,
      "÷": 186,
      "ø": 187,
      "ù": 188,
      "ú": 189,
      "û": 190,
      "ü": 191,
      "ý": 192,
      "þ": 193,
      "ÿ": 194,
      "Ā": 195,
      "ā": 196,
      "Ă": 197,
      "ă": 198,
      "Ą": 199,
      "ą": 200,
      "Ć": 201,
      "ć": 202,
      "Ĉ": 203,
      "ĉ": 204,
      "Ċ": 205,
      "ċ": 206,
      "Č": 207,
      "č": 208,
      "Ď": 209,
      "ď": 210,
      "Đ": 211,
      "đ": 212,
      "Ē": 213,
      "ē": 214,
      "Ĕ": 215,
      "ĕ": 216,
      "Ė": 217,
      "ė": 218,
      "Ę": 219,
      "ę": 220,
      "Ě": 221,
      "ě": 222,
      "Ĝ": 223,
      "ĝ": 224,
      "Ğ": 225,
      "ğ": 226,
      "Ġ": 227,
      "ġ": 228,
      "Ģ": 229,
      "ģ": 230,
      "Ĥ": 231,
      "ĥ": 232,
      "Ħ": 233,
      "ħ": 234,
      "Ĩ": 235,
      "ĩ": 236,
      "Ī": 237,
      "ī": 238,
      "Ĭ": 239,
      "ĭ": 240,
      "Į": 241,
      "į": 242,
      "İ": 243,
      "ı": 244,
      "Ĳ": 245,
      "ĳ": 246,
      "Ĵ": 247,
      "ĵ": 248,
      "Ķ": 249,
      "ķ": 250,
      "ĸ": 251,
      "Ĺ": 252,
      "ĺ": 253,
      "Ļ": 254,
      "ļ": 255,
      "Ľ": 256,
      "ľ": 257,
      "Ŀ": 258,
      "ŀ": 259,
      "Ł": 260,
      "ł": 261,
      "Ń": 262,
      "Î½": 263,
      "ĠÎ": 264,
      "ÏĦ": 265,
      "á½": 266,
      "Î±": 267,
      "Î¿": 268,
      "á¼": 269,
      "Î¹": 270,
      "Îµ": 271,
      "ÏĤ": 272,
      "Ġá¼": 273,
      "Ïģ": 274,
      "á¿": 275,
      "Ïĥ": 276,
      "ÏĢ": 277,
      "ĠÏĦ": 278,
      "Î»": 279,
      "Î¼": 280,
      "Ïħ": 281,
      "ĠÎº": 282,
      "Îº": 283,
      "Î¯": 284,
      "ĠÏĢ": 285,
      "Î·": 286,
      "Ïī": 287,
      "ÎŃ": 288,
      "á½¶": 289,
      "Ġá¼Ĳ": 290,
      "ĠÎºÎ±": 291,
      "Ġá½": 292,
      "Î¬": 293,
      "ĠÎ´": 294,
      "Î³": 295,
      "Î¸": 296,
      "Î¿Î½": 297,
      "ÏĮ": 298,
      "á½¸": 299,
      "Ġá¼Ģ": 300,
      "Î´": 301,
      "ĠÎºÎ±á½¶": 302,
      "Î¿á¿": 303,
      "Ïĩ": 304,
      "Î¿Ïħ": 305,
      "á½°": 306,
      "ÏĦÎ±": 307,
      "ĠÎ¼": 308,
      "ÏĨ": 309,
      "á¿¶": 310,
      "Î¿á¿¦": 311,
      "Ïį": 312,
      "á½Ĳ": 313,
      "á¾": 314,
      "ÎµÎ¹": 315,
      "ÏīÎ½": 316,
      "Î¿ÏĤ": 317,
      "ĠÏĥ": 318,
      "á½´": 319,
      "á¿¶Î½": 320,
      "Î±Î½": 321,
      "á½²": 322,
      "ĠÎµ": 323,
      "ĠÎ¿": 324,
      "á¿Ĩ": 325,
      "Î¿Î¹": 326,
      "Î®": 327,
      "ÎµÎ½": 328,
      "ĠÎ±": 329,
      "Î±Î¹": 330,
      "ÏĦÎµ": 331,
      "ĠÎµá¼": 332,
      "á¿ĸ": 333,
      "ÏĥÎ¹": 334,
      "ĠÏĦá½¸": 335,
      "ÏĦÎ¹": 336,
      "ÏģÎ±": 337,
      "ĠÎ³": 338,
      "á¿ĨÏĤ": 339,
      "ĠÏĢÏģ": 340,
      "á½´Î½": 341,
      "Î»Î»": 342,
      "ĠÏĦÎ¿á¿¦": 343,
      "Î²": 344,
      "Î¾": 345,
      "ÎŃÎ½": 346,
      "ĠÎ´á½²": 347,
      "á½ĲÏĦ": 348,
      "ÏģÎ¹": 349,
      "Î±ÏĤ": 350,
      "Â·": 351,
      "Ġá¼ĲÏĢ": 352,
      "Ġá¼Ķ": 353,
      "ĠÎ±á½ĲÏĦ": 354,
      "Î¼Î±": 355,
      "ĠÎ´Î¹": 356,
      "ÏĥÏĦ": 357,
      "Îµá¿ĸ": 358,
      "Ïİ": 359,
      "Ġá¼ĲÎ½": 360,
      "Ġá½ģ": 361,
      "ĠÎ½": 362,
      "ĠÎµá¼°": 363,
      "ĠÎ»": 364,
      "ĠÏĦá¿¶Î½": 365,
      "ÎµÏģ": 366,
      "ĠÏĦá½´Î½": 367,
      "ĠÏĦá¿ĨÏĤ": 368,
      "á½¸ÏĤ": 369,
      "ÏĦÎ¿": 370,
      "á¾½": 371,
      "ÏĦÎ±Î¹": 372,
      "ÏĮÎ½": 373,
      "ÏīÏĤ": 374,
      "ĠÏĨ": 375,
      "ÎµÎ¯": 376,
      "Î±Ïģ": 377,
      "Ġá¼ĢÏĢ": 378,
      "Ġá¼¡": 379,
      "Ġá¼ĢÎ½": 380,
      "á½º": 381,
      "Ġá½ĳ": 382,
      "Ġá½ħ": 383,
      "Ġá¼Ħ": 384,
      "ĠÎ¸": 385,
      "ĠÏĦá½°": 386,
      "ĠÎ¿á½Ĳ": 387,
      "Î¼ÎµÎ½": 388,
      "Î·Î½": 389,
      "Î¼ÎŃÎ½": 390,
      "á¿·": 391,
      "Î·ÏĤ": 392,
      "Îĳ": 393,
      "Î¿Ïį": 394,
      "Ġá¼ĲÎº": 395,
      "ÏĥÎ¸": 396,
      "ĠÏĩ": 397,
      "á½¸Î½": 398,
      "ĠÎ²": 399,
      "ĠÎ¿á¼": 400,
      "Î¶": 401,
      "ÏĥÎ¹Î½": 402,
      "Î¬Î½": 403,
      "Î¿Î»": 404,
      "ÏħÎ½": 405,
      "ĠÎļ": 406,
      "ĠÏĦá½¸Î½": 407,
      "á½ºÏĤ": 408,
      "ĠÎł": 409,
      "Î¿ÏħÏĤ": 410,
      "Î¿á¿ĸ": 411,
      "ÏģÎ¯": 412,
      "Ġá½ĳÏĢ": 413,
      "á¾¿": 414,
      "ÏĥÎµ": 415,
      "Î»Îµ": 416,
      "Î¹Îº": 417,
      "ĠÎ¼Îµ": 418,
      "ĠÎµá¼°ÏĤ": 419,
      "ÏĦÎ¿ÏĤ": 420,
      "á½²Î½": 421,
      "Î¹Î½": 422,
      "á¿ĩ": 423,
      "ĠÏĢÏģÎ¿": 424,
      "ÎŃÏģ": 425,
      "Î¿á½ºÏĤ": 426,
      "ÏĦÏīÎ½": 427,
      "ĠÎ¿á½": 428,
      "á¿³": 429,
      "ÎºÎ±": 430,
      "ÏĪ": 431,
      "ĠÏĦÎµ": 432,
      "á¾¶": 433,
      "á¿¦": 434,
      "ĠÎºÎ±ÏĦ": 435,
      "ÏĥÎ±": 436,
      "Î¿á¿ĸÏĤ": 437,
      "ĠÎ¤": 438,
      "ÏĥÎ±Î½": 439,
      "ĠÏĢÎ±": 440,
      "á¿ĥ": 441,
      "ÎµÎ¹Î½": 442,
      "Î»Î·": 443,
      "ĠÎ¼á½²Î½": 444,
      "Î»Î±": 445,
      "á½°Ïģ": 446,
      "Ġ1": 447,
      "Î¯Î±ÏĤ": 448,
      "ÏĦÎ·": 449,
      "ĠÎĳ": 450,
      "ĠÏĢÎ±Ïģ": 451,
      "ĠÏĦÎ±": 452,
      "Ġá½¡": 453,
      "Î¯Î½": 454,
      "ĠÎ³á½°Ïģ": 455,
      "ĠÎµá¼¶": 456,
      "ÏĦÎµÏĤ": 457,
      "Ġá¼ĳ": 458,
      "ĠÏĦá¿·": 459,
      "ÏģÎµ": 460,
      "ÎŁ": 461,
      "Ġá½¡ÏĤ": 462,
      "ÏģÎ¿Î½": 463,
      "Î´Îµ": 464,
      "ĠÏĢÏģá½¸ÏĤ": 465,
      "ĠÎķ": 466,
      "Ġá¾¿": 467,
      "Ġá¼ĢÎ»Î»": 468,
      "Îµá¿ĸÎ½": 469,
      "ÏĦÎ¿Î½": 470,
      "ĠÎ£": 471,
      "Î¿Î¹ÏĤ": 472,
      "ĠÎ¿á¼±": 473,
      "ÎĻ": 474,
      "ĠÏĢÎ¿": 475,
      "ĠÏĦÎ¿á½ºÏĤ": 476,
      "ÏĥÎ¸Î±Î¹": 477,
      "ÎŃÎ³": 478,
      "Î¯Î±Î½": 479,
      "Ġá¼ĲÎ¾": 480,
      "ĠÎľ": 481,
      "Î¿Î¼": 482,
      "ĠÎ±á¼": 483,
      "Ġá¼ĲÏĢÎ¹": 484,
      "Î½Î±": 485,
      "ĠÎĶ": 486,
      "ÏħÎ¼": 487,
      "Î½Î±Î¹": 488,
      "ÎŁÎ": 489,
      "Î±Î»": 490,
      "ÏģÎ¬": 491,
      "Ġá¼¡Î¼": 492,
      "ÏĥÏĦÎ¹": 493,
      "Ġá½Ģ": 494,
      "ÏģÎ¿": 495,
      "Ġá¼¢": 496,
      "ÎµÎ»": 497,
      "ÏĥÎº": 498,
      "Ġá¼ĲÏĢá½¶": 499,
      "ĠÏĥÏħÎ½": 500,
      "á¿¶ÏĤ": 501,
      "ĠÏĦÎ¹": 502,
      "Ġá½ħÏĦÎ¹": 503,
      "ÏģÏĩ": 504,
      "ĠÎŁ": 505,
      "ĠÏĦÎ¿á¿ĸÏĤ": 506,
      "ĠÏĢÎµÏģ": 507,
      "Î®Ïĥ": 508,
      "ĠÏĢÎµ": 509,
      "ĠÏĦá¿ĩ": 510,
      "Î½Îµ": 511,
      "Ġ(": 512,
      "Î¸Î·": 513,
      "Î¿Ïģ": 514,
      "ĠÎ´Î¹Î±": 515,
      "Î¬Î»": 516,
      "ĠÎºÎ±ÏĦá½°": 517,
      "Ġá¼ĢÏĢÎ¿": 518,
      "ÏĮÎ¼ÎµÎ½": 519,
      "ĠÎ´Î¹á½°": 520,
      "ĠÎĺ": 521,
      "á½¼": 522,
      "ĠÎ½á½°": 523,
      "ĠÎ¼á½´": 524,
      "ÏģÎ·": 525,
      "ÏģÎ³": 526,
      "Ġá¿": 527,
      "Ġ2": 528,
      "Î¯Î±": 529,
      "ĠÏĥÏĦ": 530,
      "ÎµÏĦÎ±Î¹": 531,
      "âĢ": 532,
      "ĠÏĦá½°ÏĤ": 533,
      "ÏĢÎ¿": 534,
      "Î±Î³": 535,
      "ÏĥÏĦÎ±": 536,
      "Îķ": 537,
      "ĠÎļÎ±": 538,
      "Ġá¼ĶÏĩ": 539,
      "ÏĦÎ¹Îº": 540,
      "ĠÏĢÎµÏģá½¶": 541,
      "ÏĮÎ¼": 542,
      "ÏĦÎ±ÏĤ": 543,
      "ÎµÎ¹ÏĤ": 544,
      "ÏĮÎ³": 545,
      "ĠÎµá½Ĳ": 546,
      "Î·Î¼": 547,
      "ÏĮÏĤ": 548,
      "Î¿á¿¦Î½": 549,
      "Ġá¼ĢÎ³": 550,
      "ÏĦÎ¿Ïħ": 551,
      "Î¿Î³": 552,
      "Ġá¼ĦÎ»Î»": 553,
      "ĠÎºÎ±ÏĦÎ±": 554,
      "ÎŃÎ»": 555,
      "ĠÏĦÎ¿Ïį": 556,
      "Ġá¼ĲÎ³": 557,
      "ÏħÏĦ": 558,
      "ĠÏĢÎ¬Î½": 559,
      "Î´Î±": 560,
      "Î¸Ïģ": 561,
      "Î»ÎŃ": 562,
      "Î¸Îµ": 563,
      "Î´Î¹": 564,
      "ĤÎ½": 565,
      "ĠÎ±á½ĲÏĦÎ¿á¿¦": 566,
      "Î¿Î¼ÎŃÎ½": 567,
      "Ġá¼¦": 568,
      "Ġá½Ħ": 569,
      "Î¬Ïĥ": 570,
      "ĠÎ¼ÎµÏĦ": 571,
      "ÏĢÎµ": 572,
      "ÏĦÎ¯": 573,
      "ÏĥÎ¼": 574,
      "ĠÎĴ": 575,
      "Î£": 576,
      "ĠÎ¸Îµ": 577,
      "ĠÎ¿á½ĲÎº": 578,
      "Î¬Ïģ": 579,
      "Ġá¼°": 580,
      "ĠÏĢÏĮ": 581,
      "Ġá¼ĺ": 582,
      "ĠÏĢÎ¿Î»": 583,
      "ÏĥÎµÏīÏĤ": 584,
      "ĠÎ»ÎŃÎ³": 585,
      "ĠÏĢÎ±ÏģÎ±": 586,
      "ÏħÎ³": 587,
      "Î·Ïĥ": 588,
      "Î¯Î¿Ïħ": 589,
      "Î®Î½": 590,
      "ĠÏĩÏģ": 591,
      "ĠÎ¿á½ĲÎ´": 592,
      "Ġá¼ķ": 593,
      "ÏĦÏī": 594,
      "Î±Îº": 595,
      "ĠÎµá¼¶Î½Î±Î¹": 596,
      "Ġá¼ĲÎ¼": 597,
      "Ġá¼ĤÎ½": 598,
      "ĠÏĢÎ»": 599,
      "á¾¶ÏĤ": 600,
      "á¾³": 601,
      "Î¯ÏīÎ½": 602,
      "ÏĦÏģ": 603,
      "ĠÎºÎ±Î¸": 604,
      "ÏĥÏĦÎµ": 605,
      "ÏĥÏĩ": 606,
      "ÏĦÎŃ": 607,
      "ĠÎĺÎµ": 608,
      "ĠÎ²Î±": 609,
      "Î»Î¹": 610,
      "ĠÎ¶": 611,
      "Î¿Î¯": 612,
      "Ġá¼ģ": 613,
      "ÏħÏĩ": 614,
      "ĠÎµá¼´": 615,
      "Ġá¼ĢÏĢá½¸": 616,
      "Î¡": 617,
      "á½°ÏĤ": 618,
      "Î¬Î³": 619,
      "ĠÏĢÎ¿Î»Î»": 620,
      "ĠÏĢÎ¿Î¹": 621,
      "ĠÏĢÎµÏģÎ¹": 622,
      "ĠÎĽ": 623,
      "ÏĥÎ±Î¹": 624,
      "ÎĿ": 625,
      "ĠÎ§": 626,
      "ÏģÎ±ÏĤ": 627,
      "Ġá¼±": 628,
      "ĠÂ": 629,
      "ĠÏĢÏģÎ¿Ïĥ": 630,
      "ÏĦÎ¬": 631,
      "Ġá¼¤": 632,
      "Ġá¼ĢÎº": 633,
      "ÏĢÎ¿Î½": 634,
      "ĠÎĵ": 635,
      "ÏĢÎµÏģ": 636,
      "Î¿Îº": 637,
      "á¿¦ÏĦÎ±": 638,
      "ĠÎ±á¼°": 639,
      "ĠÎ´Îµ": 640,
      "ÏįÎ½": 641,
      "Ġá¼¸": 642,
      "Ġ3": 643,
      "Ġá¼ĦÎ½": 644,
      "ĠÎ»ÏĮÎ³": 645,
      "Î¿á½¶": 646,
      "Î¸ÎµÎ½": 647,
      "ĠÎļÎ±á½¶": 648,
      "Ġá¼ĢÎ½Î±": 649,
      "ÎŃÏĩ": 650,
      "ÏħÏĥ": 651,
      "ĠÏĦÎ¿á¿¦ÏĦÎ¿": 652,
      "ĠÏĦÎ¹Î½": 653,
      "ÏĥÎ¹ÏĤ": 654,
      "á¿ĸÏĤ": 655,
      "ÏĢÎ±": 656,
      "ÏĦÎ·ÏĤ": 657,
      "Î¹Î»": 658,
      "Ġá¼ĢÎ»Î»á½°": 659,
      "Î¤": 660,
      "Î¼Îµ": 661,
      "ĠÏĦÏĮ": 662,
      "ÏĦÎŃÏģ": 663,
      "Î¼Î±ÏĦÎ±": 664,
      "ÎĹ": 665,
      "ÏħÏģ": 666,
      "Î¸Î±": 667,
      "ÎºÎµ": 668,
      "Î¼Î¬": 669,
      "Ġá½ĳÏĢá½¸": 670,
      "ĠÎĿ": 671,
      "ĠÏĪ": 672,
      "ĠÏĦÎ¿Î¹": 673,
      "Îµá¿ĸÏĤ": 674,
      "ĠÎ¿á½ĸ": 675,
      "Î¿Ïĥ": 676,
      "Î¿ÏĢ": 677,
      "ĠÎ³Îµ": 678,
      "ĠÎ´Ïį": 679,
      "Ġá½¥": 680,
      "á¼°": 681,
      "á¼±": 682,
      "ĠÎ±á½ĲÏĦá¿¶Î½": 683,
      "Î±Î¯": 684,
      "ÏĢÎ¿Ïħ": 685,
      "ÏĦÎ¿Î¹": 686,
      "ÏİÎ½": 687,
      "ĠÎ»Î±": 688,
      "Î¼Î¿Î½": 689,
      "Î´Ïģ": 690,
      "Ġá¼ħ": 691,
      "á¿ĸÎ½": 692,
      "ĠÎ¦": 693,
      "Î´Î¯": 694,
      "ĠÏĥÏħÎ¼": 695,
      "ĠÎ´ÎŃ": 696,
      "ĠÎ¼ÎµÏĦá½°": 697,
      "ĠÏĦÎ¿Ïħ": 698,
      "ĠÎ±á½": 699,
      "ÏĢÎ¹": 700,
      "ÎµÏħ": 701,
      "Ġá¼ĢÏĨ": 702,
      "ÏĦÏīÏĤ": 703,
      "á½°Î½": 704,
      "ĠÎ²Î±ÏĥÎ¹": 705,
      "ĠÎ³ÎµÎ½": 706,
      "á½¼Î½": 707,
      "Î¼Î±ÏĦÎ¿ÏĤ": 708,
      "ĠÎ¼Î·": 709,
      "Ġá½ĳÎ¼": 710,
      "ĠÏĦÎ¯": 711,
      "ĠÎ¾": 712,
      "ÎµÎ¯Î±ÏĤ": 713,
      "ÎĽ": 714,
      "ĠâĢ": 715,
      "Ġá¼ł": 716,
      "Ġ5": 717,
      "Î¿ÏĨ": 718,
      "á½¶ÏĤ": 719,
      "ÎŃÏĥ": 720,
      "ĠÎ¼ÏĮÎ½": 721,
      "Ġá¼ĢÏģÏĩ": 722,
      "Î·Î³": 723,
      "ÏĦÎ·Î½": 724,
      "ĠÎ¿á½ĸÎ½": 725,
      "Ġá¿¥": 726,
      "Î¬Î¶": 727,
      "ÏīÏģ": 728,
      "ÏĦÎ®": 729,
      "ÎµÏĤ": 730,
      "Î²Î±": 731,
      "ĠÎĻ": 732,
      "Ġá¼µ": 733,
      "ĠÎ±á½ĲÏĦá½¸Î½": 734,
      "ÎµÏį": 735,
      "Ġ4": 736,
      "ĠÎ¿á½ķ": 737,
      "Ġá¼ĢÎ¼": 738,
      "Î¹ÏĤ": 739,
      "ĠÎ¿á½Ķ": 740,
      "ĠÎ¿á½Ĺ": 741,
      "ĠÎ¿á¼°": 742,
      "ĠÏĢÎ±Ïģá½°": 743,
      "ĠÏĦÎ±á¿¦ÏĦÎ±": 744,
      "Î»Î¬": 745,
      "ÏĦÎµÏģÎ¿Î½": 746,
      "ÎµÎ¯Î½": 747,
      "Ġá¼ĲÏĨ": 748,
      "ĠÎ±á½ĲÏĦá¿·": 749,
      "ÏĥÎ¯": 750,
      "ÎŃÎ¼": 751,
      "Ġá¼ĲÏĥÏĦÎ¹": 752,
      "ÏĢÎµÎ¹": 753,
      "ĠÏĦÎ¹ÏĤ": 754,
      "ĠÎ´á½²Î½": 755,
      "ÎºÎ¿Î½": 756,
      "ÏĦá¿¶Î½": 757,
      "ÏģÎ¹ÏĥÏĦ": 758,
      "Î¯Î¶": 759,
      "ÏĢÏĮ": 760,
      "Î¸ÎŃÎ½": 761,
      "ÎµÎº": 762,
      "ĠÎ±á¼±": 763,
      "ÏģÏī": 764,
      "ÏĥÎ¿Î½": 765,
      "ĠÎºÎ±Î¹": 766,
      "Ġá½ĦÎ½": 767,
      "Î»Î¿Î½": 768,
      "ÏģÎŃ": 769,
      "ĠÎµá½": 770,
      "ÏģÏĮ": 771,
      "ĠÎºÎ±Î»": 772,
      "Î»Î¯": 773,
      "Î´Î¿": 774,
      "Ġá¾": 775,
      "Î©": 776,
      "Î¹Î±": 777,
      "Î´Î·": 778,
      "Ġá¼¦Î½": 779,
      "Î¿ÏħÏĥÎ¹": 780,
      "ĠÏĦÎ±Ïį": 781,
      "ÏģÎ±Î½": 782,
      "Î¿Î½ÏĦÎµÏĤ": 783,
      "ĠÏĢÏģÏĮ": 784,
      "Î¯Îº": 785,
      "Î¬Î¼": 786,
      "ĠÏĥÎº": 787,
      "ÎµÏĥÎ¸Î±Î¹": 788,
      "Î¹Î¿Î½": 789,
      "ĠÏĦÎ¿": 790,
      "ÎµÏĦÎ¿": 791,
      "ÏģÎ¿ÏĤ": 792,
      "ĠÎ¼Î¿Ïħ": 793,
      "Ġá½ĥ": 794,
      "ÏħÏģÎ¯": 795,
      "Î»Î®": 796,
      "Î±ÏħÏĦ": 797,
      "Ġá½ģÎ¼": 798,
      "Ġá½ķ": 799,
      "Î¼ÎµÎ½Î¿ÏĤ": 800,
      "Îļ": 801,
      "Ġá¼ĲÏĤ": 802,
      "Ġ.": 803,
      "ÏģÎ±ÏĨ": 804,
      "á½¶Î½": 805,
      "ĠÎ¼ÎµÏĦÎ±": 806,
      "ĠÎłÎ±": 807,
      "Î»Î»Î¿Î½": 808,
      "ÏĥÏī": 809,
      "Î±Î¸": 810,
      "Î´Î¿ÏĤ": 811,
      "ĠÎ¼ÎµÎ³": 812,
      "ÏĮÎ¼ÎµÎ½Î¿ÏĤ": 813,
      "Ġá¼´": 814,
      "Î¼Î²": 815,
      "Î¬Îº": 816,
      "Î¿Î½ÏĦÎ±Î¹": 817,
      "ĠÏĥÏĦÏģÎ±": 818,
      "ĠÎºÎ±Îº": 819,
      "ĠÎ´á½´": 820,
      "Î¾Îµ": 821,
      "Î¿Î¹Î½": 822,
      "á¿¦Î½": 823,
      "ĠÎ¿á¼°Îº": 824,
      "Ġá¼ĢÎ½Î¸Ïģ": 825,
      "ĠÏĢá¾¶": 826,
      "ÎŁÎ¥": 827,
      "ÏĥÏĦÎ·": 828,
      "Î¿ÏħÎ½": 829,
      "ÏĥÎ·ÏĤ": 830,
      "ÏħÎº": 831,
      "Î±Î¹ÏĤ": 832,
      "ĠÎ´ÏħÎ½": 833,
      "ĠÏĢÎ±Î½": 834,
      "ĠÂ«": 835,
      "ÏĦÎ±Î½": 836,
      "ÏĬ": 837,
      "Î´Î¹Îº": 838,
      "Î¹ÏĥÏĦ": 839,
      "ĠÎ¿á¼·": 840,
      "ĠÏĦÎ¬": 841,
      "Î½Î·": 842,
      "Ġá¼ĲÎºÎµÎ¯Î½": 843,
      "Î¸ÎŃ": 844,
      "Ġá¼ĳÎ±ÏħÏĦ": 845,
      "ÏģÎ¹Îº": 846,
      "ÏĥÎ±ÏĤ": 847,
      "ÏģÎ¹Î¿Î½": 848,
      "Î½Ïī": 849,
      "ĠÏĥÎµ": 850,
      "Ġá¼Ī": 851,
      "ĠÎĶÎ¹": 852,
      "ÏİÏĢ": 853,
      "ÏĮÏģ": 854,
      "ÏĥÎµÎ½": 855,
      "Î»ÎµÎ¹": 856,
      "Ġá½§": 857,
      "Î´ÎµÎ¹": 858,
      "Î®Î¼": 859,
      "Ġá¼¥": 860,
      "Î»ÎµÏħ": 861,
      "ÏĢÏĦ": 862,
      "ĠÎĹ": 863,
      "ÎŁÎ£": 864,
      "ĠÎºÎµ": 865,
      "ÏĮÎ»": 866,
      "Î¿ÏħÏĥÎ¹Î½": 867,
      "ĠÏĥÎ¿Ïħ": 868,
      "Î³Îµ": 869,
      "ÏĮÎ½ÏĦÏīÎ½": 870,
      "ĠÎ¼Î±": 871,
      "ĠÎ½ÏĮÎ¼": 872,
      "Ġá½ĳÏĢÎ¿": 873,
      "Î¥": 874,
      "ĠÏĨÎ¹Î»": 875,
      "ÏĮÏĦÎ·": 876,
      "ĠÏĦÎ¿ÏįÏĦ": 877,
      "ĠÎ¼Î¿Î¹": 878,
      "Î®Î»": 879,
      "ĠÏħ": 880,
      "ĠÏĨÏį": 881,
      "á¼Ģ": 882,
      "Ġá¼ĲÏĥÏĦ": 883,
      "ĠÏĦÎ±á¿ĸÏĤ": 884,
      "á¾·": 885,
      "ĠÎ¼ÏĮÎ½Î¿Î½": 886,
      "ĠÎ½á¿¦Î½": 887,
      "Ġ[": 888,
      "Î¼ÎŃÎ½ÏīÎ½": 889,
      "ĠÏĥÏħÎ³": 890,
      "Ġá¼ĶÏĨ": 891,
      "ÏĢÎ»": 892,
      "Ġá¼ĶÎ½": 893,
      "ĠÏĢÎ¬Î½ÏĦÎ±": 894,
      "Î·Î»": 895,
      "Î¾Î¹": 896,
      "ĠÏĥÏĨ": 897,
      "Î´Î¿Î½": 898,
      "Î»ÎµÏį": 899,
      "ÏīÏĢ": 900,
      "ĠÎ¼ÎŃÎ½": 901,
      "ÎºÎ¬": 902,
      "Ġá½¦": 903,
      "Ġ6": 904,
      "Î¼Î¬ÏĦÏīÎ½": 905,
      "ĠÏĦÎ¿ÏįÏĦÏīÎ½": 906,
      "Î»Î·Î¸": 907,
      "Ġá¼ĲÏĢÎµ": 908,
      "ÏĢÎ¯": 909,
      "ĠÏĪÏħÏĩ": 910,
      "ĠÎ¼Î®": 911,
      "Îľ": 912,
      "ÏĥÎ¯Î±ÏĤ": 913,
      "ĠÎ½Î±": 914,
      "Î·ÏĦ": 915,
      "ĠÎ±á½ĲÏĦÎ¿á¿ĸÏĤ": 916,
      "Ġ,": 917,
      "ÏĩÎµ": 918,
      "Ġá¼µÎ½Î±": 919,
      "Î¿Î¼ÎµÎ½": 920,
      "ĠÎŁá½Ĳ": 921,
      "ÏģÎ±Î³": 922,
      "Î½Ïİ": 923,
      "Î¿ÏħÎ»": 924,
      "ÏĥÎµÎ¹": 925,
      "ĠÎ¼ÎŃ": 926,
      "Î¿Î»Î¿Î³": 927,
      "Ġá¼¡Î¼á¿¶Î½": 928,
      "Ġ|": 929,
      "Î¬Î»Î»": 930,
      "Ġ;": 931,
      "á¿ĨÎ½Î±Î¹": 932,
      "Î¿Î½ÏĦÎ±": 933,
      "ÏĨÎ¸": 934,
      "Ġá¼ĲÎ»": 935,
      "Ġá¼ĦÏģ": 936,
      "ÎŃÎº": 937,
      "ÏĥÏĥ": 938,
      "Ġá½§Î½": 939,
      "Î¼Î±ÏĦÎ¹": 940,
      "Î·Ïģ": 941,
      "ĠÎ¼Î·Î´": 942,
      "Î´ÏĮ": 943,
      "ĠÎ±á½ĲÏĦá¿ĨÏĤ": 944,
      "Îł": 945,
      "ĠÎ´ÏįÎ½Î±": 946,
      "Ġá¼©": 947,
      "ÎµÎ³": 948,
      "ĠÎķá¼°": 949,
      "ÏĦá½¸ÏĤ": 950,
      "ÎºÏĮ": 951,
      "Î¼ÏĢ": 952,
      "ÏĮÎ¼ÎµÎ½Î¿Î½": 953,
      "Î¼Î¹": 954,
      "ÎĶ": 955,
      "ĠÂ·": 956,
      "ÎºÎ»Î·": 957,
      "Ġá¼Ļ": 958,
      "ÏģÎ¿Ïħ": 959,
      "ĠÎ¿á½ĶÏĦÎµ": 960,
      "Î¾Î±": 961,
      "Î±á¿ĸ": 962,
      "ĠÎ±á½ĲÏĦá½¸ÏĤ": 963,
      "Ġ10": 964,
      "ĠÏĥá½º": 965,
      "Î³Î³": 966,
      "Ġá½ī": 967,
      "ĠÎ¿á½ĲÎ´á½²": 968,
      "Î¼Î·": 969,
      "..": 970,
      "ĠÎ¿á½ĲÏĩ": 971,
      "Ġ8": 972,
      "ĠÎ³ÎŃÎ½": 973,
      "ÎĲ": 974,
      "ÏģÎ¹Î½": 975,
      "ÏĦÎµÏģ": 976,
      "ÎĦ": 977,
      "Ġ*": 978,
      "ĠÏĨÎ±": 979,
      "ĠÏĢÎ¬Î»": 980,
      "Î¸Î®": 981,
      "ĠÎµá¼°Ïĥ": 982,
      "Ġá¼ĲÏĩ": 983,
      "á½²Ïģ": 984,
      "ÏĨÎ±": 985,
      "Îµá¿ĸÏĦÎ±Î¹": 986,
      "Î¹ÏĥÏĦÎ±": 987,
      "ÏħÏĢ": 988,
      "Î¿Ïĩ": 989,
      "ĠÎ¼á¾¶": 990,
      "Î¬ÏĦ": 991,
      "Î¸Î·Î½": 992,
      "ĠÎºÎ¿Î¹Î½": 993,
      "Ġá¼¡Î¼á¿ĸÎ½": 994,
      "Î¬ÏģÏĩ": 995,
      "Î¼Î±Ïģ": 996,
      "ĠÎ¼Î¬": 997,
      "Î´ÎŃ": 998,
      "ĠÏĦÎ¿ÏįÏĦÎ¿Ïħ": 999,
      "Ïĥá¿ĥ": 1000,
      "Ġá¼ĲÏĥÏĦÎ¹Î½": 1001,
      "ĠÎ³ÏħÎ½": 1002,
      "ĠÏĩÏģÏĮÎ½": 1003,
      "Î¾Î±Î½": 1004,
      "ÏįÏģÎ¹": 1005,
      "ÏĢÎ¿Î¹": 1006,
      "Î¯Î»": 1007,
      "Î´Ïī": 1008,
      "ĠÎ§ÏģÎ¹ÏĥÏĦ": 1009,
      "ĠÎ½Î¿Î¼": 1010,
      "ÏīÎ¼Î±": 1011,
      "ĠÏĢÏģá¿¶": 1012,
      "ĠÏħá¼±": 1013,
      "ÎµÏĥ": 1014,
      "ĠÎ¿á¼¶": 1015,
      "ĠÎ¿á½ķÏĦÏī": 1016,
      "á½´ÏĤ": 1017,
      "Ġá½ĳÏĢá½²Ïģ": 1018,
      "ÎµÎ²": 1019,
      "ÎµÎ¹Î±Î½": 1020,
      ").": 1021,
      "ÏĥÎ¸Îµ": 1022,
      "ÏĨÎŃÏģ": 1023,
      "ÏĥÎ¸Î·": 1024,
      "Î³Î¿Î½": 1025,
      "ÎºÎµÎ½": 1026,
      "ĠÎ¼á¾¶Î»Î»Î¿Î½": 1027,
      "Ġá¼ĢÎ½Î¸ÏģÏİÏĢ": 1028,
      "Î¯á¾³": 1029,
      "ĠÎ¼Î¹": 1030,
      "ÏĮÎ¼ÎµÎ½Î¿Î¹": 1031,
      "á½²ÏĤ": 1032,
      "ĠÂ»": 1033,
      "ĠÏĨÏħ": 1034,
      "ÏĥÎ¼ÎŃÎ½": 1035,
      "Î³ÎµÎ½": 1036,
      "ÎºÎ¿Ïħ": 1037,
      "ĠÎ¼ÎŃÎ³": 1038,
      "ÏĢÏīÏĤ": 1039,
      "ĠÎ±á½ĲÏĦÎ¿á½ºÏĤ": 1040,
      "Î¼ÎµÎ½Î¿Î½": 1041,
      "ÎºÎµÎ¹": 1042,
      "Ġá¼±ÎµÏģ": 1043,
      "ĠÎ¼á½²": 1044,
      "ĠÎĺÎµÎ¿á¿¦": 1045,
      "Ġá¼ĢÎ½Î±Î³": 1046,
      "Î±Ïį": 1047,
      "Î²Î¿Î»": 1048,
      "Ġá¼ĶÏĦÎ¹": 1049,
      "ÏĥÏĢÎµÏģ": 1050,
      "ÏĦÎ¿á¿¦": 1051,
      "Ġá¼ĲÎºÎµá¿ĸÎ½": 1052,
      "ĠÎ´Î¹ÎºÎ±": 1053,
      "ÎŃÎ²": 1054,
      "ĠÎ¿á½ķÏĦÏīÏĤ": 1055,
      "ÎµÎ¼": 1056,
      "Â»": 1057,
      "Î»Î±Î²": 1058,
      "ÏĮÏĦÎ¹": 1059,
      "ÎµÎ¹Î´": 1060,
      "Ġá¼ĲÏĢÎ¯": 1061,
      "ÏĦá½¶": 1062,
      "Ġá¼ĢÎ³Î±Î¸": 1063,
      "Î±Î¹Î½": 1064,
      "Ġ15": 1065,
      "ÏĢÎ±Î½": 1066,
      "Î¿Î¼Î±Î¹": 1067,
      "ÏģÏħ": 1068,
      "Ġá¼ĢÎ¼ÏĨ": 1069,
      "á¿¥": 1070,
      "Ġ7": 1071,
      "ĠÏĢÎ»Î·": 1072,
      "Î¿ÏįÏĤ": 1073,
      "Î¿ÏģÎ¯": 1074,
      "Ġá¼ĶÏĩÎµÎ¹": 1075,
      "á¿ĨÎ½": 1076,
      "ĠÏĢÏĮÎ»Îµ": 1077,
      "Î»ÎµÎ¯": 1078,
      "ÏģÎ±Î¼": 1079,
      "Î¬ÏĦÏīÎ½": 1080,
      "Ġá¼ĶÏģÎ³": 1081,
      "Î¼ÎµÎ½Î¿Î¹": 1082,
      "ĠÎ´ÏįÎ¿": 1083,
      "ÏģÎ¼": 1084,
      "ÏģÎ±Îº": 1085,
      "Î»Î»Î·Î½": 1086,
      "Ġá¼ĲÎ³á½¼": 1087,
      "Î¼ÏīÏĤ": 1088,
      "Î¿Î½ÏĦÎ¿": 1089,
      "ĠÎ±á½Ĳ": 1090,
      "Îĵ": 1091,
      "Î·Î¸": 1092,
      "ĠÏĥÏħ": 1093,
      "ĠÎ»Î¿Î¹": 1094,
      "ĠÎºÏĮ": 1095,
      "ÏīÎ³": 1096,
      "Î¹Î²": 1097,
      "ÎĻÎĳ": 1098,
      "ÏĩÎ¸": 1099,
      "ĠÎ¿á½ĲÎ´á½²Î½": 1100,
      "Ġá½ħÎ»": 1101,
      "¤á¿¥": 1102,
      "ĠÏĦÏĮÏĦÎµ": 1103,
      "ÎµÎ¹Ïģ": 1104,
      "ÏĮÎ½ÏĦÎµÏĤ": 1105,
      "Î¿Î¼ÎŃÎ½ÏīÎ½": 1106,
      "Î±ÏĦ": 1107,
      "ĠÎ´Î¿Îº": 1108,
      "ĠÎ½Îµ": 1109,
      "ÏĥÎ¯Î±Î½": 1110,
      "Î½Î¿": 1111,
      "Ġá¿¾": 1112,
      "ÏĥÎµÏĦÎ±Î¹": 1113,
      "ĠÎ¡": 1114,
      "ĠÏĥÏį": 1115,
      "ÏģÎ¬ÏĨ": 1116,
      "ĠÎ´Î·Î¼": 1117,
      "Î±ÏģÏĩ": 1118,
      "Î¸Î¿ÏĤ": 1119,
      "ÏģÎ¸": 1120,
      "ÎŃÏīÎ½": 1121,
      "Ê¼": 1122,
      "ÏģÏīÎ½": 1123,
      "Î¿ÏħÎ¼ÎŃÎ½": 1124,
      "ĠÏĢÎ¿Î»Î¹": 1125,
      "Ġá½ĳÏĢÎµÏģ": 1126,
      "Ġ18": 1127,
      "Ġá¼ĢÎ½ÏĦÎ¹": 1128,
      "ÏīÏģÎ¯": 1129,
      "Î¯Î½ÎµÏĦÎ±Î¹": 1130,
      "ÏĥÏĦÎ¹Î½": 1131,
      "Î´Î±ÏĤ": 1132,
      "ĠÏĥÏĩ": 1133,
      "Ġ9": 1134,
      "),": 1135,
      "ĠÎµá¼°ÏĢ": 1136,
      "ĠÎ´Î¯Îº": 1137,
      "ĠÎ´ÏĮ": 1138,
      "ÏĥÏĦÎ¬": 1139,
      "ÏģÏĮÎ½": 1140,
      "Ġá¼ģÎ³": 1141,
      "Ġá½ł": 1142,
      "Ġá¼¤Î´Î·": 1143,
      "ĠÎķá½Ĳ": 1144,
      "Ġá¼£": 1145,
      "ĠÏĢÎ¬Î»Î¹Î½": 1146,
      "ĠÏĦÏģÎ¹": 1147,
      "Ġá¼¡Î¼á¾¶ÏĤ": 1148,
      "ÎºÎ±Î»": 1149,
      "ĠÎ¿á¼´": 1150,
      "ÏĨÎ±Î»": 1151,
      "Î¼Î±Î¹": 1152,
      "ĠÎºÎ±Ïģ": 1153,
      "ÏģÎ¿ÏĨ": 1154,
      "ĠÏĥÏī": 1155,
      "Î½Î®": 1156,
      "Î´ÎµÎ»": 1157,
      "ÏĥÏĦÎ®": 1158,
      "Î´ÏīÎ½": 1159,
      "Î¿ÏħÏĥÎ±": 1160,
      "ĠÎ¤á½¸": 1161,
      "ÎµÏĦ": 1162,
      "ĠÎºÎ±ÏĦÎµ": 1163,
      "Î¿á¿¦ÏĤ": 1164,
      "ÏħÎ¸": 1165,
      "ĠÏĢÎ±ÏĦ": 1166,
      "ÏĢÏĢ": 1167,
      "ÏīÏĥÎ¹Î½": 1168,
      "Î¿Î½ÏĦÎ¿ÏĤ": 1169,
      "ĠÏĢÎ¬": 1170,
      "ÏįÎ»": 1171,
      "Ġá½¥ÏĥÏĢÎµÏģ": 1172,
      "ÏħÎ¼Î±": 1173,
      "ĠÏĢÎ±Î¹": 1174,
      "ĠÎ±á½ĲÏĦá½´Î½": 1175,
      "Î®ÏĥÎµÎ¹": 1176,
      "Ġá¼ĢÎ»Î·Î¸": 1177,
      "Ġá½¥ÏĥÏĦÎµ": 1178,
      "ĠÏĦÎ¹Î¼": 1179,
      "Î´ÎµÎ¯": 1180,
      "ĠÎ¼ÎŃÏģ": 1181,
      "ÏĦÎ¿ÏħÏĤ": 1182,
      "ÎºÎ±Î¹": 1183,
      "ĠÏĨÎ·Ïĥ": 1184,
      "Î¿Î¹Îº": 1185,
      "ÏĨÎ±Î½": 1186,
      "ÏĢÎµÎ½": 1187,
      "ĠÏĢÎ¬Î½ÏĦÏīÎ½": 1188,
      "Ġá¼ĢÏģ": 1189,
      "ĠÏĢÎŃ": 1190,
      "ÏįÏĢ": 1191,
      "ĠÏĢÏĮÎ»": 1192,
      "ÏĦÏĮ": 1193,
      "á¿ĨÏĥÎ±Î¹": 1194,
      "âĢĻ": 1195,
      "Ġá¼ĢÏĥ": 1196,
      "Î¯Î¿ÏħÏĤ": 1197,
      "ĠÎ³Î¬Ïģ": 1198,
      "Ġá¼ĦÎ½Î¸Ïģ": 1199,
      "ĠÎĸ": 1200,
      "ÎĹÎ£": 1201,
      "ÏģÏİ": 1202,
      "Î·ÏĥÎ¹Î½": 1203,
      "ÏĩÎ±": 1204,
      "ĠÎ¼Î¬Î»": 1205,
      "Ġá½ħÏĢÏīÏĤ": 1206,
      "Î¸Î¿Î½": 1207,
      "ĠÏĥÏİ": 1208,
      "Ġá¼§": 1209,
      "ÏģÎµÏį": 1210,
      "Î´Î¿Ïħ": 1211,
      "Ġá¼°Î´": 1212,
      "Ġá¼ĢÏĢÏĮ": 1213,
      "ĠÏĢá¿¶ÏĤ": 1214,
      "Ġá¼ĥ": 1215,
      "á¿¤á¿¥": 1216,
      "Îµá¿ĸÎ¿Î½": 1217,
      "ĠÏĨÎŃÏģ": 1218,
      "á½¼ÏĤ": 1219,
      "ĠÎºÎ±Î¯": 1220,
      "ÏĥÏĦÎ¹Îº": 1221,
      "Ġá¼ĦÎ½Î´": 1222,
      "ÏįÏĩ": 1223,
      "Î·Î¼Î±": 1224,
      "Î¿Î²": 1225,
      "ĠÎĳá¼°": 1226,
      "Ġ20": 1227,
      "ĠÎ¥": 1228,
      "Ġá¼ĢÎ½Î´Ïģ": 1229,
      "Ġá¼£Î½": 1230,
      "Î¿Î´": 1231,
      "Î©ÎĿ": 1232,
      "Î®ÏĥÎ±ÏĤ": 1233,
      "'.": 1234,
      "ÏĦá¿ĥ": 1235,
      "Î¼Î²Î¬Î½": 1236,
      "Ġ-": 1237,
      "ĠÏĦÎŃ": 1238,
      "Î¼Î½": 1239,
      "ĠÏĢÎ¹": 1240,
      "ĠÏĢÏģá½¸": 1241,
      "Î´ÎµÎ»ÏĨ": 1242,
      "ĠÎ´Î¹Î¬": 1243,
      "Ġá¼Ĳá½°Î½": 1244,
      "ĠÏĢÎ¬Ïĥ": 1245,
      "Îµá¿ĸÏĥÎ¸Î±Î¹": 1246,
      "ĠÏĦÏģÏĮ": 1247,
      "á¼Ĳ": 1248,
      "Î¸Î·ÏĥÎ±Î½": 1249,
      "ÏĦÎµÎ»": 1250,
      "ĠÎ¹": 1251,
      "Î¹Î¿ÏĤ": 1252,
      "Ġá½ĢÎ½": 1253,
      "ĠÏĢÎ¯": 1254,
      "Î¸Î±Î½": 1255,
      "Î¾Î¹Î½": 1256,
      "ÏĥÎ±Î½ÏĦÎµÏĤ": 1257,
      "ÎŃÎ½Î±Î¹": 1258,
      "ĠÎłÎµÏģ": 1259,
      "ÎĻÎ£": 1260,
      "ÏģÎ±Ïĩ": 1261,
      "Î¸ÏħÎ¼": 1262,
      "ĠÏĥÎ¿Î¹": 1263,
      "ĠÎ¼ÎµÎ³Î¬Î»": 1264,
      "ÏĦÎµÎ¹": 1265,
      "Î»Î¹Îº": 1266,
      "Ġá¼ĶÎº": 1267,
      "Ġ'": 1268,
      "Ïģá½¸Î½": 1269,
      "ĠÎ¿á½ĹÏĦÎ¿ÏĤ": 1270,
      "ÎĳÎ»Î»": 1271,
      "ĠÎ±á½ĳ": 1272,
      "Ġá½ħÏĦÎ±Î½": 1273,
      "ĠÏĢÏģÏİ": 1274,
      "Î¿Î½ÏĦÎ±ÏĤ": 1275,
      "ĠÎ±á½ĸ": 1276,
      "ÏĥÎºÎµÏħ": 1277,
      "ÎµÎ´": 1278,
      "Î¸Î¼": 1279,
      "ĠÎ¸Î±": 1280,
      "ĠÎ·": 1281,
      "ĠÏĩÎ¬": 1282,
      "ĠÎ»ÎŃÎ³ÎµÎ¹": 1283,
      "ĠÎºÎ¬": 1284,
      "Ġá¼ĲÎ¸": 1285,
      "ĠÎ±á½ĲÏĦá½¸": 1286,
      "ÎµÏģÎ³": 1287,
      "ĠÏĩÏģÎ·": 1288,
      "ĠÎ²Î±ÏĥÎ¹Î»ÎŃ": 1289,
      "ĠÎ»Î¿Î¹ÏĢ": 1290,
      "ĠÏĦÏģÎ¯": 1291,
      "ÏĦÎŃÏģÎ±": 1292,
      "ÎµÏĩ": 1293,
      "ĠÎ´Îµá¿ĸ": 1294,
      "ĠÏĦÏīÎ½": 1295,
      "ĠÎ¼Î¹Îº": 1296,
      "ĠÏĢÎ½Îµ": 1297,
      "ÎĳÎ½": 1298,
      "Î®Ïĥá¿ĥ": 1299,
      "Ġá¿¬": 1300,
      "ĠÎºÎ¹Î½": 1301,
      "ÏĦÎµÏį": 1302,
      "ÏĢÎŃ": 1303,
      "ÏĥÏĦÎ¿Î½": 1304,
      "Î´ÎµÏĤ": 1305,
      "Î¹Î¼": 1306,
      "Ġá½ħÎ¼ÏīÏĤ": 1307,
      "ÏĪÎµ": 1308,
      "Î¾Ïī": 1309,
      "ÏģÎµÏĤ": 1310,
      "á½´Ïģ": 1311,
      "Ïģá¿¶Î½": 1312,
      "ĠÏĦÎ±ÏįÏĦÎ·Î½": 1313,
      "Î±Î¼": 1314,
      "Î´Ïį": 1315,
      "ÎŁÎĿ": 1316,
      "á¿ĨÎ»": 1317,
      "ĠÎ½ÎŃ": 1318,
      "Î±Î²": 1319,
      "Î¸Îµá½¶ÏĤ": 1320,
      "ĠÎ¶Ïī": 1321,
      "Ġá¼ĢÎ´ÎµÎ»ÏĨ": 1322,
      "ĠÎ¼Î±Îº": 1323,
      "Î¹ÏĥÎ¼": 1324,
      "Î·ÏĦÎ±Î¹": 1325,
      "Îĺ": 1326,
      "ÏĢÎ¿Î»": 1327,
      "Ġá¼ĦÎ³": 1328,
      "ÏĨÎ¿Ïģ": 1329,
      "Î¿á¿¦Î½ÏĦÎµÏĤ": 1330,
      "Ġá¼ĲÏĢÎ¹ÏĥÏĦ": 1331,
      "ĠÎµá½ĳ": 1332,
      "ÎŃÏĥÎ¸Î±Î¹": 1333,
      "ĠÏĨÎ¯Î»": 1334,
      "ĠÎºÏģÎ±": 1335,
      "ĠÎ´Ïħ": 1336,
      "Î¼ÎŃÎ½Î¿Î½": 1337,
      "Ġá¼ĲÎ³ÎŃÎ½": 1338,
      "ÎºÎ½": 1339,
      "ÏģÎ¹Î±": 1340,
      "ÎĦ.": 1341,
      "Ġá¼ĳÎºÎ¬": 1342,
      "Î®Î³": 1343,
      "Î¸ÎµÎ¹": 1344,
      "ÏĦá¿³": 1345,
      "Ġá½ĳÎ¼á¿ĸÎ½": 1346,
      "Ġá½ģÏĢ": 1347,
      "Ġá¼ĲÎºÎµá¿ĸ": 1348,
      "ÎĳÎĻ": 1349,
      "Ġá¼ĺÎ½": 1350,
      "Î¬Î¼ÎµÎ½Î¿ÏĤ": 1351,
      "Î¹Ïĥ": 1352,
      "Î¼Î·Î½": 1353,
      "Î¹Î³": 1354,
      "Îµá½¶": 1355,
      "ĠÎ¼ÎŃÏĥ": 1356,
      "Î·ÏĥÎµÎ½": 1357,
      "Ġá¼ĶÏĨÎ·": 1358,
      "Ġá½ģÎ´": 1359,
      "ĠÎ¼Î¿Î½": 1360,
      "ĠÏĦÎ·ÏĤ": 1361,
      "ĠÏĩÎ±": 1362,
      "ĠÎ³Î½Ïİ": 1363,
      "ĠÎ¸ÎŃÎ»": 1364,
      "Î±á¿¦ÏĦÎ±": 1365,
      "Î¯á¿³": 1366,
      "ĠC": 1367,
      "Ġá¼ĺÎº": 1368,
      "ĠÎ»ÏĮÎ³Î¿Î½": 1369,
      "ĠÏĩÏİ": 1370,
      "ÎµÎ»Î¸": 1371,
      "ĠÏĢÏģá¿¶ÏĦÎ¿Î½": 1372,
      "Î³ÏģÎ±ÏĨ": 1373,
      "Ġá½ĳÎ¼á¿¶Î½": 1374,
      "ĠÎ¼Î¬Î»Î¹ÏĥÏĦÎ±": 1375,
      "Î±Î»Î»": 1376,
      "Ġá½ĢÎ»Î¯": 1377,
      "ĠÎ¤Î¯": 1378,
      "ÏīÎ¼ÎµÎ½": 1379,
      "ÎºÎ·": 1380,
      "ÏĩÎ¿Î½": 1381,
      "ÎŃÏĩÏģÎ¹": 1382,
      "Î¬ÏĤ": 1383,
      "ÎºÎ±Î½": 1384,
      "Ġá¼¡Î¼ÎŃ": 1385,
      "er": 1386,
      "ÏĦÎ·ÏģÎ¯": 1387,
      "Î»Î¿Î³": 1388,
      "ķÏĦÎ·": 1389,
      "ĠÏĥÎ¿ÏĨ": 1390,
      "Î¯Î¿Î¹ÏĤ": 1391,
      "ĠÏĥÏĦÎ±": 1392,
      "ĠÎ»Î±Î²": 1393,
      "ĠÎ»Î¿Î³": 1394,
      "ĠÎ±á¼´": 1395,
      "Ġ11": 1396,
      "ÏĦÏģá½¸ÏĤ": 1397,
      "Ï²": 1398,
      "Î®Î¼Î±ÏĦÎ±": 1399,
      "Î¯Î³": 1400,
      "Î¼ÏĨ": 1401,
      "ÏĦÎŃÏģÏīÎ½": 1402,
      "Ġá¼ĢÎºÎ¿Ïį": 1403,
      "ÏģÏį": 1404,
      "Ġá¼ĦÎ»Î»ÏīÎ½": 1405,
      "ĠÎ´Î¹Î´": 1406,
      "ÎºÎ±á½¶": 1407,
      "Î¹Îºá¿ĨÏĤ": 1408,
      "Ġá¼ĢÎ½Î¬Î³": 1409,
      "Î¾ÎµÎ½": 1410,
      "ÏĥÏĦÎ±Î¹": 1411,
      "Ġá¼ĲÏĢÎµá½¶": 1412,
      "ÏĦÎ¹ÏĤ": 1413,
      "ĠÎ¼ÎŃÏĩÏģÎ¹": 1414,
      "ĠÏĥÏħÎ¼Î²": 1415,
      "ĠÎ¸á½°": 1416,
      "Ġá¼ľ": 1417,
      "Ġá¼¡Î¼ÎŃÏģ": 1418,
      "Î¿á¿¦ÏĦÎ¿Î½": 1419,
      "Ġá¼ĶÎ³": 1420,
      "Î¹Î¶": 1421,
      "ĠÎ´Î¹ÏĮÏĦÎ¹": 1422,
      "Î®ÏĥÎ±": 1423,
      "Ġá¼ĢÏĢÎ¿Î»": 1424,
      "Ġá¼°ÏĥÏĩ": 1425,
      "Î¼ÎŃÎ½Î·": 1426,
      "Î±ÏĢ": 1427,
      "Î¼ÎµÎ¸Î±": 1428,
      "ĠÎ¿á½ĲÏģÎ±Î½": 1429,
      "Î¿Î¼Î±": 1430,
      "Î¬Î²": 1431,
      "ÎµÎ¯Î±Î½": 1432,
      "ĠÏĨÎ±Î½": 1433,
      "ÏįÏģÎ¹Î¿ÏĤ": 1434,
      "Î½Î¿Î½": 1435,
      "ÎºÎ¿": 1436,
      "Ġá¼ģÎ¼Î±Ïģ": 1437,
      "Î»Ïį": 1438,
      "ĠÎ´Î¹ÎºÎ±Î¹": 1439,
      "ĠÎ´Î¯": 1440,
      "ĠÏĦÎ¿ÏįÏĦÎ¿Î¹ÏĤ": 1441,
      "á¾½,": 1442,
      "ÏĦá½¸Î½": 1443,
      "Ġá¼ĲÎ´": 1444,
      "ÏħÎ»": 1445,
      "Ġá¼ĦÎ»Î»Î¿": 1446,
      "Ġá¼ĲÏĥ": 1447,
      "Ġá¼ħÎ¼Î±": 1448,
      "ĠâĢľ": 1449,
      "ĠÏĦÎŃÎ»": 1450,
      "á¾¶Î½": 1451,
      "Ġe": 1452,
      "ÏĮÎ½ÏīÎ½": 1453,
      "Ġ12": 1454,
      "Î¼ÎŃÎ½Î¿Ïħ": 1455,
      "ĠÏĦÎ¹Î½Î±": 1456,
      "ĠÎºÎ»Î·": 1457,
      "Î¿ÏįÏĥÎ·ÏĤ": 1458,
      "ĠÏĢÏĮÎ»Î¹Î½": 1459,
      "ÏīÎ¼": 1460,
      "ÏĥÎ¸ÎµÎ½": 1461,
      "Î®ÏĤ": 1462,
      "ÏĦÎ±á¿¦": 1463,
      "ĠÎµá¼¶ÏĢÎµÎ½": 1464,
      "ÏĥÎ¸ÎŃÎ½": 1465,
      "ĠÎ¸ÎŃ": 1466,
      "ÏĦÎµá¿ĸ": 1467,
      "ĠÎºÏį": 1468,
      "Ġá½ĥÎ½": 1469,
      "ĠÏĢÎ¿Î»ÎµÎ¼": 1470,
      "ÏĩÎ¿ÏĤ": 1471,
      "Î®ÏĥÎµÏīÏĤ": 1472,
      "Ġá½ħÏĦÎµ": 1473,
      "ĠÏĦÎ¿á¿¦ÏĦÎ¿Î½": 1474,
      "Ġá¼ĢÏĢÎ¿Îº": 1475,
      "ĠÎ±á½ķÏĦÎ·": 1476,
      "ĠÎ»ÎŃ": 1477,
      "Î´Î·ÏĤ": 1478,
      "Ġá¼ĢÏĢÎŃ": 1479,
      "ĠÏĢÎ¿Î»Î»á½°": 1480,
      "ĠÎ³Î»": 1481,
      "Î¸Î¹": 1482,
      "Ġá½į": 1483,
      "Î¬ÏĢ": 1484,
      "Î¯Î¿Î½": 1485,
      "Î¿á¿¦ÏĥÎ¹": 1486,
      "ĠÏĦÏģ": 1487,
      "ĠÏĨÏīÎ½": 1488,
      "Î¡Îĳ": 1489,
      "ÎĻÎļ": 1490,
      "Î¬Î»Î±": 1491,
      "ĠÎŁá¼±": 1492,
      "Ġ\"": 1493,
      "Î¼ÏīÎ½": 1494,
      "ÏĦÎµÏģÎ±": 1495,
      "ÏģÎµÏĦ": 1496,
      "ÏĮÎ¼Îµ": 1497,
      "Ġá¾§": 1498,
      "ĠÏĢÎ¿Î»á½º": 1499,
      "ĠÎŁá½": 1500,
      "Ġá¼ĲÏĢÎµÎ¹Î´": 1501,
      "ÏħÏģÎ¯Î¿Ïħ": 1502,
      "ÎµÎ¯Î¿Ïħ": 1503,
      "Ġá¼ĢÏģÎ¹": 1504,
      "Ġá¼ĦÏģÎ±": 1505,
      "Ġ25": 1506,
      "Ġá¼ĶÎ»Îµ": 1507,
      "Ġá½ĳÏĢÎ¬ÏģÏĩ": 1508,
      "Î¯Ïĥ": 1509,
      "ÏĮÎ¼ÎµÎ½Î±": 1510,
      "Î±á½¶": 1511,
      "ĠÎºÏĮÏĥÎ¼": 1512,
      "ĠâĢĶ": 1513,
      "ÏĥÎ¯Î±": 1514,
      "Ġ13": 1515,
      "ÏĥÎµÏīÎ½": 1516,
      "Ġa": 1517,
      "ĠÎ²Î¿": 1518,
      "ĠÏĦÎ±ÏįÏĦÎ·ÏĤ": 1519,
      "Ġá½ĥÏĤ": 1520,
      "ÏĦÎµÎ¹Î½": 1521,
      "ĠÎ³á¿ĨÏĤ": 1522,
      "Î±Ïħ": 1523,
      "ĠÎ²Î¿ÏħÎ»": 1524,
      "Î±Î³Î³": 1525,
      "Ġá¼ĻÎ»Î»": 1526,
      "Ġ19": 1527,
      "ĠÎ©": 1528,
      "ĠV": 1529,
      "ÏĦÎ±á¿¦Î¸Î±": 1530,
      "ĠÏĨÎ¸": 1531,
      "á¼¶": 1532,
      "Î»Î±Î¹": 1533,
      "Î±ÏģÏĦ": 1534,
      "ÏĮÏĦÎ·ÏĦÎ¿ÏĤ": 1535,
      "Ġá¿İ": 1536,
      "ÎºÎ¿Î½ÏĦÎ±": 1537,
      "Î¼ÎŃÎ½Î¿ÏĤ": 1538,
      "Î¿ÏįÎ»": 1539,
      "ĠÎºÏħ": 1540,
      "ĠÎ´á¿Ĩ": 1541,
      "ÏĦá½°": 1542,
      "Î¼Î¿ÏĤ": 1543,
      "ĠÏĢÎ¬Î½ÏĦÎµÏĤ": 1544,
      "Ġá½ĳÎ¼á¾¶ÏĤ": 1545,
      "Î¼Î¿Î¹": 1546,
      "ÎµÏĦÎµ": 1547,
      "Î¼ÎŃÎ½Î±": 1548,
      "Ġá¼ķÎºÎ±": 1549,
      "ÏĦÏĦÎ¿Î½": 1550,
      "ĠÏĢÏģÎ¿ÏĥÎµ": 1551,
      "ÏĥÎµÎ¹ÏĤ": 1552,
      "Î»Î¿ÏĤ": 1553,
      "Î®ÏĥÎµÎ¹ÏĤ": 1554,
      "ĠÎµá½ĲÎ¸": 1555,
      "á¿¦Î¼Î±": 1556,
      "ÏĮÎ½ÏĦÎ±": 1557,
      "ĠÎ¿á¼·ÏĤ": 1558,
      "Î¯Î½ÎµÎ¹": 1559,
      "ĠÏĨÏģÎ¿Î½": 1560,
      "ÎµÏĢ": 1561,
      "ĠÏĥá½ºÎ½": 1562,
      "ÎµÎ¯ÏīÎ½": 1563,
      "ÏģÎ¯Î¿Ïħ": 1564,
      "ÏĥÎ¹Î±": 1565,
      "Î¾ÎµÎ¹": 1566,
      "ÏĩÎµÎ¹": 1567,
      "Ġp": 1568,
      "ĠÎ®": 1569,
      "ĠÏĢÏģÎ¿ÏĨ": 1570,
      "ÏĦÎ¹Î½": 1571,
      "Î´ÏħÎ½": 1572,
      "ĠÎ»ÏĮÎ³Î¿ÏĤ": 1573,
      "ĠÎĺÎµá½¸ÏĤ": 1574,
      "Î¬Î½ÏĦÏīÎ½": 1575,
      "ÏģÎ¯Î¶": 1576,
      "ÎĳÎ¸Î·Î½": 1577,
      "Î±Î½ÏĦÎ¯": 1578,
      "Î¿á¿¦ÏĥÎ¹Î½": 1579,
      ".âĢ": 1580,
      "Ġá¼ĲÎºÎºÎ»Î·": 1581,
      "Ġá¼ĦÏģÏĩ": 1582,
      "Î¼ÎŃÎ½Î¿ÏħÏĤ": 1583,
      "ĠÏĥÏĦÏģÎ±ÏĦÎ¹": 1584,
      "á¿¶ÏĥÎ¹Î½": 1585,
      "Ġá¼ĦÎ½Î¸ÏģÏīÏĢ": 1586,
      "ĠÎ±á½ĲÏĦá¿ĩ": 1587,
      "ÏīÏĥ": 1588,
      "ÎĴ": 1589,
      "Î¾ÎµÏīÏĤ": 1590,
      "ĠÏĥÎ·Î¼": 1591,
      "ÎŃÏīÏĤ": 1592,
      "Ġá¼ĲÏĢÎ¹Îº": 1593,
      "Î®Ïģ": 1594,
      "Î¿ÏįÎ½": 1595,
      "á¼´": 1596,
      "Ġá¼ĢÎ½ÏĦá½¶": 1597,
      "Î§": 1598,
      "Ġá¼ĢÎ¾Î¹": 1599,
      "Ïģá½¸ÏĤ": 1600,
      "ĠÎºÏģÎ¯": 1601,
      "Î¿ÏħÏģÎ³": 1602,
      "Î®Î¸Î·": 1603,
      "ÎºÏīÎ½": 1604,
      "ĠÎ¿á½ĲÎ´Îµ": 1605,
      "ÏĮÏĢ": 1606,
      "ĠÎ¼Î½": 1607,
      "Î´Î¹Î¿Î½": 1608,
      "ĠÏĢÎ»ÎµÎ¯": 1609,
      "ÏīÏĥÎ¹": 1610,
      "ÏĮÏĦÎ·ÏĦÎ±": 1611,
      "Î¦": 1612,
      "ĠÎ¿á¼·Î¿Î½": 1613,
      "Î¿á¿¦ÏĥÎ±": 1614,
      "Ġi": 1615,
      "Î¶Î¿Î½": 1616,
      "Ġ14": 1617,
      "ĠÏĦÎ¿Î¹Î±Ïį": 1618,
      "Ġá¼ĳÎºÎ¬ÏĥÏĦ": 1619,
      "ĠÎ½Î¿": 1620,
      "Ġá¼¦ÏĥÎ±Î½": 1621,
      "ÏĦÎµÏģÎ¿ÏĤ": 1622,
      "Ġá¼ĢÎ»Î»Î®Î»": 1623,
      "Ġá¼ĳÎ½": 1624,
      "ĠÎŃ": 1625,
      "ĠÎ¼á½´Î½": 1626,
      "Ġc": 1627,
      "Ġá¼ĲÏģ": 1628,
      "Î»Î±Îº": 1629,
      "Ġá¼¸Î·Ïĥ": 1630,
      "ÏİÏĤ": 1631,
      "Î·ÏĥÎ±Î½": 1632,
      "ĠÎ»Î¯": 1633,
      "ĠÏĢÏģÎ±Î³": 1634,
      "Ġá¼ĳÏĦÎŃÏģ": 1635,
      "Ġá¼ĶÏĩÎµÎ¹Î½": 1636,
      "ĠÎºÎ±ÏĦÎ¬": 1637,
      "ÏĦÎ±Î¯": 1638,
      "Î¸á¿ĩ": 1639,
      "Î¯Î½ÏħÎ½": 1640,
      "ĠÎ´Î¹Îµ": 1641,
      "Î¿Î¼ÎŃÎ½Î¿Ïħ": 1642,
      "ÏĢÎ¿ÏĦÎµ": 1643,
      "Ġá½ĢÏģÎ¸": 1644,
      "Î±ÏģÎº": 1645,
      "ĠÎµá¼¶Î½Îµ": 1646,
      "ĠÎµá¼°Îº": 1647,
      "ĠÎ²Î±Ïģ": 1648,
      "Î¹Îºá½¸Î½": 1649,
      "ĠÏĩÎµÎ¹": 1650,
      "Ġá¼ĢÎ½Î¸ÏģÏİÏĢÏīÎ½": 1651,
      "Î¹Îºá¿¶Î½": 1652,
      "ĠÎ´ÏįÎ½Î±ÏĦÎ±Î¹": 1653,
      "II": 1654,
      "Î¾ÎµÎ¹ÏĤ": 1655,
      "Î±Î½Î±": 1656,
      "ĠÏĦÎ¿ÏįÏĦá¿³": 1657,
      "Î´ÏģÎ±": 1658,
      "ÎŃÏĢ": 1659,
      "ÏĦá¿Ĩ": 1660,
      "ĠÏĢÏģÎ¬Î³": 1661,
      "ÏĦÏģÎ¹": 1662,
      "ĠÎºá¼Ģ": 1663,
      "ĠÏĦÎ¯ÏĤ": 1664,
      "ÏĮÎ½ÏĦÎ¿ÏĤ": 1665,
      "ÏĦÏħ": 1666,
      "Î¿ÏįÎ¼ÎµÎ½Î¿ÏĤ": 1667,
      "Ġá¼ĲÏģÎ³": 1668,
      "á¿¶Î¼Î±": 1669,
      "ĠÏĩÎµá¿ĸ": 1670,
      "ĠÏĢÎ»ÎŃ": 1671,
      "ÏĦÎ±Î³": 1672,
      "Ġá¼ĶÏĩÏīÎ½": 1673,
      "ĠÏĦÎ¿Î¯Î½ÏħÎ½": 1674,
      "Ġá¼ĶÏĢ": 1675,
      "Ġá½ģÏģ": 1676,
      "ĠÎ´ÏįÎ½Î±Î¼": 1677,
      "Î²Î¬Î»Î»": 1678,
      "ĠÎºÏģ": 1679,
      "Ġá¼ĢÏĢÎµ": 1680,
      "Ġá½ģÏĢÎ¿": 1681,
      "ĠÎ¤Î¿á¿¦": 1682,
      "ĠÏĦÎ¿Ïĥ": 1683,
      "ĠÎ»ÎŃÎ³ÏīÎ½": 1684,
      "Î¬ÎºÎ¹ÏĤ": 1685,
      "Î¬Î½Î±": 1686,
      "ĠÎµá½Ķ": 1687,
      "Ġá¼ĲÎ³ÎŃÎ½ÎµÏĦÎ¿": 1688,
      "Ġá½ħÏĥÎ±": 1689,
      "ĠÎºÎ»": 1690,
      "ÎµÎ¯á¾³": 1691,
      "Ġá¼ħÏĢÎ±Î½": 1692,
      "Ġá¼±ÏĥÏĦ": 1693,
      "ĠÎ»ÎŃÎ³ÎµÎ¹Î½": 1694,
      "Î±Î»Î¼": 1695,
      "ĠÏĢÏģÎ¿ÏĤ": 1696,
      "Î·Îº": 1697,
      "ĠÏĢÏģÏī": 1698,
      "ÎĳÎĿ": 1699,
      "ĠÎ¿á¼µ": 1700,
      "Ġá½ħÏĢÎµÏģ": 1701,
      "Ġá½ħÏĥ": 1702,
      "ÏĥÏĦÎ¹ÏĤ": 1703,
      "ĠÎ¸ÏħÎ¼": 1704,
      "ĠÎ³ÏħÎ½Î±Î¹": 1705,
      "ÎµÏģÎ¿Î½": 1706,
      "Ġá¼ĲÎ³Î³": 1707,
      "ĠÏĥÎ±": 1708,
      "ĠÏĩÏģÏħÏĥ": 1709,
      "Ġá¼Ŀ": 1710,
      "ÏĦÏģÎ¿": 1711,
      "ĠÎ²Î±ÏĥÎ¹Î»Îµ": 1712,
      "ĠÎ¥á¼±": 1713,
      "ĠÎ¼Î¬Ïĩ": 1714,
      "ÎŃÎ±": 1715,
      "ĠÎ²Î¿Ïħ": 1716,
      "ĠÏĢÎ¿Î½": 1717,
      "Ġá¼¡Î³": 1718,
      "Ġá¼ĲÏĢÎ¿Î¯": 1719,
      "Î±Î¹Î¿Î½": 1720,
      "Î½ÎµÏħ": 1721,
      "Ġ16": 1722,
      "Ġá¼§ÏĤ": 1723,
      "ÏĦÎ±Î¼": 1724,
      "Î·ÏĥÎµ": 1725,
      "ĠÏĢÎ¿Î»ÎŃÎ¼": 1726,
      "ÏĥÏĢ": 1727,
      "Î¿Î¼ÎŃÎ½Î·": 1728,
      "ĠÎµá¼°ÏĢÎµá¿ĸÎ½": 1729,
      "Î¾Î±Î¹": 1730,
      "Ġá¼¹": 1731,
      "Ġá½ħÏĥÎ¿Î½": 1732,
      "ÏĮÏĦÎ±": 1733,
      "ĠÎŀ": 1734,
      "ÏģÎ®": 1735,
      "Î¯ÏĥÏĦ": 1736,
      "ÏİÏĦÎ±": 1737,
      "Ġs": 1738,
      "ĠÎ»ÎµÎ³": 1739,
      "Ġá¼ĵ": 1740,
      "Î·ÏĨ": 1741,
      "Ġá¼ĢÎ½Îµ": 1742,
      "Î±Ïĩ": 1743,
      "ĠÏĢÏģÎ¬": 1744,
      "ĠA": 1745,
      "Î¹ÎºÎ¿á¿¦": 1746,
      "ĠÏĢÎ±ÏģÎµ": 1747,
      "Ġá¼ĶÎ¸": 1748,
      "ĠÎ¼Ïħ": 1749,
      "Ġá¼ĲÎ½ÏĦÎ±á¿¦Î¸Î±": 1750,
      "ÏĥÏĦÎ¿ÏĤ": 1751,
      "ĠÎµá½ĸ": 1752,
      "ĠÏĢÎ¿Ïħ": 1753,
      "ĠÏĢÏģÏĮÏĦÎµÏģÎ¿Î½": 1754,
      "Î¿Î¼ÎŃÎ½Î¿ÏħÏĤ": 1755,
      "ÏĪÎ±Î½": 1756,
      "ÏĦÏĮÏĤ": 1757,
      "ÏĥÏĦÎµÏģÎ¿Î½": 1758,
      "Î´Î¹Î±": 1759,
      "ÎµÏĥÎ²": 1760,
      "ĠÏĢÎ±ÏģÎ¬": 1761,
      "ĠÏĢÎµÎ½": 1762,
      "ÎºÎ¿ÏĤ": 1763,
      "Ġá¼ĲÏĢÎµÎ¹Î´á½´": 1764,
      "Ġá¼ĶÏĢÎµÎ¹": 1765,
      "ÏĮÏĨ": 1766,
      "ÏĥÎµÎ²": 1767,
      "ÏĦÎ¯Î±ÏĤ": 1768,
      "ĠÎ¸Î±Î½": 1769,
      "Ġá¼ĶÏĥÏĦÎ¹": 1770,
      "ÏģÎ±ÏĢ": 1771,
      "Ġá¼ĲÏĥÏĦá½¶Î½": 1772,
      "ĠS": 1773,
      "Î¿á¿¦Î½ÏĦÎ±Î¹": 1774,
      "ĠÎ´ÏħÎ½Î¬": 1775,
      "ÏĦÎ·Î³": 1776,
      "ĠÏĦÎ¿Î¹Î¿Ïį": 1777,
      "Î½Î·ÏĤ": 1778,
      "ÏĥÎ¹Î¿Î½": 1779,
      "ĠÏĥÎ¹": 1780,
      "Ġá½Ļ": 1781,
      "ÎĳÏģ": 1782,
      "ĠÏĢÎµÏģÎ¯": 1783,
      "ÏĥÏĦÎ±Î½": 1784,
      "Ġá¼ĲÎ¾Îµ": 1785,
      "ĠÎ§ÏģÎ¹ÏĥÏĦÎ¿á¿¦": 1786,
      "ĠÏĥÏĢ": 1787,
      "ĠÏĢÏĮÎ»ÎµÏīÏĤ": 1788,
      "ĠÎłÎ½Îµ": 1789,
      "Ġá¼´Ïĥ": 1790,
      "ĠÎ²Î±ÏĥÎ¹Î»": 1791,
      "ÏĩÎ¹": 1792,
      "ÏĦÎ¹Îºá¿ĨÏĤ": 1793,
      "ÎĳÎ³": 1794,
      "ÏģÎ¿Ïĥ": 1795,
      "ÏĮÎ¼ÎµÎ¸Î±": 1796,
      "Ġá½¤": 1797,
      "ÏĥÎ¼Î±": 1798,
      "ÏĦÎ¹Î¿Î½": 1799,
      "Ġá¼¸Î¿Ïħ": 1800,
      "Ġ:": 1801,
      "Ġá¼ĢÏĢÎ¿ÏĥÏĦ": 1802,
      "Îµá¿ĸÎ±": 1803,
      "ÏĦÎ¹Îºá½¸Î½": 1804,
      "ĠÎµá¼´Î·": 1805,
      "Î¾Î¹ÏĤ": 1806,
      "ÏįÏģ": 1807,
      "ĠÎ³ÎµÎ½ÎŃÏĥÎ¸Î±Î¹": 1808,
      "ĠÏĢÏģÎµÏĥÎ²": 1809,
      "Ġá¼¡Î¼Îµá¿ĸÏĤ": 1810,
      "ĠÎ»Î¹": 1811,
      "ĠÎ´Ïİ": 1812,
      "ÎµÎ¯Î±": 1813,
      "Ġá¼ĲÏĥÏĦá½¶": 1814,
      "ÏĦÎ¹Îºá¿¶Î½": 1815,
      "Ġá½ĢÎ»Î¯Î³": 1816,
      "Ġ17": 1817,
      "Ġá¼ĳÎºÎ±": 1818,
      "ÏĦÎŃÏģÎ±ÏĤ": 1819,
      "ĠÎºÎµÏĨÎ±Î»": 1820,
      "Î¿ÏĢÎ¿Î¹": 1821,
      "ÏĮÎ½Î±": 1822,
      "ÎµÎ¹Î»": 1823,
      "Ġ30": 1824,
      "ĠD": 1825,
      "ÎºÎ±ÏĦÎ±": 1826,
      "ĠÎ¼Î®ÏĦÎµ": 1827,
      "ĠÏĢÎ±á¿ĸ": 1828,
      "á¿¶ÏĥÎ¹": 1829,
      "ÎºÎ»": 1830,
      "ĠÎ¼ÎµÎ¸": 1831,
      "',": 1832,
      "Ġá¼ĢÏģÎµÏĦ": 1833,
      "ĠÎ¼ÎŃÏģÎ¿ÏĤ": 1834,
      "á¿ĸÎ¿Î½": 1835,
      "Ġá½ĢÏĨ": 1836,
      "Î¼ÎŃÎ½Î·Î½": 1837,
      "Î¿Î¹Î¿": 1838,
      "Î¿Î¹ÏĦÎ¿": 1839,
      "Ġá¼ķÎ½Îµ": 1840,
      "Î»Î¹ÏĤ": 1841,
      "ĠÎ´Î¹Î±ÏĨ": 1842,
      "Î¿Î¼ÎŃÎ½Î·ÏĤ": 1843,
      "ĠÎ±á½ĲÏĦÏĮÎ½": 1844,
      "ĠÎ´Î®": 1845,
      "ĠÎ´ÎµÎ¹Î½": 1846,
      "ĠÎ¼Î±ÏģÏĦ": 1847,
      "ĠÎ³Î¯Î½ÎµÏĦÎ±Î¹": 1848,
      "ĠÏĥÏĢÎ¿Ïħ": 1849,
      "ĠÏĢÎµÎ¹": 1850,
      "ÎºÎ±ÏĤ": 1851,
      "Ġá¼ĶÏĥÏĦÎ±Î¹": 1852,
      "ĠÏĩÏīÏģ": 1853,
      "ĠÎºÎ±ÏĦÎŃ": 1854,
      "Ġá¼ĦÎ»Î»Î±": 1855,
      "ĠÎ³Î¹Î½": 1856,
      "ÏĩÎ±Î½": 1857,
      "Ġá¼ĳÎ±ÏħÏĦÎ¿á¿¦": 1858,
      "Ġá¼ģÏĢÎ»": 1859,
      "Î¸Îµá¿ĸÎ½": 1860,
      "ĠÏĢá¾¶ÏĥÎ±Î½": 1861,
      "ĠÎ³Î½Ïī": 1862,
      "Ġá¼ĢÎµá½¶": 1863,
      "ÏĢÎ½": 1864,
      "ÏģÎµÏħ": 1865,
      "ÏĥÎ±ÏĦÎ¿": 1866,
      "Î¿á¿ĸÏĥÎ¹": 1867,
      "ĠÎ½ÏĮ": 1868,
      "Ġá¼ĶÏĥÏĦÎ¹Î½": 1869,
      "ĠÏĢÎ¬Î½ÏĦÎ±ÏĤ": 1870,
      "ĠÎ¬": 1871,
      "ĠÎłÎµÏģá½¶": 1872,
      "ĠÎ²Î»ÎŃ": 1873,
      "ÎµÏģÎ¼": 1874,
      "Î¿ÏĦ": 1875,
      "Ġá½ĳÏĢÏĮ": 1876,
      "ĠÎµá¼°Î´": 1877,
      "ÏĦÎ·Ïģ": 1878,
      "Î±á¿ĸÏĤ": 1879,
      "Î¿Î¹ÏĥÎ¹": 1880,
      "ĠÎºÎµÎº": 1881,
      "ÎŃÎ»Î»": 1882,
      "Ġá½ĦÎ½Î¿Î¼Î±": 1883,
      "ÏĪÎ±": 1884,
      "Ġá¼ķÏīÏĤ": 1885,
      "ĠÎ¿á½ĹÏĦÎ¿Î¹": 1886,
      "Ġá½Ī": 1887,
      "Ġá¼°Î´Î¹": 1888,
      "ÎŃÏĤ": 1889,
      "ĠÎ´Î·Î»": 1890,
      "ĠÏĥÏįÎ½": 1891,
      "ĠÏĢá¾¶Î½": 1892,
      "ĠÎ³ÏħÎ½Î±á¿ĸ": 1893,
      "ÏĪÎ¹Î½": 1894,
      "ĠÏĦÎ¯Î½": 1895,
      "ÏĩÎ½": 1896,
      "ĠÎºÎ¹": 1897,
      "ĠÏĢÎ¿ÏĦ": 1898,
      "ÎºÎ·ÏĤ": 1899,
      "Ïĭ": 1900,
      "ĠÏĦÎŃÎº": 1901,
      "ÏİÏĢÎ¿Ïħ": 1902,
      "ÎķÎ¡": 1903,
      "ĠÎºÎ±Î½": 1904,
      "ĠÎ±á½ĲÏĦÎ¿á½¶": 1905,
      "ĠÎ³á¿ĨÎ½": 1906,
      "Î»ÎµÏħÎ¸": 1907,
      "Î¾á½º": 1908,
      "ÎĳÎ¤": 1909,
      "ĠÎ±á½ĲÏĦá½°": 1910,
      "ĠÏĦÎµÏĦ": 1911,
      "Î³Î¼Î±": 1912,
      "Î±Î¹Ïģ": 1913,
      "ĠÏģ": 1914,
      "ÎµÏĥÏĦ": 1915,
      "ÏĥÏĥÎ±": 1916,
      "ÎŃÏĢÎµÎ¹": 1917,
      "ÏĦÎ¹Î¼": 1918,
      "ĠÎ¼Î·Î´á½²": 1919,
      "Ġá¼ĢÎ½Î±Î³ÎºÎ±": 1920,
      "ÏĨÏģÎ¿Î½": 1921,
      "Ġá½ģÏĢÎ¿á¿ĸ": 1922,
      "á¿ĨÎ¼Î±": 1923,
      "Ġá½ĢÏĨÎ¸": 1924,
      "Ġá¼ĳÎ¾": 1925,
      "ĠÎłÎ±Ïģ": 1926,
      "ĠÏĦÏģÏĮÏĢÎ¿Î½": 1927,
      "Î±Î¹Î¼Î¿Î½": 1928,
      "Î¿ÏħÏĥÎ±Î½": 1929,
      "Ġá¼ĢÎ¾": 1930,
      "Ġá¼¡Î¼ÎŃÏģÎ±ÏĤ": 1931,
      "á¼ĤÎ½": 1932,
      "ÎŃÏĦÎ¹": 1933,
      "Î¯ÏīÏĤ": 1934,
      "ĠÎµá¼´ÏĦÎµ": 1935,
      "Î®ÏĥÎ±Î½": 1936,
      "Ġá¼ĲÏĢÎŃ": 1937,
      "ĠÎµá¼°Ïģ": 1938,
      "Î¹Î¿Î¹": 1939,
      "ĠÏĥá½²": 1940,
      "ĠÎ³ÏħÎ½Î±Î¹Îº": 1941,
      "ĠÎĶÎ·Î¼": 1942,
      "ĠÎĽÎ±Îº": 1943,
      "Î¸Îµá¿ĸ": 1944,
      "Î½ÎµÏĤ": 1945,
      "ÏĢÏī": 1946,
      "ÏĥÏĦÎµÏį": 1947,
      "ĠÏĩÏīÏģÎ¯": 1948,
      "ĠÎĳÎ½": 1949,
      "Ġá½ĳÏĨ": 1950,
      "ĠÎ²Î¿Ïį": 1951,
      "ĠÎ¤á½°": 1952,
      "ĠÏĢÏħÏģ": 1953,
      "ĠÎĴÎ±": 1954,
      "ĠÏĩÏģÏĮÎ½Î¿Î½": 1955,
      "ĠÏĢÎ»ÎŃÎ¿Î½": 1956,
      "ÏĮÎ¼Î±": 1957,
      "ĠÏĢÎ¿ÏĦÎ±Î¼": 1958,
      "ĠÎĳá¼°Î³": 1959,
      "ÏĮÎ»Î¿Ïħ": 1960,
      "ĠÎ²ÎµÎ²": 1961,
      "ÏĦÎµÏħ": 1962,
      "Î¸ÎŃÎ½ÏĦÎ±": 1963,
      "á½Ķ": 1964,
      "Ïĥá¿¶Î½": 1965,
      "ÏĦÏħÏĩ": 1966,
      "ÏģÎµÎ¹": 1967,
      "Ġá¼ķÎ½Î±": 1968,
      "Î¿ÏĥÏįÎ½": 1969,
      "ĠÎŁá½ĲÎº": 1970,
      "ÏģÎ¯Î±ÏĤ": 1971,
      "ÏįÎ³": 1972,
      "Î¼ÏĮÎ½": 1973,
      "Î¹Îºá½´Î½": 1974,
      "ĠÎ´Î¹Î´Î±": 1975,
      "ÏħÏĥÎµÎ½": 1976,
      "Ġv": 1977,
      "ÏĨÏħ": 1978,
      "ÏĢÎ±Ïģ": 1979,
      "ĠÎ»Îµ": 1980,
      "Ġá¼¦ÏĦÎ¿": 1981,
      "ĠÏĢÏģá¾¶": 1982,
      "ĠÎ´ÎµÎ¯": 1983,
      "Î²Î¿Ïħ": 1984,
      "ĠÏĩÎ¬ÏģÎ¹Î½": 1985,
      "Ġá¼ĢÎ»": 1986,
      "ĠÎķá¼¶": 1987,
      "ÏĦÏĮÎ½": 1988,
      "ĠÎ³Î¯Î½": 1989,
      "ÏĥÎ±ÏĥÎ¸Î±Î¹": 1990,
      "ĠÎ¿á½ĲÏĩá½¶": 1991,
      "Î´á½´": 1992,
      "Ġá¼ĢÎ´Î¹Îº": 1993,
      "Î²Î¬": 1994,
      "ÏĩÏīÏģ": 1995,
      "Ġá¼ĶÎ¾Ïī": 1996,
      "ÏĬÎº": 1997,
      "Î¸á¿ĨÎ½Î±Î¹": 1998,
      "á¿ĥÏĤ": 1999,
      "ĠÎ²Î±ÏĥÎ¹Î»Îµá½ºÏĤ": 2000,
      "ĠÏĥÏĦÎµ": 2001,
      "Ġá½ĳÏĪ": 2002,
      "ĠÏĥÎºÎ¿ÏĢ": 2003,
      "Î¿Î¹Î±Î½": 2004,
      "ÏĨÎµÏģ": 2005,
      "Ġá¼ĦÎº": 2006,
      "ÏĦÎ¿Î»": 2007,
      "Î´Î¿Îº": 2008,
      "ĠÎ»Ïį": 2009,
      "ĠÎ´Î¿": 2010,
      "Ġá¼¦Î»": 2011,
      "Î¾Î±ÏĤ": 2012,
      "ĠÎ»ÏĮÎ³á¿³": 2013,
      "ĠÎļÏįÏģÎ¹Î¿ÏĤ": 2014,
      "Î¬ÏĥÎº": 2015,
      "Î®Î¸": 2016,
      "Ġá½ĢÏģÎ³": 2017,
      "ĠÎºÏģÎ¬": 2018,
      "ÎµÎ¹Î±": 2019,
      "ĠÎ¼ÎŃÎ³Î±": 2020,
      "Î¼ÎŃÎ½Î¿Î¹": 2021,
      "ÎºÎ¹": 2022,
      "ĠÎ²Î¹Î²": 2023,
      "Ïĥá½¶": 2024,
      "Î¿á¿¦Î½ÏĦÎ±": 2025,
      "ĠÎ¸Î·": 2026,
      "Ġá¼ĦÎ½Ïī": 2027,
      "Ġá¼ĢÏģÎ³": 2028,
      "ÏĦÎ¿Ïį": 2029,
      "ĠÏĥÏĦÏģÎ±ÏĦÎ·Î³": 2030,
      "ÏģÎ¹Î²": 2031,
      "ĵÏĤ": 2032,
      "Ġá¼ĵÎ½": 2033,
      "ÏģÎ¿á¿¦": 2034,
      "ĠÏĥá¿¶Î¼Î±": 2035,
      "it": 2036,
      "Ġá½ħÏĥÏĦÎ¹ÏĤ": 2037,
      "Î¶Îµ": 2038,
      "Ġá¾Ĺ": 2039,
      "ĠÎ¸ÎµÎ¿á¿¦": 2040,
      "ĠÏĩÎ±Ïģ": 2041,
      "ÏĢÎ»Î·": 2042,
      "ĠÎ½ÎµÎº": 2043,
      "·ÏĤ": 2044,
      "ĠÎ³ÎŃÎ³": 2045,
      "ĠÏĨÎ¿Î²": 2046,
      "ĠÎ¼Î·Î´á½²Î½": 2047,
      "Ġá¼ĢÎ½ÎŃ": 2048,
      "Ġá¼ĲÏĢÎ±Î½": 2049,
      "Î½Î¯": 2050,
      "ÎŁÎĽ": 2051,
      "á¿¶Î¼ÎµÎ½": 2052,
      "Î¿ÏįÎ½ÏĦÏīÎ½": 2053,
      "ÏīÏĦÎŃÏģ": 2054,
      "ĠÎ»Î±Î¼Î²Î¬Î½": 2055,
      "Ġá½ģÎ¼Î¿Î¯": 2056,
      "ĠÎ¶Î·": 2057,
      "Îµá½ºÏĤ": 2058,
      "Îµá¿¦": 2059,
      "ĠÏĦÎ±á¿¦": 2060,
      "ĠÎłÎ¿Î»": 2061,
      "Î²Î±Î»": 2062,
      "Ġá¼ĦÎ½Î¸ÏģÏīÏĢÎ¿ÏĤ": 2063,
      "Î¼ÎŃÎ½Î·ÏĤ": 2064,
      "ĠÏĢÎŃÎ½": 2065,
      "ÏĦÎŃÎ¿Î½": 2066,
      "ÏİÏĥÎµÏīÏĤ": 2067,
      "ĠÎ²Î±ÏĥÎ¹Î»ÎŃÏīÏĤ": 2068,
      "ĠÏĢÎ¿Î»Î»á¿¶Î½": 2069,
      "Î·ÏĥÎ¹": 2070,
      "ĠÏĥÏħÎ»Î»": 2071,
      "ĠÏĨÏįÏĥÎ¹Î½": 2072,
      "ĠÏĢÎ¿ÏĦÎµ": 2073,
      "Î±Î½ÏĦ": 2074,
      "Ġá¼ĦÎ½ÎµÏħ": 2075,
      "ĠÎ²Î¬": 2076,
      "Ġá½ĢÏĨÎ¸Î±Î»Î¼": 2077,
      "us": 2078,
      "Î¯Î½ÏīÎ½": 2079,
      "ĠÎ£Ïī": 2080,
      "ÎķÎĿ": 2081,
      "Î´ÏįÎ½Î±": 2082,
      "ĠÎ¼ÎµÎ½": 2083,
      "ĠÏĦÎµÎ»Îµ": 2084,
      "ĠP": 2085,
      "en": 2086,
      "ĠÎºÎ±Î»á¿¶ÏĤ": 2087,
      "ĠÏĢÎŃÎ¼": 2088,
      "Ġá½ĳÎ³": 2089,
      "Î»Ïħ": 2090,
      "ÏģÎ¬Î¼": 2091,
      "Ġá¼ĲÎ»Î±": 2092,
      "Ġá¼¸Ïī": 2093,
      "ĠÎ¼Î±Î¸Î·": 2094,
      "ĠÎ¿á½ĵÏĤ": 2095,
      "ÏģÎ¹ÏĥÎ¼": 2096,
      "ĠÎ³ÏģÎ±Î¼": 2097,
      "Ġá¼ĲÎ»Î¬": 2098,
      "ĠÎ»Î¿Î¹ÏĢá½¸Î½": 2099,
      "ÏĦÎµÏģÎ¿Î¹": 2100,
      "ĠÎ³Î½": 2101,
      "Î¸ÎŃÎ½ÏĦÎµÏĤ": 2102,
      "ÏĦÎ±Î¹ÏĤ": 2103,
      "ĠÎ´ÏħÏĥ": 2104,
      "Î·Î´": 2105,
      "ÎŁÎ¡": 2106,
      "ĠÏĥÏħÎ½Îµ": 2107,
      "Î¼ÎµÎ»": 2108,
      "ÏĢÎ¿Î¯": 2109,
      "Ġá¼ĲÎºÎµÎ¯Î½Î¿Ïħ": 2110,
      "Ġá½ģÎ¼Î¿Î»Î¿Î³": 2111,
      "ĠÎºÎ¿Î¹Î½ÏīÎ½": 2112,
      "ĠÎµá¼¶ÏĢÎµ": 2113,
      "Ġá¼ĢÎ½Î±Îº": 2114,
      "Ġá¼ĲÏĢÎ¹ÏĥÎº": 2115,
      "ÎĳÎĽ": 2116,
      "Î¿ÏģÎµÏį": 2117,
      "ĠÏĥÏĩÎµ": 2118,
      "ÏĦÎ¯Î¶": 2119,
      "Îµá¿ĸÏĦÎ¿": 2120,
      "Î¸ÎµÎ¯": 2121,
      "Î®ÏĥÏī": 2122,
      "ĠÎĶÎ¹á½°": 2123,
      "Ġá¼ģÏĢ": 2124,
      "ĠÎ´Î¹Î±Îº": 2125,
      "Ġá¼ĲÎ½ÎµÏģÎ³": 2126,
      "ĠÏĩÎµÎ¹Ïģ": 2127,
      "Î¿ÏįÎ¼ÎµÎ½Î¿Î½": 2128,
      "Ġá¼ĲÎ¼Î¿á½¶": 2129,
      "on": 2130,
      "ĠÏĢÎ¹ÏĥÏĦ": 2131,
      "ĠÎ»ÏĮÎ³Î¿Ïħ": 2132,
      "á¿¶Î½Î¿ÏĤ": 2133,
      "ÏĥÎ¹Îº": 2134,
      "Ġá½¢": 2135,
      "Î¿á¿¦Î½ÏĦÎ±ÏĤ": 2136,
      "Î»Î¸": 2137,
      "ĠÎķá¼°ÏĤ": 2138,
      "ĠÎĺÎµá½¸Î½": 2139,
      "Î±Î¯ÏīÎ½": 2140,
      "Î´ÏīÏģ": 2141,
      "ĠÏĦÏĮÏĢ": 2142,
      "Ġ21": 2143,
      "ÏĨÏīÎ½": 2144,
      "ÏĥÎ¹Î¿ÏĤ": 2145,
      "ĠÏĦÎ¿Î½": 2146,
      "á½´Î»": 2147,
      "ĠÏĦÎ¿Î¹Î±á¿¦ÏĦÎ±": 2148,
      "Î¾á¿ĥ": 2149,
      "ĠÏĢÎ±Î»Î±Î¹": 2150,
      "Ġá¿¬ÏīÎ¼Î±": 2151,
      "ĠÎ´ÏįÎ½Î±Î¼Î¹Î½": 2152,
      "ĠÏĢÎ±ÏģÎŃ": 2153,
      "Î®ÏĥÎµÏĦÎ±Î¹": 2154,
      "ĠÏĦÎŃÎ»Î¿ÏĤ": 2155,
      "Î¹Î¬": 2156,
      "ĠÎ´Ïģ": 2157,
      "ĠÎ³ÎµÎ³Î¿Î½": 2158,
      "ĠÏĦÎ·Î½": 2159,
      "ĠÎ¼Î±Î½": 2160,
      "Ġá¼ĢÎ³Î³": 2161,
      "ÏĦÎ¿Î¹ÏĤ": 2162,
      "ÏģÎº": 2163,
      ".]": 2164,
      "ĠÎºÎµÎ½": 2165,
      "ĠÏĢÎ±Î½ÏĦá½¸ÏĤ": 2166,
      "Ġá¼°Î´Î¯": 2167,
      "ĠÎ´Î¿ÎºÎµá¿ĸ": 2168,
      "ĠÎ±á¼µ": 2169,
      "Î®Î½ÏīÎ½": 2170,
      "ĠÎ½Î¿Î¼Î¯Î¶": 2171,
      "Ġá¼ĲÎ³Îº": 2172,
      "Ġá¼±ÎºÎ±Î½": 2173,
      "Ġá¼ĲÏĩÎ¸Ïģ": 2174,
      "ÏħÏĨ": 2175,
      "ĠÏĢÎ±Î¹Î´": 2176,
      "ĠÎ½ÏĮÎ¼Î¿Ïħ": 2177,
      "ĠÎļÏīÎ½": 2178,
      "Î¼Î±ÏĥÎ¹": 2179,
      "ĠÏĨÏī": 2180,
      "Î¿á¿¦Î¼ÎµÎ½": 2181,
      "Ġá¼¸Î¿ÏħÎ´Î±": 2182,
      "ĠÏĩÎ±Î»": 2183,
      "Î¿Î¼ÎŃÎ½Î·Î½": 2184,
      "ÏįÎ¼": 2185,
      "ÎĳÎ£": 2186,
      "ĠÏĢÏģá½¶Î½": 2187,
      "Î¬ÏĦÎ¿Ïħ": 2188,
      "ĠÎºÎ¿": 2189,
      "ĠÎ¸Î±Î»": 2190,
      "ÏħÏĦÎŃÏģ": 2191,
      "ĠÎ¼ÎµÏĦÎ±Î¾á½º": 2192,
      "ĠÎľÎµ": 2193,
      "ĠÎ³ÏģÎ±ÏĨ": 2194,
      "ĠÎ¼ÎŃÎ»": 2195,
      "ĠÏĦÎ¹Î½Î¿ÏĤ": 2196,
      "ÎĳÎ»Î»á½°": 2197,
      "Ġá¼ĦÎ½Î´ÏģÎµÏĤ": 2198,
      "ĠÎ¼Î¯Î±Î½": 2199,
      "ĠÏĦÎ±Ïĩ": 2200,
      "Ġá¼ĢÏģÎ¹Î¸Î¼": 2201,
      "Ġá½¢Î½": 2202,
      "Î¿Î»Î¿Ïħ": 2203,
      "á¼Ħ": 2204,
      "Ġá¼ĲÎ¼Î¿á¿¦": 2205,
      "ÏīÎ½ÏĦÎ±Î¹": 2206,
      "Î»Î»Î±": 2207,
      "Î»ÎµÎ³": 2208,
      "ĠÏĢÎµÎ¯": 2209,
      "Ġá¼ĶÏģÎ³Î¿Î½": 2210,
      "ÏĦÎµÎ¯Î±ÏĤ": 2211,
      "Î»Î¹Î¿Î½": 2212,
      "ĠÎµá¼¶ÏĩÎµ": 2213,
      "ÏģÎ·ÏĦÎ±Î¹": 2214,
      "ĠÎºá¼ĤÎ½": 2215,
      "ÏĥÎ¸Ïī": 2216,
      "á¿¶Î½Î±": 2217,
      "ĠÎ¼ÎŃÎ½ÏĦÎ¿Î¹": 2218,
      "ĠÎ¸Î¬Î½Î±": 2219,
      "Ġá¼ĦÎ»Î»Î¿Î¹": 2220,
      "Î¯ÏĥÏĦÎ±": 2221,
      "ĠÏĦÎ¹Î½á½°": 2222,
      "Ġá¼ĢÎ½Î´Ïģá¿¶Î½": 2223,
      "ÏįÎ¼Î±ÏĦÎ¿ÏĤ": 2224,
      "ÏģÎ¯Î±Î½": 2225,
      "Î¼ÎŃÎ½Î¿Î¹ÏĤ": 2226,
      "ÏĦÎ¹Îºá½´Î½": 2227,
      "Ġá¼ĶÎ½Î¸Î±": 2228,
      "ĠÏĦÏįÏĩ": 2229,
      "ĠÏĢÎ¿Î»Î»Î¬ÎºÎ¹ÏĤ": 2230,
      "Ġá½ĦÎ½ÏĦÎ±": 2231,
      "Ġá¼ĳÎ±ÏħÏĦá½¸Î½": 2232,
      "Ġá¼ĢÎ½ÏĦÎ¯": 2233,
      "ÏģÎ¹ÏĥÏĦÎ¹": 2234,
      "ÏħÎ²": 2235,
      "um": 2236,
      "ÎĳÎ¡": 2237,
      "Î¬Î´Î¿ÏĤ": 2238,
      "ÎŃÏģÏĩ": 2239,
      "ĠÎ±Î½": 2240,
      "ÏģÎ¹Î¿ÏĤ": 2241,
      "ĠÎµá¼°ÏģÎ·": 2242,
      "ÏĦÏģÎµ": 2243,
      "ÏİÏĦÎµÏģÎ¿Î½": 2244,
      "ĠÏĢÏģÎ¿ÏĥÎº": 2245,
      "Î¬ÏĥÎµÎ¹ÏĤ": 2246,
      "ÏĨÎµ": 2247,
      "Î»Î±Î¼Î²Î¬Î½": 2248,
      "ÎŃÎ½Î±": 2249,
      "ÏĥÏģÎ±": 2250,
      "ĠÏĢÎ¿Î¹Îµá¿ĸÎ½": 2251,
      "ÏĩÎ±Î¹": 2252,
      "ĠÏĨÏĮ": 2253,
      "ĠÎºÏħÏģÎ¯": 2254,
      "ĠÎ»ÎŃÎ³Ïī": 2255,
      "ĠÂ§": 2256,
      "Ġá¼ĲÎ»ÎµÏħÎ¸": 2257,
      "Ġá¼¥ÏĦÎ¹ÏĤ": 2258,
      "Ġá¼¤ÏĦÎ¿Î¹": 2259,
      "Î¼Î®": 2260,
      "ĠI": 2261,
      "ĠÎ´Î·": 2262,
      "ĠÏĨÎ¿Ïģ": 2263,
      "Î·Î¼Î¿Î½": 2264,
      "ÎŃÏģÎ±": 2265,
      "ÏĦÎ¯Î±Î½": 2266,
      "Î¬ÏĥÎµÎ¹": 2267,
      "ĠÏĪÏħÏĩá¿ĨÏĤ": 2268,
      "om": 2269,
      "Î¬Î¼ÎµÎ½Î¿Î¹": 2270,
      "Î¼Î±ÏĥÎ¹Î½": 2271,
      "ÏĩÎ¬Î½": 2272,
      "Ġ23": 2273,
      "Î½Î¿Ïħ": 2274,
      "ĠÏĢÎ±ÏĦÏģÎ¯": 2275,
      "ÏĪÎµÎ½": 2276,
      "or": 2277,
      "ÏĨÎµÎ»": 2278,
      "Î¼ÎµÎ½Î±": 2279,
      "ÏģÎ¿ÏħÏĤ": 2280,
      "ĠÎ¸Îµá¿¶Î½": 2281,
      "ÏĢÎµÎ¹Î½": 2282,
      "ĠÏĢÎ»á½´Î½": 2283,
      "Ġd": 2284,
      "ĠÎ³ÎµÎ³": 2285,
      "Ġá¼¡Î¼Îµ": 2286,
      "ĠÎºÎ»Î·ÏģÎ¿Î½": 2287,
      "ÏĢá½¶": 2288,
      "qu": 2289,
      "Ġá¼ĢÏĢÎ¿ÏĨ": 2290,
      "Ġá½ĳÏĢÎ·": 2291,
      "Ġ22": 2292,
      "ÏīÏĢÎ¿Î½": 2293,
      "Î±Ïĥ": 2294,
      "ÏģÎ¹Î¶": 2295,
      "ÏĮÏĦÎ·ÏĤ": 2296,
      "ĠÎ´Î¹Î±Î½": 2297,
      "Î¿ÏģÎ±": 2298,
      "ĠÏĦÎ¿ÏįÏĦÎ¿ÏħÏĤ": 2299,
      "ĠÎ´ÎµÎ¹": 2300,
      "ĠÎĳá½ĲÏĦ": 2301,
      "Ġá½ħÏĢÎ¿Ïħ": 2302,
      "ĠÎļÏħÏģÎ¯Î¿Ïħ": 2303,
      "ĠÎºÎ±ÏĦÎ·Î³": 2304,
      "Ġ!": 2305,
      "Ġá¼ĢÎ½Î¬": 2306,
      "ĠÎµá½ĲÎ¸á½ºÏĤ": 2307,
      "Ġá¼ĲÎºÎµÎ¯Î½ÏīÎ½": 2308,
      "Ġá¼¡Î³Îµ": 2309,
      "Ġá¼ĲÎ¸Î½": 2310,
      "ĠÎ±á¼°ÏĥÏĩ": 2311,
      "ÏĥÏĦÎ±ÏĥÎ¹Î½": 2312,
      "Ġá¼ĦÏģÎ¸Ïģ": 2313,
      "ÏĮÏĦÎµÏģÎ¿Î½": 2314,
      "ÏĦÎ¿á½ºÏĤ": 2315,
      "ĠÎºÎ±Î¸Î±Ïģ": 2316,
      "ÏģÎ¹ÏĤ": 2317,
      "at": 2318,
      "á¿ĸÎ¿Î¹": 2319,
      "Ġá¼ĢÏģÏĩá¿ĨÏĤ": 2320,
      "ÏģÎ¹ÏĥÏĦÎ¹Î±Î½": 2321,
      "Î´á½²": 2322,
      "Ġá¼ķÏĦÎµÏģÎ¿Î½": 2323,
      "Ġá¼ĶÏĢÎµÎ¹ÏĦÎ±": 2324,
      "Ġá¼ħÎ³": 2325,
      "ÏĩÎµÎ½": 2326,
      "Î´ÎµÏį": 2327,
      "ĠÏĥÎµÎ»": 2328,
      "ÏİÎ¼": 2329,
      "ĠÎ´ÏħÎ½Î±": 2330,
      "Ġá¼¹ÎµÏģ": 2331,
      "ÏģÎ¯ÏīÎ½": 2332,
      "ÎŃÎ²Î·": 2333,
      "ÏīÏĦÎ¬": 2334,
      "ÏĥÎµÏĥÎ¸Î±Î¹": 2335,
      "ĠÎľÎ±": 2336,
      "Î¹ÏĥÏĦÎ¿Î½": 2337,
      "ĠÎºÎ±ÏģÎ´": 2338,
      "ĠÏĥÎ¿á¿¦": 2339,
      "ĠÎ¼ÎµÎ¯": 2340,
      "ĠÎ´ÏħÎ½Î¬Î¼": 2341,
      "ĠÎ¸Ïį": 2342,
      "ĠÎ¾ÎŃÎ½": 2343,
      "ÎŁÎ¥Î£": 2344,
      "ĠÎ±á½ĳÏĦÎ¿á¿¦": 2345,
      "Ġá¼ķÎ½ÎµÎºÎ±": 2346,
      "ÏģÎŃÏĨ": 2347,
      "ĠÏĢÎ»Îµ": 2348,
      "ĠÏĦÎ±ÏįÏĦá¿ĥ": 2349,
      "ÏĪÎ±ÏĤ": 2350,
      "ĠÎ¦Î¹Î»": 2351,
      "Ġá¼ĲÎ½Î±Î½ÏĦÎ¯": 2352,
      "ĠÏĦÎŃÏĩ": 2353,
      "á¿ĨÏĥÎ¸Î±Î¹": 2354,
      "Ġá¼ĦÎ»Î»ÏīÏĤ": 2355,
      "Ġá¼ĲÏĢÎ¹Î¸ÏħÎ¼": 2356,
      "Î±Î³Î³ÎµÎ»": 2357,
      "Î´Î¹Î´": 2358,
      "ÏİÏĥÎº": 2359,
      "ĠÎ»ÎŃÎ³ÎµÏĦÎ±Î¹": 2360,
      "Î¿ÏģÏĨ": 2361,
      "00": 2362,
      "ĠÎłÎ±Î½": 2363,
      "Ġ24": 2364,
      "ÏģÎ¯ÏĥÎº": 2365,
      "ĠÎļÏį": 2366,
      "ĠÎºÎ±ÏĦÎ±ÏĥÏĦ": 2367,
      "ĠÎĽÎ±ÎºÎµÎ´": 2368,
      "ĠÎ´ÎµÎ¾Î¹": 2369,
      "Ġá½ĢÎ½ÏĮ": 2370,
      "ÏĦá½´Î½": 2371,
      "Î¿á¿¦Î½ÏĦÎ¿ÏĤ": 2372,
      "Ġá¼ĢÎºÏģÎ¹Î²": 2373,
      "Ġá¼ĺÎºÎºÎ»Î·": 2374,
      "ĠÎ½Î·": 2375,
      "Ġá¼ĲÎ¾ÎŃ": 2376,
      "Î¯Î±Î¹ÏĤ": 2377,
      "ÏĢÎ»Î±": 2378,
      "ĠÏĨÎ·Ïĥá½¶Î½": 2379,
      "Î´Î¿Î¾": 2380,
      "ÏĮÎ½ÏĦÎ±ÏĤ": 2381,
      "ÏĨÏģÎ±": 2382,
      "ĠÎ³ÏģÎ¬ÏĨ": 2383,
      "ÏİÏģÎ·": 2384,
      "ĠÎ¾ÏħÎ½": 2385,
      "Ġá½ĳÎ¼Îµá¿ĸÏĤ": 2386,
      "...": 2387,
      "ĠâĢ¢": 2388,
      "ĠÎ£Î±": 2389,
      "ĠÎ¸ÏħÎ³": 2390,
      "ĠÎĿÎ¹Îº": 2391,
      "ÏĦÎ¹ÎºÎ¿á¿¦": 2392,
      "Î´ÏįÎ½": 2393,
      "ĠÏĦÏį": 2394,
      "Ġá¼ĳÎ½á½¸ÏĤ": 2395,
      "ĠÎºÎ¿Î¼": 2396,
      "Î¯Î½Î¿Ïħ": 2397,
      "ĠÎºÎ¬Î»Î»": 2398,
      "ĠÏĢÎ¬ÏĥÎ·ÏĤ": 2399,
      "ĠÎ¼ÎµÎ³Î±Î»": 2400,
      "ĠÎķÎ½": 2401,
      "Î¥Î£": 2402,
      "ĠÎ½Ïį": 2403,
      "ÎĹÎĿ": 2404,
      "ĠÎ»Î±Î¼ÏĢ": 2405,
      "Ġá¼ĢÎ¸": 2406,
      "Ġá½ģÎ¼Î¿Î¯ÏīÏĤ": 2407,
      "ĠÏĦÎ¹Î½ÎµÏĤ": 2408,
      "ĠÎ£ÏħÎ½": 2409,
      "á¿´": 2410,
      "ĠÏĢÏģÎŃÏĢÎµÎ¹": 2411,
      "Î¿ÏįÎ¼ÎµÎ½Î¿Î¹": 2412,
      "Ġá¼ĲÎºÎµá¿ĸÎ½Î¿ÏĤ": 2413,
      "ÎµÏįÎ³": 2414,
      "Î·Î¼Î¬ÏĦÏīÎ½": 2415,
      "ĠÎºÎ±Î¸Î¬": 2416,
      "ÏĮÏĩ": 2417,
      "ĠÏĩÏģá½´": 2418,
      "ÏģÎ¯Î±": 2419,
      "Î¸ÎŃÎ½ÏĦÎ¿ÏĤ": 2420,
      "ĠÏĥÏİÎ¼Î±ÏĦÎ¿ÏĤ": 2421,
      "ĠÎ¼ÏĮ": 2422,
      "ÏĥÏĨ": 2423,
      "Î¼Î¬Ïĩ": 2424,
      "Ġá¼ħÏĢÎ±": 2425,
      "ĠÎļÏīÎ½ÏĥÏĦÎ±Î½": 2426,
      "ĠÎ»ÏĮÎ³Î¿ÏħÏĤ": 2427,
      "Â».": 2428,
      "Î»Îº": 2429,
      "ĠÏĢÏģÏĮÏĥÏī": 2430,
      "Ġá¼ĲÎ»ÏĢÎ¯": 2431,
      "ĠÏĢÎ»Îµá¿ĸ": 2432,
      "Î¹á½°": 2433,
      "Î¬Î¶ÎµÎ¹": 2434,
      "Î¸Î¬Î½": 2435,
      "ĠÏĢÎ¿á¿¦": 2436,
      "ĠÎľÎ±Îº": 2437,
      "ÎºÎ·Î½": 2438,
      "Î»Ïī": 2439,
      "ĠÎ¿á½ĲÎ´Îµá½¶ÏĤ": 2440,
      "is": 2441,
      "ĠÎºÎ¿Î»": 2442,
      "ĠÎ¼Î±ÏĤ": 2443,
      "Î½Î¿ÏĤ": 2444,
      "ÏĢÎ¬": 2445,
      "ĠÏĥÏħÎ³Îº": 2446,
      "ĠÏĢÎ¹ÏĥÏĦÎµÏį": 2447,
      ".)": 2448,
      "ĠÎłÏģÎ¿": 2449,
      "ĠÏĢÏĮÎ»ÎµÎ¹": 2450,
      "ĠÎµÎ½": 2451,
      "ĠÏĢÎ±ÏĦÏģ": 2452,
      "Ġá¼ĢÎ½á½´Ïģ": 2453,
      "Ġá¼´ÏĥÏīÏĤ": 2454,
      "ĠÏĢÎ»á¿Ĩ": 2455,
      "ĠÎ¼Î·Î½": 2456,
      "Î¯Î½ÎµÎ¹Î½": 2457,
      "ĠÎ´Î¿á¿¦": 2458,
      "ĠÏĥÏīÏĦÎ·ÏģÎ¯": 2459,
      "ÏĦÏģÎ±": 2460,
      "Î´Î·Î½": 2461,
      "ĠÏĩÎ¹": 2462,
      "ĠÎ¸ÎµÏīÏģ": 2463,
      "ÏĦÎµá¿¦": 2464,
      "Î³Î³ÎµÎ»": 2465,
      "Î¿Î½ÏĦÎ¹": 2466,
      "ĠâĢĵ": 2467,
      "Ġá¼ĶÏĦÎ·": 2468,
      "Ġá¼ĲÎ»Î¸": 2469,
      "Î±á¿ĸÎ¿Î¹": 2470,
      "Ġá¼ĲÎ²": 2471,
      "ĠÎĺÎµá¿·": 2472,
      "ÏĥÎ·": 2473,
      "Î¼Î±Ïĩ": 2474,
      "ĠÎ¸Î¬Î»Î±": 2475,
      "ĠÎµá¼°ÏģÎ®Î½": 2476,
      "Î´Î±Î¼": 2477,
      "ĠÏĥÎ±ÏĨ": 2478,
      "Î³á½¼": 2479,
      "ĠÎ»ÎµÎ¹": 2480,
      "Î¾Î±ÏĦÎ¿": 2481,
      "ĠÎºÏĦ": 2482,
      "Ġá¼ĢÏĢÎ±Î¹": 2483,
      "ĠÏĦÏĮÎ½": 2484,
      "Ġá¼ĲÎ¼ÏĢÎ¿": 2485,
      "ĠÎ´ÏħÎ½Î¬Î¼Îµ": 2486,
      "Î´Î®": 2487,
      "ĠÏĦÏģÎµá¿ĸÏĤ": 2488,
      "ĠÏĦÏģÏĮÏĢ": 2489,
      "Î¯Î¼": 2490,
      "ÏĦÎ¿Î¼": 2491,
      "ĠÎ±á½ĲÏĦÏĮ": 2492,
      "ĠÎ´Î¹Î±Î»": 2493,
      "ĠÎµá¼¶ÏĦÎ±": 2494,
      "ÏĥÎ±Ïį": 2495,
      "ÏĥÎ¯á¾³": 2496,
      "Ïģá½°": 2497,
      "Î½ÎµÏĦÎ±Î¹": 2498,
      "ÎĽÎķ": 2499,
      "ÎµÏħÎº": 2500,
      "ÏĦÎ¹Î½ÎµÏĤ": 2501,
      "ĠÏĢÏģÎ¬ÏĦ": 2502,
      "ĠÎŁá½ķ": 2503,
      "ÎºÎµÏĤ": 2504,
      "ĠL": 2505,
      "ĠÏĩÎ¿Ïģ": 2506,
      "ĠÏĢÎµÏĢ": 2507,
      "ĠÏĢÎ¿Î»Î»Î¿á½¶": 2508,
      "Î´Î¿ÏħÏĤ": 2509,
      "ĠÎ²ÏģÎ±Ïĩ": 2510,
      "ÏĪÎ±Î¹": 2511,
      "Î¿Î»ÏĮÎ³": 2512,
      "ĠÎºÎ¿Î¹": 2513,
      "ĠÏĩÏģÎ®": 2514,
      "ÏģÎ±ÏĦ": 2515,
      "Ġá¼ĢÏģÏĩá½´Î½": 2516,
      "ÏĮÎ¼Î¿Ïħ": 2517,
      "ÎŃÎ±ÏĤ": 2518,
      "ĠÎ´ÎµÏį": 2519,
      "ĠÎ½ÏĮÎ¼Î¿Î½": 2520,
      "Î¹Îºá½´": 2521,
      "Î¸ÎŃÎ½ÏĦÏīÎ½": 2522,
      "Ġá¼ĦÎ»Î»Î¿ÏħÏĤ": 2523,
      "ÎĻÎĶ": 2524,
      "Ġá¼¡Î¼ÎŃÏģÎ±Î½": 2525,
      "Î¬ÏģÏīÎ½": 2526,
      "ĠÏĥÏħÎ½ÎŃ": 2527,
      "ĠÎ±á¼°ÏĥÎ¸": 2528,
      "ÏĨÎ¬Î½": 2529,
      "Ġá¼ĲÎ¼á½²": 2530,
      "Î·ÏĥÎ¹ÏĤ": 2531,
      "Î»Î¯Î¿Ïħ": 2532,
      "Ġá¼ĳÎ¾á¿ĨÏĤ": 2533,
      "Ġá¼ĲÎ¾Î¿Ïħ": 2534,
      "Ġá½ħÎ¸ÎµÎ½": 2535,
      "á½ºÎ½": 2536,
      "ĠÏĨÎ¯": 2537,
      "ĠÎµá½ĲÏĩ": 2538,
      "ÏĪÎµÎ¹": 2539,
      "Î½ÏīÎ½": 2540,
      "ĠÎ³ÎŃÎ³Î¿Î½": 2541,
      "ÏħÎ³ÏĩÎ¬Î½": 2542,
      "ĠÏĥÎ·Î¼Î±": 2543,
      "Î®Î¼ÎµÏģÎ¿Î½": 2544,
      "ĠÏĥÎºÎµ": 2545,
      "Î¬Î´Î±": 2546,
      "ÏĩÎ¸Î·": 2547,
      "Ġá¼µÏĢÏĢ": 2548,
      "ĠÎºÏī": 2549,
      "ĠÏĥÏĢÎ¿ÏħÎ´": 2550,
      "Ġá¼ĲÏģÎ³Î±": 2551,
      "ÏĢÎµÏį": 2552,
      "in": 2553,
      "ĠÎ¿á¼³": 2554,
      "á¿ĸÎ¿ÏĤ": 2555,
      "ĠÎ´ÏħÎ½Î±ÏĦ": 2556,
      "Ġá¼ĢÎ³Î±ÏĢ": 2557,
      "ÏģÎ¿Î¹": 2558,
      "Ġá¼ĢÏĥÏĦ": 2559,
      "ÎĻÎĳÎ£": 2560,
      "ĠÎ´Ïī": 2561,
      "Ġá½ĳÏĢÎ¿Îº": 2562,
      "ĠÎ³Î¿á¿¦Î½": 2563,
      "ĠÎ³Î¯Î³": 2564,
      "Î®ÏĦÎ·": 2565,
      "ĠÏĢÏĮÎ½": 2566,
      "Ġá¼ĶÎ¼": 2567,
      "ĠÎ¤á½´Î½": 2568,
      "ĠÏĦÎ¿Î¹Î¿á¿¦": 2569,
      "Ġá¼ĦÎ½Î´ÏģÎ±": 2570,
      "Î´ÏħÏĥ": 2571,
      "ÏĥÏĥÎ±Î½": 2572,
      "ÏĦÎ±á¿ĸÏĤ": 2573,
      "ĠÎ²Î¯Î¿Î½": 2574,
      "Î¿Î¼ÎŃÎ½Î¿Î¹ÏĤ": 2575,
      "ĠÎĳÎ»Î»": 2576,
      "ĠÏĨÎ±Î½ÎµÏģ": 2577,
      "ĠÎ¼ÎŃÎ»Î»": 2578,
      "es": 2579,
      "ÏĦÎµá¿ĸÎ½": 2580,
      "ĠÎ²Î¹": 2581,
      "Î¸Î¬": 2582,
      "Ïĥá½¶Î½": 2583,
      "ĠÎ´ÎµÏĥ": 2584,
      "ÏĥÏĦÎ¿Ïħ": 2585,
      "ĠÎłÎ¡": 2586,
      "Î´Î¿á½º": 2587,
      "Ġá½¥ÏĤ": 2588,
      "ÎŃÏģÎ³": 2589,
      "ĠÏĩÏīÏģá½¶ÏĤ": 2590,
      "ĠÏĢÎ±ÏĦÏģá½¸ÏĤ": 2591,
      "Ġá¼ĶÏĢÎµ": 2592,
      "ĠÏĤ": 2593,
      "Ġá¼ĦÎ»Î»Î¿Î¹ÏĤ": 2594,
      "ÏĦÎ±á½¶": 2595,
      "Ġá¼¸ÏīÎ¬Î½": 2596,
      "ĠÏĨÎ·ÏĥÎ¹Î½": 2597,
      "ĠÎĽÏĮÎ³": 2598,
      "ĠÏĦÎµÎ»ÎµÏħ": 2599,
      "Î¸Î¹ÏĤ": 2600,
      "ĠÎ´Î¹ÎŃ": 2601,
      "Î¿ÏĦÎŃÏģ": 2602,
      "ĠÎķÎº": 2603,
      "ĠÎµá¼¶ÏĩÎ¿Î½": 2604,
      "Î¼Î¯": 2605,
      "ĠÏĢÏģÎ±Î³Î¼Î¬ÏĦÏīÎ½": 2606,
      "ÏĥÏĦÎ¿Î»": 2607,
      "Î¬ÏĥÎ±ÏĤ": 2608,
      "ĠÎ²Î±ÏĥÎ¹Î»ÎŃÎ±": 2609,
      "ĠÏĢÏĮÎ»Î¹ÏĤ": 2610,
      "Ġá¼ĢÎ½Î´": 2611,
      "ÏĦÎ±Ïĩ": 2612,
      "ĠÏĩÎµÏģ": 2613,
      "ÏĦá¿ĨÏĤ": 2614,
      "ĠÎ³Î±": 2615,
      "Î®Î¼Î±ÏĦÎ¿ÏĤ": 2616,
      "ĠÏĢá¾¶ÏĥÎ¹": 2617,
      "ĠÎ´Ê¼": 2618,
      "ĠÏĦÏģÎ¿ÏĨ": 2619,
      "ĠÎļÎ±ÏĦá½°": 2620,
      "ĠÎ´Î±": 2621,
      "ÏĦÏģÎ¿Î½": 2622,
      "Ġá¼ĲÎ³Ïİ": 2623,
      "Ġá¼ĶÎ»Î±Î²": 2624,
      "ĠÏĦÎ¿Î¹Î¿á¿¦ÏĦÎ¿Î½": 2625,
      "Ġá½ģÏĢÏĮ": 2626,
      "ÏĮÏģÏīÎ½": 2627,
      "Ġá¼ĶÏģÎ³Î±": 2628,
      "ĠÎ»ÏĮÎ³ÏīÎ½": 2629,
      "ÏĥÏĩÎµ": 2630,
      "Ġá¼ĶÎ´Ïī": 2631,
      "Ġá¼ĿÎ»Î»Î·Î½": 2632,
      "ÏĮÎ´Î¿Ïħ": 2633,
      "ĠÎ¿á½ĲÎ´ÎŃ": 2634,
      "ĠÏĥÎ±ÏģÎº": 2635,
      "Ġá¼±ÏĢÏĢ": 2636,
      "Ġá¼ĦÎ½Î¸ÏģÏīÏĢÎ¿Î½": 2637,
      "ĠÎłÎµ": 2638,
      "ĠÏĢÎ¿á½º": 2639,
      "Ġá¼ĢÏĥÏĨÎ±Î»": 2640,
      "Î²Î±Î»Î»": 2641,
      "ĠÎ¼Î¹Î½": 2642,
      "Î¿Î´Î¿Î½": 2643,
      "ĠÎ²Î±ÏĥÎ¹Î»ÎµÎ¯": 2644,
      "ÏĦÏģÎ¿ÏĢ": 2645,
      "ĠÎ¼Î¹ÏĥÎ¸": 2646,
      "Ġ26": 2647,
      "ÏĥÏĦÎ¬ÏĥÎµÏīÏĤ": 2648,
      "ĠÏĢÏģÎ¿ÏĥÎŃ": 2649,
      "Î¬ÏĨ": 2650,
      "ÎµÎ¯ÏĤ": 2651,
      "Ġá¼ĪÎ»Î»": 2652,
      "Î¬Î¶ÎµÎ¹Î½": 2653,
      "ÏģÎ½": 2654,
      "ĠÎ¼Î±Î¸": 2655,
      "ĠÏħá¼±á½¸ÏĤ": 2656,
      "ÏĥÎ±Î³": 2657,
      "Ġá¼ĲÏĢÎ¹Ïĩ": 2658,
      "ĠÏĨÏįÏĥÎµÏīÏĤ": 2659,
      "Ġá½ķÏĥÏĦÎµÏģÎ¿Î½": 2660,
      "ÎŃÏĥÎµÎ¹": 2661,
      "Î¹ÎµÏģ": 2662,
      "Î´á¿¶Î½": 2663,
      "ĠÏĨÎ±Î¯Î½ÎµÏĦÎ±Î¹": 2664,
      "Ġá¼ĲÎ½ÏĦá½¸ÏĤ": 2665,
      "ÎŁÎľ": 2666,
      "Ġá¼ĢÎ½Î±Î»": 2667,
      "ÏĥÎ¿ÏĤ": 2668,
      "Î¸Ïį": 2669,
      "Ġá½ķÎ´ÏīÏģ": 2670,
      "ÎŃÏĩÎµÎ¹": 2671,
      "Î¸ÏģÎ¿Î½": 2672,
      "ĠÏĦÎ·": 2673,
      "ĠÏĦÏħÏĩ": 2674,
      "á¿¦ÏĥÎ±Î¹": 2675,
      "ÎķÎ£": 2676,
      "ĠÏĨÏģ": 2677,
      "Ġá¼¸ÏĥÏģÎ±": 2678,
      "á¾¶ÏĦÎ±Î¹": 2679,
      "ĠÎľÎµÏĦ": 2680,
      "em": 2681,
      "Î²Î·": 2682,
      "ÏĦÎ¹Î±": 2683,
      "ÎŃÏĦÏģ": 2684,
      "Î¬ÏĥÎµÏīÏĤ": 2685,
      "Î»á¿¶Î½": 2686,
      "ÎµÏģá¿¶Î½": 2687,
      "á¿¦Ïģ": 2688,
      "Ġá½ĢÎ½Î¿Î¼": 2689,
      "ÎºÎ¿Î½Î¿Î¼": 2690,
      "Î¿ÏħÏĥ": 2691,
      "ÏĦÏīÏģ": 2692,
      "ĠÏĢÎ¿ÏĦá½²": 2693,
      "Î½Î¿Î¼Î±": 2694,
      "Ġet": 2695,
      "ÏĦÎµá¿¦Î¸ÎµÎ½": 2696,
      "Î¹á¿¶Î½": 2697,
      "ĠÎ£Î©": 2698,
      "Ġá½ķÎ´Î±": 2699,
      "ĠÏĢÏĮÎ»ÎµÎ¼Î¿Î½": 2700,
      "ÏĥÎ¸á¿ĩ": 2701,
      "ĠÎºÎ¯Î½": 2702,
      "Î¸Î±Î¹": 2703,
      "ÎºÏģÎ¬": 2704,
      "ÏİÎ¸Î·": 2705,
      "ĠÎ½ÏħÎº": 2706,
      "ĠÎºÎ±ÏĦÎ¿": 2707,
      "Î¯Î»Î¹": 2708,
      "ĠÎłÎ¿": 2709,
      "ÏĦÎ¬Î½": 2710,
      "ĠÎºÏģÎ¹": 2711,
      "á¿ĨÎ»Î¸ÎµÎ½": 2712,
      "ĠÎ¸Îµá½¸ÏĤ": 2713,
      "Î¬Ïĩ": 2714,
      "Î»ÎµÏĢ": 2715,
      "ĠÏĢÎ¿Î»Î»Î¿á½ºÏĤ": 2716,
      "Ġ27": 2717,
      "ĠÎºÎ±ÏģÏĢ": 2718,
      "ĠÎ½á¿Ĩ": 2719,
      "Ġá¼¡Î´Î¿Î½": 2720,
      "ĠÎºÎ±Î¸Î¬ÏĢÎµÏģ": 2721,
      "Î±Î½ÏĦÎ¹": 2722,
      "á¿Ħ": 2723,
      "ĠÏĦÏģÎ±": 2724,
      "ÎºÎ½Ïħ": 2725,
      "ch": 2726,
      "ĠÎ´Î¯ÎºÎ±Î¹Î¿Î½": 2727,
      ".,": 2728,
      "ĠÎ³ÎŃÎ½Î¿ÏĤ": 2729,
      "ĠÎºÎ±Î»Î»": 2730,
      "Ġf": 2731,
      "ĠâĢŀ": 2732,
      "Ġá¼ĶÏĩÎ¿Î½ÏĦÎµÏĤ": 2733,
      "Î¸Î¿ÏħÏĤ": 2734,
      "ĠÎ´ÏĮÎ¾Î±Î½": 2735,
      "ĠÏĦÎ®Î½": 2736,
      "ÏĦÎ¹Îºá¿¶ÏĤ": 2737,
      "Ġ28": 2738,
      "ÎŃÏģÏīÎ½": 2739,
      "ĠÎ±ÏħÏĦ": 2740,
      "Î¸Î®ÏĥÎµÏĦÎ±Î¹": 2741,
      "Ġá¼ĲÏĦ": 2742,
      "ÏĦÎ¯Î¿Ïħ": 2743,
      "ÏĦÏģÎŃ": 2744,
      "Î²ÏģÎ±": 2745,
      "Î¶ÎµÎ¹": 2746,
      "ĠÎ±á½ĸÎ¸Î¹ÏĤ": 2747,
      "Î´á½¸Î½": 2748,
      "Î¿ÏĢÎ¿Î½": 2749,
      "ĠÏĢÎ¿Î»Ïħ": 2750,
      "ĠÏĨÎ¹Î»Î¿Ïĥ": 2751,
      "Ġá¼ĢÎ½Î¸ÏģÏİÏĢÎ¿Ïħ": 2752,
      "Î¹Î´": 2753,
      "ĠÎ½Î¹Îº": 2754,
      "Î¿á¿¦ÏĥÎ±Î½": 2755,
      "Î¾Î·ÏĤ": 2756,
      "ĠÎĳá¼´": 2757,
      "ĠÏĦÏħÏģ": 2758,
      "ĠÏĦÎµÎ»ÎµÏħÏĦÎ±": 2759,
      "ĠÏĦá¼Ģ": 2760,
      "ĠÎ´Î·Î¼Î¿": 2761,
      "Ġm": 2762,
      "Ġá½ĢÏĨÎµÎ¯": 2763,
      "ĠÏĢÎ»á¿ĨÎ¸Î¿ÏĤ": 2764,
      "ÎĳÎ½Î±": 2765,
      "ÏģÎ¹ÏĥÎ¼ÎŃÎ½": 2766,
      "ÏĦÎ¹Îºá½´": 2767,
      "ÏİÏĥÎµÎ¹": 2768,
      "ÏĢÎ¹Î¿Î½": 2769,
      "Ġá¼ĲÏĥÎ¸": 2770,
      "Ġá¼ĶÎ¼ÏĢ": 2771,
      "ĠÎĴÎ±ÏĥÎ¹": 2772,
      "ur": 2773,
      "ĠÏĢÎ¿Î¹Îµá¿ĸ": 2774,
      "Ġá¼ĢÏĦ": 2775,
      "ĠÎ³ÏħÎ¼": 2776,
      "ĠÏĨÎ·Ïĥá½¶": 2777,
      ".âĢĿ": 2778,
      "ĠÎµá¼·ÏĤ": 2779,
      "ĠÎ»Î¬Î²": 2780,
      "ĠÎºÎ¬Î¼": 2781,
      "ĠÏĦÎ¿ÏĥÎ¿á¿¦ÏĦÎ¿Î½": 2782,
      "ÏĦÎµÎ»ÎŃ": 2783,
      "ĠÎ¤Î±á¿¦ÏĦÎ±": 2784,
      "10": 2785,
      "Ġá¼ĢÎ½Î¬Î³ÎºÎ·": 2786,
      "Ġá¼ĳÎ»Î»Î·Î½": 2787,
      "ÏĥÎ¼Î¿á¿¦": 2788,
      "Î¿á¿¦ÏĦÎ±Î¹": 2789,
      "Ġá¼ĲÏģÏī": 2790,
      "Î»á¿ĨÏĤ": 2791,
      "ÎµÎ¾": 2792,
      "Ġá¼ĻÎ»Î»Î·Î½": 2793,
      "Î±ÏģÎ¼": 2794,
      "ĠÎ¤á½¸Î½": 2795,
      "ĠÎ±á½ĲÏĦá½´": 2796,
      "ÏĥÏĦÎ®ÏģÎ¹Î¿Î½": 2797,
      "ĠÎ±Ïħ": 2798,
      "Î±ÏģÎ¯": 2799,
      "Î´ÎµÎ½": 2800,
      "Ġá¼¸Î·ÏĥÎ¿á¿¦": 2801,
      "Ġá¼ķÎºÎ±ÏĥÏĦÎ¿Î½": 2802,
      "ĠÏĦÎ¿ÏħÏĦÎŃ": 2803,
      "ĠÎ¤Î¿á¿¦ÏĦÎ¿": 2804,
      "ĠÎºÎµÎ»ÎµÏį": 2805,
      "ĠÏĥÏĩÎ¿Î»": 2806,
      "ĠÏĨÏħÎ»Î¬": 2807,
      "Î¿Î¯Î±ÏĤ": 2808,
      "ÎºÏį": 2809,
      "ÏĢÎµÎ¹Î´á½´": 2810,
      "Ġá¼ĢÎ½Î±Î¹": 2811,
      "ĠÎ²Î¯": 2812,
      "ÏĦÏģÎ¯": 2813,
      "ĠÏĢÎ¿Î½Î·Ïģ": 2814,
      "ÏĢÏĦÎ¿Î½": 2815,
      "Î±Î³ÏīÎ³": 2816,
      "Ġá¼ĦÎ¾": 2817,
      "Ġá¾ĸ": 2818,
      "Ġá¼ĲÎ»ÎµÏħÎ¸ÎµÏģ": 2819,
      "Ïģá¿·": 2820,
      "Î¸ÎµÏĥÎ¹Î½": 2821,
      "ĠÏĩÎµá¿ĸÏģÎ±ÏĤ": 2822,
      "ĠÎºÏįÏģÎ¹Î¿ÏĤ": 2823,
      "Ġá¼ĢÎ»Î®": 2824,
      "ĠÎºÎ¬ÏĦÏī": 2825,
      "ÏĨÎ¬Î»": 2826,
      "ĠÏĦÎµÎ»ÎµÏħÏĦ": 2827,
      "ĠÎľÎ±Ïģ": 2828,
      "Î¿Î³ÎµÎ½": 2829,
      "ÏĢÎµÎ¯": 2830,
      "ĠÎµá½ĳÏģÎ¯ÏĥÎº": 2831,
      "ĠÎľÏī": 2832,
      "Î¸Î¿Ïħ": 2833,
      "Î¬Î»Î·": 2834,
      "ÏĥÎ¸Î·ÏĥÎ±Î½": 2835,
      "Î¹Îºá¿¶ÏĤ": 2836,
      "ĠÏĢÎ»Î±": 2837,
      "ĠB": 2838,
      "Î¿Î¹ÏĥÎ¹Î½": 2839,
      "ÎºÎ½Ïį": 2840,
      "Ġá¼ĶÎ´ÎµÎ¹": 2841,
      "ĠÎ¸Î±ÏħÎ¼Î±": 2842,
      "Ġá¼ģÏģ": 2843,
      "Î»ÎµÏīÏĤ": 2844,
      "ÏĮÎ¼Î·Î½": 2845,
      "ËĻ": 2846,
      "Ġ29": 2847,
      "Ġpr": 2848,
      "ĠÎµá¼¶ÏĩÎµÎ½": 2849,
      "ĠÎłÎµÎ»": 2850,
      "ÏĮÎ½ÏĦÎ¹": 2851,
      "Î´Ïħ": 2852,
      "ÏĦÏİ": 2853,
      "ĠÏĦÎ¿ÏħÏĤ": 2854,
      "Ïģá½°Î½": 2855,
      "Ġá¼ĲÏĢÎ¿Î¹": 2856,
      "ĠÏĩÏİÏģÎ±Î½": 2857,
      "ĠÎ´Î·Î¼Î¿Ïĥ": 2858,
      "ĠÎłÏģ": 2859,
      "Î¼á¿¶Î½": 2860,
      "ĠÎ½ÏĮÎ¼Î¿ÏĤ": 2861,
      "ÎµÏģÎ±": 2862,
      "ĠÏĦÎ¬Î´Îµ": 2863,
      "ĠÏĨá¿¶ÏĤ": 2864,
      "ĠÏĢÏĮÎ»ÎµÎ¹ÏĤ": 2865,
      "ÏİÏģÎ±": 2866,
      "á¼Ķ": 2867,
      "ĠF": 2868,
      "ĠÏĦÏĮÏĢÎ¿Î½": 2869,
      "Ġá¼ĲÎºÏĢ": 2870,
      "ĠÏĢÎ¬Î½Ïħ": 2871,
      "ar": 2872,
      "ĠÏĢÎ·Î³": 2873,
      "ÏĨÎŃÏģÎµÎ¹": 2874,
      "ĠÏĩÎ±Î¯": 2875,
      "ĠÎ¿á½ĶÏĦ": 2876,
      "15": 2877,
      "ĠÏĪÎµÏħ": 2878,
      "Î»Î»ÏīÎ½": 2879,
      "Ġá¼ĢÎ³Î¬ÏĢ": 2880,
      "ĠÏĨÏįÏĥÎµÎ¹": 2881,
      "Ġá¼ĳÎ±ÏħÏĦá¿¶Î½": 2882,
      "ĠÎ½Î±Ïħ": 2883,
      "ĠÎ³ÏģÎ¬Î¼": 2884,
      "ÏĪÎµÏīÏĤ": 2885,
      "Î¸ÏīÎ½": 2886,
      "ĠÏĢÏģÎ±Î³Î¼Î±": 2887,
      "Î»ÎµÎº": 2888,
      "ĠÎ´Î¯ÎºÎ±Î¹": 2889,
      "ĠÎ´ÎŃÎºÎ±": 2890,
      "ĠM": 2891,
      "ĠÏĦá½´": 2892,
      "ĠÎ±á½ĲÏĦÎ¿ÏįÏĤ": 2893,
      "ĠÏĥÏħÎ³Î³": 2894,
      "ÏĥÎ±Î½ÏĦÎ¿": 2895,
      "ĠÏĢÎ½Îµá¿¦Î¼Î±": 2896,
      "Ġá¼ĦÎ»Î»Î¿ÏĤ": 2897,
      "ÏĦÎµÎ¯Î½": 2898,
      "Ġá½ħÎ»ÏīÏĤ": 2899,
      "Î´ÏģÎ¿Î¼": 2900,
      "ĠÎ¼Î¬Ïģ": 2901,
      "Î®Î³Î±Î³": 2902,
      "ÎºÏģÎ¹": 2903,
      "ĠÎ¸Î¬Î½Î±ÏĦÎ¿Î½": 2904,
      "ĠÎ¤Î¿Ïį": 2905,
      "ÏĨÎ¿ÏĤ": 2906,
      "ĠÎ¸Î±ÏħÎ¼": 2907,
      "ÏģÎ±Î¹": 2908,
      "Î»Î¹Î¿ÏĤ": 2909,
      "ÎĻÎĿ": 2910,
      "ÏĦÎŃÎ»Îµ": 2911,
      "ĠÎ´Î¹Î±Î²": 2912,
      "ÏįÏģÎ¹Îµ": 2913,
      "Î¯ÎºÎ±": 2914,
      "Ġá½ĦÎ½ÏĦÏīÎ½": 2915,
      "ĠÎµá½ĲÏĦ": 2916,
      "ÎŃÏĥÎµÎ¹ÏĤ": 2917,
      "ÏİÎ¼ÎµÎ¸Î±": 2918,
      "Ġá¼ĲÎ¾Î±": 2919,
      "ĠÏĦÏģÎ¿": 2920,
      "Î´ÏģÎ¿ÏĤ": 2921,
      "ÏĮÎ½Î¿ÏĤ": 2922,
      "Î¬Î¶ÎµÏĦÎ±Î¹": 2923,
      "Î¸Î±Ïģ": 2924,
      "Ġá¼ĲÎ´ÏĮ": 2925,
      "ĠÏĨÏħÎ³": 2926,
      "ÎµÎ¯Î¼ÎµÎ½Î¿Î½": 2927,
      "Ġá¼ĶÏĥÏĦ": 2928,
      "ĠÎºÎ±Î¸á½¼ÏĤ": 2929,
      "Ġá¼¼": 2930,
      "ĠÎ´Î®Î¼": 2931,
      "ÏĨÏį": 2932,
      "ĠÏĨÏĮÎ²": 2933,
      "ÎºÏħ": 2934,
      "Î¼ÎŃÎ½á¿³": 2935,
      "ĠÎĶÎ¹Îº": 2936,
      "Ġá½ģÎ»": 2937,
      "ÏĢá½¸": 2938,
      "ÎŃÏĩÎµÏĦÎ±Î¹": 2939,
      "Î¿Î¹Ïĩ": 2940,
      "ĠÎºÎ·Ïģ": 2941,
      "ĠÎ²Î¯Î¿Ïħ": 2942,
      "ĠÎ¸Î±Î»Î¬Ïĥ": 2943,
      "Î¯Î±Î¹": 2944,
      "ĠÏĢá¾¶ÏĥÎ±": 2945,
      "an": 2946,
      "Ġá¼ĲÏĢÎ¹Î²": 2947,
      "Î¿ÏģÎ¯Î±ÏĤ": 2948,
      "Î·ÏĦÎµ": 2949,
      "ĠÏĩÎ±Î»Îº": 2950,
      "ĠÏĢÏģÎ¬Î³Î¼Î±ÏĦÎ±": 2951,
      "ĠÎ²Î¿Î·Î¸": 2952,
      "ĠÏĢá¾¶ÏĥÎ¹Î½": 2953,
      "ĠÎ½Î¿Î¼Î¿": 2954,
      "Î¸ÏģÏīÏĢ": 2955,
      "ÎºÎ¿Ïį": 2956,
      "Î¼Î¯Î±Î½": 2957,
      "ĠÏĥÎ¿á½¶": 2958,
      "ÎºÎµá¿ĸÎ½": 2959,
      "Î¯Î´ÏīÎ½": 2960,
      "ĠÏĢÎ¿Î»Ïį": 2961,
      "ĠÏĢÎ¬Î½ÏĦÏīÏĤ": 2962,
      "Ġá¼ĲÎ¸ÎŃÎ»": 2963,
      "Ġá¼ĲÏĥÏĩ": 2964,
      "Ġá¼ĲÎºÎµá¿ĸÎ½Î¿Î½": 2965,
      "Ġ35": 2966,
      "ÎĹÎľ": 2967,
      "Î¾ÎµÏīÎ½": 2968,
      "Ġá½ĢÎ»Î¯Î³Î¿Î½": 2969,
      "ÎŃÏģÎ±ÏĤ": 2970,
      "ĠÏĢÎŃÎ½ÏĦÎµ": 2971,
      "Ġá¼ĺÏĢá½¶": 2972,
      "Î®ÏĥÎ±Î½ÏĦÎµÏĤ": 2973,
      "ĠÏĪÏħÏĩá½´Î½": 2974,
      "Ġá¼ĢÏĥÎ¸ÎµÎ½": 2975,
      "Îµá¿ĸÎ½Î±Î¹": 2976,
      "ĠÎ´Î¹Î±ÏĦÎ¬": 2977,
      "ĠÎ¼ÎŃÏĥÎ¿Î½": 2978,
      "ĠX": 2979,
      "ĠÎ´ÏįÎ½": 2980,
      "ĠÎ¸ÎŃÎ»ÎµÎ¹": 2981,
      "ĠÎ¸ÏħÎ³Î±": 2982,
      "Î¿ÎºÏģÎ¬": 2983,
      "ÏĥÎ±ÏĦÎµ": 2984,
      "Ġá¼ĲÎºÎµá¿ĸÎ½Î¿": 2985,
      "ÏĢÎµÏĥ": 2986,
      "ĠÏĢÎ±ÏĦÏģÎ¹": 2987,
      "ic": 2988,
      "ÏĦÎ¿ÏĦÎµ": 2989,
      "ĠÏĦÎ¿á¿ĸÏĥÎ¹": 2990,
      "ĠÎ´Î¹á½¸": 2991,
      "Î¯Î´Î±": 2992,
      "Ġá¼ģÏĢÎ»á¿¶ÏĤ": 2993,
      "Î®ÏĥÎ¿Î½ÏĦÎ±Î¹": 2994,
      "ĠÏĩÏī": 2995,
      "Î´ÎµÎºÎ±": 2996,
      "Î´Î·Î¼": 2997,
      "ĠÎ¼ÎŃÎ»Î»Î¿Î½": 2998,
      "Î¯Ïĩ": 2999,
      "ÏĦÎ±Îº": 3000,
      "Ġá½ĳÏĢá¿Ĩ": 3001,
      "ĠÏĨÏģÎ¬": 3002,
      "ÎµÎ¹Îº": 3003,
      "Îŀ": 3004,
      "ĠÎ¸ÎµÏģÎ¼": 3005,
      "ĠÏĦÎ¿á¿¦ÏĦ": 3006,
      "ÏĥÎ¼á½¸Î½": 3007,
      "ĠÎ¼Î¬Î»Î±": 3008,
      "á¾¶ÏĥÎ¸Î±Î¹": 3009,
      "ĠÎ´Îµá¿ĸÎ½": 3010,
      "Î¿á¿¶": 3011,
      "Îµá¿ĸÏĥÎ±": 3012,
      "ĠÎ½Î¿á¿¦Î½": 3013,
      "ĠÎ¼Î¯Î±": 3014,
      "âĢĿ": 3015,
      "Ġt": 3016,
      "Ġá½ħÎ»Î¿Î½": 3017,
      "ĠÎľÎµÏĦá½°": 3018,
      "ĠÎłá¿¶ÏĤ": 3019,
      "ÎµÎ¹Î¿Î½": 3020,
      "ĠÎºÎ±ÏĦÎ±ÏĥÎºÎµÏħ": 3021,
      "ĠÏĦÎ±Î¹": 3022,
      "Ġá¼ĢÎ³ÏīÎ³": 3023,
      "ÏģÎ¼Î·Î½": 3024,
      "Ġá¼ĢÎ½Î¸ÏģÏīÏĢ": 3025,
      "ÏĢÎµá½¶": 3026,
      "ĠÎ´Î¯ÎºÎ·Î½": 3027,
      "Î¬ÏĥÎ±Î¹": 3028,
      "id": 3029,
      "ĠÏĩÎ¬ÏģÎ¹": 3030,
      "Î¿á¿ĸÎ½": 3031,
      "ĠÏĢÎ¯ÏĥÏĦÎµ": 3032,
      "Î¹Î±Î½": 3033,
      "Î¯Î½Î·ÏĤ": 3034,
      "Ġá½ĳÏĢÎ¬ÏģÏĩÎµÎ¹": 3035,
      "Î¯Ïī": 3036,
      "ĠÏĥÎ®Î¼ÎµÏģÎ¿Î½": 3037,
      "ÏħÎ¶": 3038,
      "ĠÎµá¼°ÏĥÎ¹": 3039,
      "ÏģÎ¿ÏĥÏįÎ½": 3040,
      "Ġá¼ĳÎ±Ïħ": 3041,
      "Î¿Î´Î¿Î¼": 3042,
      "ĠÎ»Î±Î»": 3043,
      "ÎŃÎ»ÎµÏħ": 3044,
      "ĠÎĳá¼±": 3045,
      "Ġá¼¤Î³": 3046,
      "ĠÎ´Î¹Î´Î¬ÏĥÎº": 3047,
      "ÏĮÏĥ": 3048,
      "ÏĥÏĦÏģÎ±": 3049,
      "ĠÎ´Î¹ÎºÎ±Î¹Î¿ÏĥÏįÎ½": 3050,
      ".-": 3051,
      "ÏİÏĥ": 3052,
      "Ġá¼ĢÏĢÎµÎº": 3053,
      "ÏĦÎ¹Îºá½°": 3054,
      "Ġá¼ĶÏģÏĩ": 3055,
      "ÎŃÎ»Î¸": 3056,
      "Î·ÎºÏĮ": 3057,
      "ĠG": 3058,
      "Ġá½©": 3059,
      "ĠÎ¾ÏħÎ¼": 3060,
      "ÏĩÏģ": 3061,
      "Ġá¼ĲÏĢÎ¹ÏĥÏĦÎ¿Î»": 3062,
      "ĠÎľá½´": 3063,
      "ÏĥÎ¯Î¿Î½": 3064,
      "Î®ÏĨ": 3065,
      "ĠÎ¿á½ĲÎ´ÎµÎ½": 3066,
      "Î®ÎºÎ¿Î½ÏĦÎ±": 3067,
      "ÏģÎµÏĥÎ¹Î½": 3068,
      ")Â·": 3069,
      "ĠÏĢÏģÏĮÏĤ": 3070,
      "ÎĻÎĽ": 3071,
      "ĠÏĢÎ¿Î¹Î·": 3072,
      "ĠÏĢÎ»Î®": 3073,
      "ĠÏĢÏīÏĤ": 3074,
      "Ġá¼ĲÎ½Ïİ": 3075,
      "ÎŃÏģÎ±Î½": 3076,
      "ĠÏĢá¿¦Ïģ": 3077,
      "Ġá¼łÎ³": 3078,
      "ÏĦÏį": 3079,
      "Î»Î¿Ïħ": 3080,
      "ĠÏĦÏħÎ³ÏĩÎ¬Î½": 3081,
      "âĢĶ": 3082,
      "ĠÎ³Î½ÏİÎ¼Î·Î½": 3083,
      "Ġá½ģÎ¼Î¿": 3084,
      "ÏĮÏĢÎ¿Ïħ": 3085,
      "ĠÎµá¼°ÏĥÎ¹Î½": 3086,
      "Ġin": 3087,
      "Î»Î¬Î²": 3088,
      "ĠÎºÎ±Îºá¿¶ÏĤ": 3089,
      "ĠÎ´Î¹Îº": 3090,
      "ĠÏĦÎ±á½ĲÏĦ": 3091,
      "ĠÎ´Î±Î¯": 3092,
      "ĠÏĢÏħ": 3093,
      "Î¼ÎµÎ½Î±Î¹": 3094,
      "ĠÎ³Î¿Î½": 3095,
      "Î¯Î¼ÏīÎ½": 3096,
      "ÏĥÎ¸Îµá½¶ÏĤ": 3097,
      "ÏĢÏĦÎµÎ¹": 3098,
      "Î»ÎŃÎ³": 3099,
      "Î¶ÏīÎ½": 3100,
      "ĠÎ¸Ïħ": 3101,
      "ĠÎ¶Ïīá¿ĨÏĤ": 3102,
      "Î¿Î»Î¿ÏħÎ¸": 3103,
      "Î¸ÏħÎ½": 3104,
      "ĠÎ³Î¹Î³": 3105,
      "ĠÎºÏĦÎ¯": 3106,
      "ĠÎµá½ķ": 3107,
      "ĠÎ³á¿Ĩ": 3108,
      "ĠÎĽÎ±": 3109,
      "Î¹Îºá½°": 3110,
      "ĠÎµá½ĲÏĥÎµÎ²": 3111,
      "Ġá¼µÏĢ": 3112,
      "ÏİÎ¼Î±ÏĦÎ±": 3113,
      "Ġá¼ģÏĢÎ¬Î½ÏĦÏīÎ½": 3114,
      "Î½Î·Î½": 3115,
      "ĠÎ¿á¼´Îº": 3116,
      "20": 3117,
      "Ġá½ĳÏĪÎ·Î»": 3118,
      "Î²Î´": 3119,
      "Ġá¼ĥÏĤ": 3120,
      "ÏİÎ½ÏīÎ½": 3121,
      "Î¿Î»Î¿Ïį": 3122,
      "Ġá¼ģÏģÎ¼": 3123,
      "Ġá¼ĢÏĨÎ¿Ïģ": 3124,
      "Ġá¼ĲÏĢÎµÎ¯": 3125,
      "ÏĮÎ¸ÎµÎ½": 3126,
      "ĠÎłÎ±ÏĦÏģá½¸ÏĤ": 3127,
      "ÏģÎµÏĢ": 3128,
      "ĠÎ¼ÎµÏĦÎµ": 3129,
      "Ġá½ĳÏĢÎ¿Î»": 3130,
      "ÏīÏĦÎŃÏģÏī": 3131,
      "ĠÎĽÎ±ÎºÎµÎ´Î±Î¹Î¼Î¿Î½": 3132,
      "Ġá¼ĦÎ»": 3133,
      "Î¿ÏĦÎ¬": 3134,
      "Ġá½ħÎ¼Î¿Î¹": 3135,
      "Î´ÎµÏħ": 3136,
      "Î¼á½´Î½": 3137,
      "Ġom": 3138,
      "Ġá¼ĦÎ½Î´ÏģÎ±ÏĤ": 3139,
      "ÏĦÎ±Î»": 3140,
      "ĠÎ¸Î±Î½Î¬ÏĦÎ¿Ïħ": 3141,
      "Î²Î±Î¯Î½": 3142,
      "Ġá¼ķÎ½": 3143,
      "Ġá¼ĢÎ½Î¸ÏģÏİÏĢÎ¿Î¹ÏĤ": 3144,
      "Î¿á¿¦Î½ÏĦÎ¿": 3145,
      "Ġá¼ĳÎ±ÏħÏĦá¿·": 3146,
      "Ġá¼ĻÎ»Î»Î®Î½ÏīÎ½": 3147,
      "Î¹ÏĥÎ¸": 3148,
      "á½ģ": 3149,
      "ĠÎ¤ÎŁÎ¥": 3150,
      ".âĢĶ": 3151,
      "ĠÏĩÏģÎ®Î¼Î±ÏĦÎ±": 3152,
      "ĠÎ´Î¹Ïİ": 3153,
      "Î¿á½Ĳ": 3154,
      "ĠÏĢÏģÎ¿ÏĨÎ®": 3155,
      "ĠÎ¼ÏĮÎ½Î¿ÏĤ": 3156,
      "Ġá¼ĢÎ½Î¸ÏģÏİÏĢÎ¿ÏħÏĤ": 3157,
      "ĠÎ´Î±Îº": 3158,
      "Î¿á¿ĸÎ¿Î½": 3159,
      "Ġá¼ĺá½°Î½": 3160,
      "Î¼ÎŃ": 3161,
      "ĠÏĦÎ¿Î»": 3162,
      "ĠÏĨÏħÏĥÎ¹Îº": 3163,
      "ÏĦÎ¯ÏīÎ½": 3164,
      "ĠÏĦÎ¹Î½á½¸ÏĤ": 3165,
      "ĠÎºÎ»Î·ÏģÎ¿Î½Î¿Î¼": 3166,
      "ÏīÏģÎ·": 3167,
      "Ġá¿ŀ": 3168,
      "ĠÎ´á¿ĨÎ»Î¿Î½": 3169,
      "ĠÎºÏĮÏĥÎ¼Î¿Ïħ": 3170,
      "ĠÏĩÎµÎ¯": 3171,
      "ÏĢÎ·": 3172,
      "ĠÎ³Î¬Î¼": 3173,
      "ĠÎ¼Ïį": 3174,
      "Î»Î±Î¼": 3175,
      "Ïģá¿³": 3176,
      "Ġá¼ĢÏĢÎ±Î»Î»": 3177,
      "Î»ÎµÎ¾": 3178,
      "ĠÎĶÎ¹á½¸ÏĤ": 3179,
      "ÏĥÎºÎµ": 3180,
      "ĠÏĥÏĦÎµÎ½": 3181,
      "ĠÎ¼Î¹ÎºÏģá½¸Î½": 3182,
      "Î¸ÎµÎ¹Î±Î½": 3183,
      "Ġá¼¨": 3184,
      "Ġá¼ķÎºÎ±ÏĥÏĦÎ¿ÏĤ": 3185,
      "ÏĦÎ¿ÏħÏģÎ³": 3186,
      "ÎŃÎ»Î¹": 3187,
      "ĠÎ»Î±Î²á½¼Î½": 3188,
      "Î½Î·Ïĥ": 3189,
      "ĠÏĢá¾¶ÏĤ": 3190,
      "Î¿ÏģÎ¬": 3191,
      "Î¯Î¶ÎµÎ¹": 3192,
      "ĠÎ»ÎµÏħÎº": 3193,
      "ĠÎĳÏģ": 3194,
      "ĠÏĦÎ¿Î¹Î¿ÏįÏĦÏīÎ½": 3195,
      "ĠÎ¼ÎŃÎ³Î±ÏĤ": 3196,
      "ĠÎ´Î¿Ïħ": 3197,
      "ÏĦá¿·": 3198,
      "Ġá½ĳÏĢÎŃ": 3199,
      "Ġá¼ĶÏĦÎ¿ÏĤ": 3200,
      "ÏĪÎ¹ÏĤ": 3201,
      "ÏĦá½¸": 3202,
      "Î³Î±": 3203,
      "ÏĥÎ¿Ïħ": 3204,
      "Î¼ÎŃÎ½Î±ÏĤ": 3205,
      "ĠÏĢÎ¯ÏĥÏĦÎµÏīÏĤ": 3206,
      "ĠÎºÏħÏģÎ¯Î¿Ïħ": 3207,
      "ÎŁÎļ": 3208,
      "ĠÎŁá¼°": 3209,
      "ÏįÎ»Î¿Ïħ": 3210,
      "Ġá¼ĦÎ»Î»Î¿Î½": 3211,
      "ĠÏĢÎ¬Î»Î±Î¹": 3212,
      "ĠÎºÎ±ÏĦÎ¿Î¹Îº": 3213,
      "á¿¶ÏĥÎ±Î¹": 3214,
      "ĠÎµá¼¶Î´Î¿ÏĤ": 3215,
      "Î¿ÏįÏĥÎ±ÏĤ": 3216,
      "Ġá½ģÏĢÎ¿á¿ĸÎ¿Î½": 3217,
      "ĠÏĢÎµÏĢÎ¿Î¹": 3218,
      "ĠÏĢÏī": 3219,
      "Ġn": 3220,
      "ĠÎ¿Î¹": 3221,
      "Ġá¼ĢÎ½Î´Ïģá½¸ÏĤ": 3222,
      "Î¿ÏħÎ¼ÎŃÎ½ÏīÎ½": 3223,
      "Ġá¼¸Î·ÏĥÎ¿á¿¦ÏĤ": 3224,
      "ÏĢÎ¿Ïģ": 3225,
      "ÏĢÏĦá½°": 3226,
      "Ġá½ĦÎ½ÏĦÎµÏĤ": 3227,
      "Î»ÏĮÎ³": 3228,
      "Ġá¼ģÎ³Î¯Î¿Ïħ": 3229,
      "ĠÏĥÏħÎ½ÎµÏĩ": 3230,
      "ÏĦÎ¯Î±": 3231,
      "ĠÎłÎķÎ¡": 3232,
      "ĠÎ£Ïħ": 3233,
      "ĠÏĢÎ±ÏĦá½´Ïģ": 3234,
      "ĠÎ¶Î·ÏĦ": 3235,
      "Î¿ÏĦÎµ": 3236,
      "ÎºÎ±Î¯": 3237,
      "Ġ31": 3238,
      "ÏĦÎ®ÏģÎ¹Î¿Î½": 3239,
      "ÏĥÎ±Î½ÏĦÎ¿ÏĤ": 3240,
      "Ġá¼ĲÎ»Îµ": 3241,
      "ĠÎ´ÎµÏĥÏĢÏĮ": 3242,
      "Î¯Î´": 3243,
      "ĠÎºÎ¿Ïģ": 3244,
      "Î®ÏĥÎ±ÏĦÎ¿": 3245,
      "ĠÎºÏħÎ²": 3246,
      "ĠÏĥÏĦÎ¿": 3247,
      "ĠÎºÎ±Î¯ÏĦÎ¿Î¹": 3248,
      "ÏģÎ·Î½": 3249,
      "ĠÏĢÎ±ÏģÎ±ÏĥÎºÎµÏħ": 3250,
      "Ġ33": 3251,
      "Ġá¼¡Î¼ÎŃÏģá¾³": 3252,
      "ĠÎºÎ±Î»á½¸Î½": 3253,
      "ĠÏĥÎ¼": 3254,
      "Î¬Î½Î·ÏĤ": 3255,
      "ĠÏĦÎ¿á½Ĳ": 3256,
      "ĠÏĢÎ¿Ïģ": 3257,
      "ĠÎĶÎ¹Î±": 3258,
      "ĠÎłÎ½Îµá¿¦Î¼Î±": 3259,
      "ĠÏĦÎ±á¿¦ÏĦ": 3260,
      "ĠR": 3261,
      "Ġá¼ĶÏĩÎ¿Î½ÏĦÎ±": 3262,
      "ĠÎłÎ¬Î½": 3263,
      "Î³ÎŃÎ½": 3264,
      "Ġá¼ĢÎ½Î±ÏĥÏĦ": 3265,
      "ĠÏĢÏģá¾¶Î³Î¼Î±": 3266,
      "Î»Î¹Î³": 3267,
      "ÎĻÎ£Î¤": 3268,
      "ĠÏĥÎ±Î½": 3269,
      "ĠÎ´ÎµÏĥÎ¼": 3270,
      "Ġá¼ĢÎºÏģÎ¿": 3271,
      "Ġá¼ĺÏĢÎ¹": 3272,
      "ĠÎºÏħÏģÎ¹": 3273,
      "ĠÎĶá½²Î½": 3274,
      "ĠÏĢÏģá¿¶ÏĦÎ¿ÏĤ": 3275,
      "ÏīÏģÎ³": 3276,
      "Î´ÏģÎ¿Ïħ": 3277,
      "Î¿á¿ĸÏĥÎ¹Î½": 3278,
      "Î´Î¯Îº": 3279,
      "ĠÎ´á¿¶": 3280,
      "ĠÎ±á¼°Ïĩ": 3281,
      "Ġá½ĦÎ½ÏĦÎ¿ÏĤ": 3282,
      "ĠÎłÏģá½¸ÏĤ": 3283,
      "Ġá¼°ÏĥÏĩÏį": 3284,
      "et": 3285,
      "ĠÏĨÎ¹": 3286,
      "Î»Î±Î³": 3287,
      "ĠÎ³Î½ÏİÎ¼": 3288,
      "ÏĦÎ¿Î¯": 3289,
      "ĠÎ´ÏģÎ±Ïĩ": 3290,
      "ÏĮÏĦÎµ": 3291,
      "ĠÏĢÎ¿Î»Î»á¿·": 3292,
      "ĠÎ¿á¼¶Î¼Î±Î¹": 3293,
      "Ġá½įÏĦÎ¹": 3294,
      "ĠÏĩÏİÏģÎ±ÏĤ": 3295,
      "ĠÎ¦Î±": 3296,
      "ĠÎ²ÎµÎ»": 3297,
      "Îµá¿ĸÏĦÎµ": 3298,
      "ĠÎµá¼´ÏģÎ·ÏĦÎ±Î¹": 3299,
      "ÎŃÎ¿Î½": 3300,
      "ĠH": 3301,
      "ĠÎ¸ÏģÏĮÎ½": 3302,
      "Ġá¼ĢÎ½á½°": 3303,
      "ĠÏĢÎ»Î·ÏĥÎ¯Î¿Î½": 3304,
      "Ġá½ħÏĥÎ¿Î¹": 3305,
      "Î²Î±Î½": 3306,
      "Ġá¼ĶÏĥÏĩ": 3307,
      "Ġ40": 3308,
      "á¿ĨÏĦÎ±Î¹": 3309,
      "ĠÎľÎµÎ³": 3310,
      "Ġá¼ĦÏĩ": 3311,
      "ÎĳÏģÎ³": 3312,
      "ĠÎ³Î¹á½°": 3313,
      "ÏİÏĥÎµÎ¹ÏĤ": 3314,
      "ĠÏĨÎ·ÏĥÎ¹": 3315,
      "ĠÏĦÎ¹Î½Î±ÏĤ": 3316,
      "ĠÎ¶á¿¶Î½": 3317,
      "ÎŃÏĦÏī": 3318,
      "ĠÏĨÎ¹Î»Î¿": 3319,
      "ÏĨÎ¿Î½": 3320,
      "ĠÎºÎ±Îºá¿¶Î½": 3321,
      "ĠÏĢÏģÎ¿ÏĥÎ®": 3322,
      "Ġá¼ĶÏĩÏī": 3323,
      "ĠÎ¿á¼µÏĦÎ¹Î½ÎµÏĤ": 3324,
      "ÏģÎ¿Î¯": 3325,
      "ÏĥÎ·Î¼": 3326,
      "ĠÎ´ÏħÎ½Î¬Î¼ÎµÏīÏĤ": 3327,
      "ĠÎ¼Î±Ïĩ": 3328,
      "ÏĥÎºÎ¿ÏĢ": 3329,
      "Î¿Î¹Î±": 3330,
      "Ġá¼°ÏĥÏĩÏħÏģ": 3331,
      "ĠÎ²Î¿ÏįÎ»Îµ": 3332,
      "ĠÏĩÎ±Î»ÎµÏĢ": 3333,
      "ÎŁÎĻ": 3334,
      "ol": 3335,
      "ĠÎ±á½Ķ": 3336,
      "od": 3337,
      "ÏĥÏĦÎµÎ¹": 3338,
      "ÏģÎ±Ïĥ": 3339,
      "Ġá½łÏĨÎµÎ»": 3340,
      "Ġá¼¡Î»Î¹Îº": 3341,
      "Î·Î¼Î¹": 3342,
      "Ġá¼°Î´ÎŃ": 3343,
      "Ġá¼¤ÎºÎ¿Ïħ": 3344,
      "ĠÏĢÎµÎ¶": 3345,
      "á¿ĨÎ»Î¸Î¿Î½": 3346,
      "ĠÎľÎ¹": 3347,
      "ĠÎĳÎ¸Î·Î½": 3348,
      "ĠÎºÎ±ÏĦÎ±Îº": 3349,
      "ÏĥÎ¿": 3350,
      "Î¯ÏīÎ¼Î±": 3351,
      "ĠÏĩÎ±ÏģÎ±Îº": 3352,
      "ĠÏĨÏħÎ»Î±Îº": 3353,
      "ĠÎĺÎµÎ¿": 3354,
      "ĠÎ²Î±ÏģÎ²": 3355,
      "ĠÎ±á½ĲÏĦá½°ÏĤ": 3356,
      "ĠÎºÎ±Î¹Î½": 3357,
      "Ġ]": 3358,
      "Î¶ÎµÏĦÎ±Î¹": 3359,
      "ĠÎłÎŃÏģ": 3360,
      "Ġá¼ĲÏĥÏĦÎ¯Î½": 3361,
      "ÎķÎĽ": 3362,
      "ĠÏĢÎ±ÏĦÎŃÏģÎ±": 3363,
      "ĠÎºÎ±Îºá½¸Î½": 3364,
      "ĠÎ´ÏģÎ¬": 3365,
      "Î¼ÎŃÎ½ÏīÏĤ": 3366,
      "ÏīÏĥÎ¹ÏĤ": 3367,
      "Ġá½©ÏĤ": 3368,
      "ĠÎ½Î®Ïĥ": 3369,
      "ÏĥÎ¿Î½ÏĦÎ±Î¹": 3370,
      "ÏģÎ¬Î½": 3371,
      "Ġá¼ĲÎ¼Î±": 3372,
      "ÏĦÎŃÏģÎ±Î½": 3373,
      "ÎµÎ¯á¿³": 3374,
      "Î²Î±Î¯Î½ÎµÎ¹": 3375,
      "ÎĳÏĢÏĮ": 3376,
      "ĠÏĥÎºÎ·Î½": 3377,
      "Î±Î½ÏĦÎ±": 3378,
      "ĠÎŁá½ķÏĦÏī": 3379,
      "Î¸Ïħ": 3380,
      "ÏĦÎ®ÏĤ": 3381,
      "Ġá½ħÏĤ": 3382,
      "ĠÎµá¼°Ïĥá½¶": 3383,
      "ĠÏħá¼±á½¸Î½": 3384,
      "ÏĦÏĦ": 3385,
      "ĠÎ¨": 3386,
      "ĠÏĨÎµÏįÎ³": 3387,
      "ĠÎºÎ±Î¸Î·": 3388,
      "ĠÎ³ÏħÎ½Î±á¿ĸÎºÎ±": 3389,
      "ĠÎ¼á¿Ĩ": 3390,
      "Ġá¼ĺÏĢÎµÎ¹Î´á½´": 3391,
      "Î½Î±Î¯": 3392,
      "ÏĢÏīÎ½": 3393,
      "ĠÏĢÎ¿Î»ÎŃÎ¼Î¿Ïħ": 3394,
      "ĠÎµá½ĳÏģ": 3395,
      "Î¿Î¼ÎŃÎ½á¿³": 3396,
      "ĠÎłÎ±á¿¦": 3397,
      "Î¿Î¼Î¬": 3398,
      "Ġá½ĢÎ¾": 3399,
      "ĠÎ²Î¬Ïģ": 3400,
      "Ġá½ĢÏģ": 3401,
      "Ġá¼ĢÎ³Î±Î¸á½¸Î½": 3402,
      "Î½ÎµÎ¹": 3403,
      "ÏĥÎ¯Î½": 3404,
      "Î»ÎµÏĦÎ¿": 3405,
      "ÏīÏĥÎµ": 3406,
      "Î¸ÎµÎ»": 3407,
      "á¿³Î´": 3408,
      "Ġá¼ĲÎ»ÎŃÎ³": 3409,
      "Î¼Î¿": 3410,
      "ÏĥÎ¹Î¿Î¹": 3411,
      "ĠÏĢÎ±Î½ÏĦÎ±Ïĩ": 3412,
      "Î³Î½": 3413,
      "Ġá½ģÏģÎ¼": 3414,
      "Î¹Î¿ÏħÏģÎ³": 3415,
      "ÏĦÎ®Ïģ": 3416,
      "Î¿ÎºÏģÎ±": 3417,
      "Ġá¼ĳÎ¿Ïģ": 3418,
      "ĠÎºÎµÎ¹": 3419,
      "Ġá¼ĢÏĢÎ¿Î´ÎµÎ¯": 3420,
      "Î¸Î®Î½": 3421,
      "ĠÎ´ÎµÏħÏĦÎŃÏģ": 3422,
      "ĠÎ±á½ĲÏĦÎ®Î½": 3423,
      "ĠÏĢÏģÎ¿Î²": 3424,
      "ÏĥÎ¸Î±Î¯": 3425,
      "Î¿ÏģÎ¹Îº": 3426,
      "á¾·ÏĤ": 3427,
      "ĠÏĥÏħÎ³Î³ÎµÎ½": 3428,
      "Î¬ÎºÎ¿Î½ÏĦÎ±": 3429,
      "Ġá¼°Î±": 3430,
      "Ġá½ģÏģá¿¶Î½": 3431,
      "ÏįÏĤ": 3432,
      "ĠÏĥÏħÎ¶": 3433,
      "Ġá¼ĲÎ´Î¯": 3434,
      "ÎķÎĻ": 3435,
      "ÏĦÎ¹Î¿ÏĤ": 3436,
      "ÎµÎ¯Î·": 3437,
      "ĠÎ¸ÏħÏĥ": 3438,
      "ĠÎ´Î¹Î´Î±Ïĥ": 3439,
      "ĠÎ´ÏħÎ½Î¬Î¼ÎµÎ¹": 3440,
      "Ġá¼Ĩ": 3441,
      "Ġá¼ĢÎ»Î·Î¸ÎµÎ¯Î±ÏĤ": 3442,
      "ÎŃÏģÏĩÎµÏĦÎ±Î¹": 3443,
      "ĠÏĦÎµÎ¯": 3444,
      "ĠÏĢÏģÎ¿Î½": 3445,
      "Î»ÏīÎ½": 3446,
      "ĠÎ³ÏģÎ±Î¼Î¼Î±": 3447,
      "ĠÎ³ÎµÎ³ÎµÎ½": 3448,
      "Î±Î¶": 3449,
      "ÏĥÏĦá½¸Î½": 3450,
      "Ïģá¾³": 3451,
      "Ġb": 3452,
      "Ġá¼ĢÎ»Î»Î®Î»Î¿ÏħÏĤ": 3453,
      "á¿ĸÎ±": 3454,
      "ÎµÏģÏĩ": 3455,
      "ĠE": 3456,
      "ĠÎ»Î±Î²Îµá¿ĸÎ½": 3457,
      "ĠÎĳá½Ĳ": 3458,
      "ÏĢÎŃÎ¼": 3459,
      "ĠÎºÎ±Î¸Îµ": 3460,
      "Ġá½ĢÏģÎ¸á¿¶ÏĤ": 3461,
      "Ġá¼ĦÎ»Î»Î·Î½": 3462,
      "ĠÎĳÎĿ": 3463,
      "ÏĪá¿ĥ": 3464,
      "ĠÏĩÏģÏĮÎ½Î¿Ïħ": 3465,
      "ÏĮÏĦÎ·ÏĦÎ¹": 3466,
      "ÏĮÎ´ÏģÎ±": 3467,
      "ÏĨÎ·": 3468,
      "ĠÎ§ÏģÎ¹ÏĥÏĦá½¸Î½": 3469,
      "Ġá¼ħÏĢÎ±Î½ÏĦÎ±": 3470,
      "Î®ÏĥÎµ": 3471,
      "Î³ÏģÎ¬ÏĨ": 3472,
      "Ġá¼ĺÏĢÎµá½¶": 3473,
      "Î±Î¯ÏīÏĤ": 3474,
      "ÎµÎ»Î¸Îµá¿ĸÎ½": 3475,
      "ĠÎŁá½Ĺ": 3476,
      "Ġá¼ĢÎ½ÏĦÎ¹Îº": 3477,
      "Ġá¼ĢÎ´ÏįÎ½Î±": 3478,
      "ÏĥÏĦá¿¶Î½": 3479,
      "ÏĥÎ±Î½ÏĦÎ±": 3480,
      "Ġá¼ĢÏĢÎ¿Î´": 3481,
      "ĠÎ§ÏģÎ¹ÏĥÏĦá½¸ÏĤ": 3482,
      "ÏĮÏģÎ¿Ïħ": 3483,
      "Î»Î¿Î¹": 3484,
      "ĊĊ": 3485,
      "ÎºÎŃ": 3486,
      "Î¥Î¡": 3487,
      "ÎŁÎĵ": 3488,
      "ÏĥÏĦÎ¿Î¹": 3489,
      "Ġá¼ĶÎ¼Îµ": 3490,
      "ĠÎ½ÏħÎ½": 3491,
      "Ġ32": 3492,
      "Ġqu": 3493,
      "Ġá¼ĢÎ´Î¹": 3494,
      "ut": 3495,
      "ÎºÏģÎ±": 3496,
      "Ġá¾½": 3497,
      "ĠÎłÎŃÏĦÏģ": 3498,
      "Î¸Î½": 3499,
      "Î®ÏĥÎ¿Î¼Î±Î¹": 3500,
      "Î®ÏĥÎµÎ¹Î½": 3501,
      "Ġá¼ĦÎ¼": 3502,
      "ĠÎ´Î¹Î±ÏĨÎ¿Ïģ": 3503,
      "Ġá¼§ÏĦÏĦÎ¿Î½": 3504,
      "ĠÎ»ÎŃÎ³ÎµÎ¹ÏĤ": 3505,
      "ÏģÏīÏĤ": 3506,
      "Î¤ÎĹÎ£": 3507,
      "ĠÎ»Î¯Î±Î½": 3508,
      "ĠÎĺÎµÏĮÏĤ": 3509,
      "ĠÎ³Î»á¿¶": 3510,
      "Î¬Î½Ïī": 3511,
      "Ġá¼ĲÏĢÎ¹ÏĥÏĦÎ®Î¼": 3512,
      "un": 3513,
      "Ġá¼ĢÎ³Î±Î¸á¿¶Î½": 3514,
      "ÏĮÎ¼Î·": 3515,
      "Î¯Î¶ÎµÏĦÎ±Î¹": 3516,
      "Ġá¼ĢÏĢÎ±": 3517,
      "ĠÏĥÎºÏĮ": 3518,
      "ĠÎļÎ±Î»": 3519,
      "ÏĮÎ»ÏīÎ½": 3520,
      "Î¿á¿Ĩ": 3521,
      "ĠÎ±á¼°ÏĦÎ¯Î±Î½": 3522,
      "ĠÏĢÏģÎ¿ÏĥÏĦ": 3523,
      "Ġl": 3524,
      "Ġá½ĳÏĢÎ·ÏģÎµ": 3525,
      "á¾·Î½": 3526,
      "el": 3527,
      "Î¿á¿¦ÏĥÎ±Î¹": 3528,
      "ĠÏĥÏĦÎ¹": 3529,
      "ĠÎ£Î¹Îº": 3530,
      "Ġá¼ĢÎ»Î·Î¸á¿¶ÏĤ": 3531,
      "ĠÎłÎ±ÏĦÏģ": 3532,
      "Î¬Î´Î¹": 3533,
      "Ġá½ĦÏĩ": 3534,
      "Î¸ÏģÎ±": 3535,
      "Î½ÎµÏĥÎ¸Î±Î¹": 3536,
      "Î¯ÏĤ": 3537,
      "ĠÏĩÏģÏĮÎ½á¿³": 3538,
      "ĠÎºÎ±Î¹Ïģá½¸Î½": 3539,
      "ĠÎ²ÎŃÎ»": 3540,
      "ĠÏĦÎµÎº": 3541,
      "ĠÏĥÏĦÏģÎ±ÏĦÎ¹Ïī": 3542,
      "á½°Î¼": 3543,
      "ĠÏĥÎ¹Î½": 3544,
      "ĠÎ»ÎµÎ¯": 3545,
      "ĠÎ±á¼·": 3546,
      "Ġá¼ĲÎºÏĦá½¸ÏĤ": 3547,
      "ĠÎĵÎµ": 3548,
      "Ġá¼¥Îº": 3549,
      "ĠÎµá¼°Ïĥá½¶Î½": 3550,
      "ÏīÎ¸": 3551,
      "ĠÎ»Î·": 3552,
      "ĠÏĦÎ±ÏįÏĦÎ±ÏĤ": 3553,
      "Ġá¼ĲÎ½ÏĦÎµá¿¦Î¸ÎµÎ½": 3554,
      "ÏĢÏģÎ¿": 3555,
      "Ġá¼ģÎ³Î¯ÏīÎ½": 3556,
      "ĠÏĨÎ·ÏĥÎ¯": 3557,
      "Î¼Î²Î±Î½": 3558,
      "Ġá¼ĶÎ»Î±": 3559,
      "Ġá¼ĶÏģÎ³ÏīÎ½": 3560,
      "ÏĨÎ¹": 3561,
      "Î±Î¹Î¼ÏĮÎ½": 3562,
      "á¼ĲÎ½": 3563,
      "Ġá¼ħÎ³Î¹Î¿Î½": 3564,
      "Î¼Î±Î½": 3565,
      "ÎķÎ¦": 3566,
      "ÎŃÏĩÎµÎ¹Î½": 3567,
      "ĠÎ»ÎŃÎ³Î¿Î½ÏĦÎµÏĤ": 3568,
      "ĠÎłÎķÎ¡ÎĻ": 3569,
      "Ġá¼ĲÎ½ÏİÏĢÎ¹Î¿Î½": 3570,
      "Î¶ÎµÎ¹Î½": 3571,
      "Î¿ÏħÎ¼ÎŃÎ½Î¿Ïħ": 3572,
      "ĠÎºÎ±ÏĦÎ·Î³Î¿Ïģ": 3573,
      "Ġá¼ĢÏĢÎµÎ¹": 3574,
      "ĠÏĨÎ¹Î»Î¿ÏĥÎ¿ÏĨ": 3575,
      "Ġá¼ĲÏĢÎ±": 3576,
      "Î¬Ïĥá¿ĥ": 3577,
      "ĠÎ§ÏģÎ¹ÏĥÏĦÎ¹Î±Î½": 3578,
      "Ġá¼ĢÎ³Î¿Ïģ": 3579,
      "Î»Ïİ": 3580,
      "Ġá¼ĳÏģÎ¼Î·Î½": 3581,
      "ĠÎĺÎ·": 3582,
      "Î¬Î³ÎµÎ¹": 3583,
      "ĠÎ²Î±ÏĥÎ¹Î»ÎµÏį": 3584,
      "Îĸ": 3585,
      "Î¬ÏģÎ¹": 3586,
      "ĠÎłÎ½ÎµÏįÎ¼Î±ÏĦÎ¿ÏĤ": 3587,
      "Ġá½ģÎ¼Î¿á¿¦": 3588,
      "ĠÏĥÎ¬Ïģ": 3589,
      "ÏĥÏĦÎ±ÏĥÎ¹ÏĤ": 3590,
      "ÎŃÏĥÎ²": 3591,
      "Î´Î¿Ïĩ": 3592,
      "ÏĦÎµÏĦÎ±Î¹": 3593,
      "ÎĳÏĩÎ±Î¹": 3594,
      "ÎĳÏĢÎ¿": 3595,
      "ĠÏĢÎ¬Î½ÏĦÎ¿ÏĦÎµ": 3596,
      "Ġ34": 3597,
      "ÏĮÏĦÎµÏģÎ±": 3598,
      "Ġá½ģÎ´á½¸Î½": 3599,
      "Î¯ÏĢ": 3600,
      "ÎºÏĦÎ±": 3601,
      "Î¯Î½ÎµÏĦÎ¿": 3602,
      "Ġá¼ĢÏĢÎ¿Ïģ": 3603,
      "ĠÎļÏįÏģÎ¹Îµ": 3604,
      "Î¿ÏģÎ¯Î±Î½": 3605,
      "ĠÏĥÏħÎ¼ÏĨÎŃÏģ": 3606,
      "Ġá¼ĳÏĢ": 3607,
      "ĠÏĥÏĦÎ±ÏħÏģ": 3608,
      "Ġá¼±ÏĢ": 3609,
      "ĠÏĢÎ½ÎµÏħÎ¼Î±": 3610,
      "Ġá¼ĢÏģÎµÏĦá¿ĨÏĤ": 3611,
      "ĠÎĳÎ³": 3612,
      "ÏĢÏĮÎ»ÎµÏīÏĤ": 3613,
      "Ġá¼ĶÏĩÎ¿Î½": 3614,
      "ĠÎµÎ¹": 3615,
      "ÏĥÏħÏĩ": 3616,
      "Ġ...": 3617,
      "ĠÏĥÏĩÎµÎ´á½¸Î½": 3618,
      "ÎŃÎ»ÎµÎ¹": 3619,
      "ĠÎ£ÏħÎ¼": 3620,
      "Ġá¼ĪÎ¸Î·Î½": 3621,
      "ĠÎ²Î±ÏĥÎ¹Î»Î¹Îº": 3622,
      "Ġá¼ĢÎ½Î±Î²": 3623,
      "ĠÎ»ÏĮÎ³Î¿Î¹ÏĤ": 3624,
      "ĠÏĦÎ±ÏĢÎµÎ¹Î½": 3625,
      "Î¿Î³ÏģÎ±ÏĨ": 3626,
      "Ġá¿¬ÏīÎ¼Î±Î¯ÏīÎ½": 3627,
      "ÎµÎ¯ÏĥÎ·ÏĤ": 3628,
      "Î¯Î¶ÎµÎ¹Î½": 3629,
      "Ġá½ķÎ»": 3630,
      "Î¯ÏĥÏĦÎ±ÏĦÎ±Î¹": 3631,
      "á¿¦ÏĤ": 3632,
      "Ġá¼ĶÏĩÎ¿ÏħÏĥÎ¹": 3633,
      "Ġá½§Î´Îµ": 3634,
      "ĠÏĩÎµÎ¹ÏģÎ¿": 3635,
      "Ġá¼ĲÎ½Î½": 3636,
      "ÎŁÎł": 3637,
      "Ġá½ĳÏĢÎ¿Î¼": 3638,
      "ĠÎ´ÏĮÎ¾Î·ÏĤ": 3639,
      "ĠÏĢÎ¿Ïĥ": 3640,
      "Î¹ÏĥÎ¼Î¿á¿¦": 3641,
      "ĠÏĥÏĨÏĮÎ´ÏģÎ±": 3642,
      "á½ĳ": 3643,
      "Î½Î±Î¹ÏĤ": 3644,
      "Ġ45": 3645,
      "Î¸á¿¶Î½": 3646,
      "ÏĢÎ¿ÏĤ": 3647,
      "ÏĦÏīÏĩ": 3648,
      "Ġá½ĳÏĢÎ¿Ïĩ": 3649,
      "ÏĦÎ·ÏĥÎ¹Î½": 3650,
      "Î¬ÏģÏĩÎ¿Ïħ": 3651,
      "Î®ÏĥÏīÎ¼ÎµÎ½": 3652,
      "ĠÎ»Î±Î¿á¿¦": 3653,
      "ÎĳÏģÏĩ": 3654,
      "ul": 3655,
      "ÏĦÎµÎ¯Î±Î½": 3656,
      "ĠÏĢÎ¿Î¹Î½": 3657,
      "ĠÎļÏħ": 3658,
      "Î·ÏĦá¿¶Î½": 3659,
      "Î±Î½ÏĦÎ±Î¹": 3660,
      "ĠÎ©ÏĤ": 3661,
      "ÎŁÎ¦": 3662,
      "ĠÏĥÏĨÎ¹": 3663,
      "ĠÏĩÏģÎ·Î¼Î¬ÏĦÏīÎ½": 3664,
      "ĠÎ¿á½ĲÎºÎŃÏĦÎ¹": 3665,
      "Î¬Î¼Î·Î½": 3666,
      "Î´ÏĮÎ¾": 3667,
      "Ġá¼ĶÏĥ": 3668,
      "ĠÏĢÎ¿Î¯": 3669,
      "Î¼Î¿Ïħ": 3670,
      "ÏħÏĦá½¸Î½": 3671,
      "ĠÎ¼ÎŃÏģÎ·": 3672,
      "Ġá¼¢Î½": 3673,
      "Ġá¼ĲÎºÎµÎ¯Î½Î·Î½": 3674,
      "ĠÏĥÏħÎ³Î³ÏģÎ±ÏĨ": 3675,
      "Î¿Î¹ÎµÎ½": 3676,
      "ĠÏĢÎ½ÎµÏį": 3677,
      "st": 3678,
      "Ġá¼ĢÏĢÏİ": 3679,
      "ÏĥÎ¸á¿ĨÎ½Î±Î¹": 3680,
      "ÎºÎµÎ¹ÏĦÎ±Î¹": 3681,
      "Î·ÏĦÎ¿Î½": 3682,
      "Î¿ÏģÎ¹": 3683,
      "ĠÎļÎ±Î¯": 3684,
      "ĠÎºÎ»Î±": 3685,
      "ĠÎ¼ÏħÏģÎ¯": 3686,
      "ÏģÎ¿á½¶": 3687,
      "am": 3688,
      "Ġá¼ĢÎºÎ±": 3689,
      "ĠÏĨÎ±Î¯Î½": 3690,
      "ĠÎ´ÎµÏįÏĦÎµÏģÎ¿Î½": 3691,
      "Ġá¼ĦÎ½Î¸ÏģÏīÏĢÎ¿Î¹": 3692,
      "ÎŃÏĥÎµÏīÏĤ": 3693,
      "ĠÎ¼ÎµÏĦÎ¬": 3694,
      "ĠÏĢÏį": 3695,
      "ĠÎĳÎ¡": 3696,
      "ĠÏĥÏħÎ½Î±": 3697,
      "Ġá¼ĦÎ»Î»Î¿Ïħ": 3698,
      "ĠÎ»ÏħÏĢ": 3699,
      "Ġá¼´Î´Î¹Î¿Î½": 3700,
      "ĠÎ´Î¹Î·Î³": 3701,
      "ĠÎºÎ¿Ïħ": 3702,
      "ĠÎ¿á¼¶ÎºÎ¿Î½": 3703,
      "ĠÎ±á½ĲÏĦÏĮÏĤ": 3704,
      "Ġá¾¤": 3705,
      "ĠÎ²ÏģÎ¿": 3706,
      "Ġá¼ĢÎ½Î®": 3707,
      "ĠÎĵÏģÎ±ÏĨ": 3708,
      "Î¬Î»Îµ": 3709,
      "ĠÏĢÏģÎ¿Î·Î³": 3710,
      "Ġá¾Ķ": 3711,
      "ĠÏĢÏģÏĮÏĥÏīÏĢÎ¿Î½": 3712,
      "ÏģÎ¿Ïį": 3713,
      "ÏİÏĦÎ±ÏĦÎ¿Î½": 3714,
      "ÏĦÎµÏģÎ¹Îº": 3715,
      "ĠÏĨÎ·ÏĥÎ¯Î½": 3716,
      "ÏīÎº": 3717,
      "Ġá¼ĢÎ³Î³ÎŃÎ»": 3718,
      "ĠÏĢÏģÏīÏĦÎ¿": 3719,
      "ĠÎľÎ¿Î½": 3720,
      "ÏħÎ¼Î¬ÏĦÏīÎ½": 3721,
      "ĠÎ²Î±ÏĥÎ¹Î»Îµá¿ĸ": 3722,
      "ÏİÏĥá¿ĥ": 3723,
      "Î¼á½´": 3724,
      "ĠÎ½Î¿Ïĥ": 3725,
      "Ġá¼ĢÎ³Î½Î¿": 3726,
      "ĠÎ³Î»ÏħÎº": 3727,
      "ĠÏĢÎ¿Î¹Îº": 3728,
      "ĠÏĦÏĮÎ´Îµ": 3729,
      "ĠÎºÎµÏģ": 3730,
      "Ġá¼ĢÎ¼ÏĨá½¶": 3731,
      "ĠÎ¼Î¿ÏģÏĨ": 3732,
      "Ġ36": 3733,
      "Ġá¼ĲÎºÎºÎ»Î·ÏĥÎ¯Î±ÏĤ": 3734,
      "ĠÎºÎ¿ÏĥÎ¼": 3735,
      "á¿¶Î½Î±ÏĤ": 3736,
      "III": 3737,
      "ĠÏĦÎŃÎºÎ½Î±": 3738,
      "Î¸ÎµÏĦÎ¿": 3739,
      "ĠÎºÏĮÏĥÎ¼Î¿Î½": 3740,
      "ĠÎµá½ĲÏĨ": 3741,
      "ĠÏĢÎ±Î½ÏĦá½¶": 3742,
      "ÏĮÎ¼Î¿ÏĤ": 3743,
      "ĠÏĢÏģÎ¿ÏĬ": 3744,
      "ĠÎ¿á¼°ÎºÎ¿Î½Î¿Î¼": 3745,
      "Ġá¼¸ÏĥÏģÎ±á½´Î»": 3746,
      "ĠÎ²Î±ÏĥÎ¹Î»ÎµÎ¯Î±ÏĤ": 3747,
      "á¿ĨÎ»Î¸Îµ": 3748,
      "ĠÏĥÏħÎ³Ïĩ": 3749,
      "ĠÏĦÎ¿Î¹Î±ÏįÏĦÎ·Î½": 3750,
      "ÏĮÎ¼ÎµÎ½Î±Î¹": 3751,
      "ĠÏĪÎµÏħÎ´": 3752,
      "á½ħ": 3753,
      "ĠÎ³ÏħÎ¼Î½": 3754,
      "ĠÎ¶Ïİ": 3755,
      "Î±ÏģÎ³": 3756,
      "Ġá¼ĲÎ¼ÏĢ": 3757,
      "ĠÎ¼ÎŃÏĥá¿³": 3758,
      "Î¯ÏĥÎº": 3759,
      "Î¹ÎºÎ®": 3760,
      "Î®ÏĥÎ±ÏĥÎ¸Î±Î¹": 3761,
      "Î¿á¿¦Î¼Î±Î¹": 3762,
      "ÏĦá½´Ïģ": 3763,
      "ĠÏĢÎ¯ÏĥÏĦÎ¹Î½": 3764,
      "ĠÎµá¼°ÏĢá½¼Î½": 3765,
      "Îµá¼°": 3766,
      "ĠÎ´Î±Î½": 3767,
      "ĠÎ´ÏħÎ½Î±ÏĦá½¸Î½": 3768,
      "Î¬Î¶ÏīÎ½": 3769,
      "ĠÎµá¼´ÏĢ": 3770,
      "ĠÎ¸Îµá½¸Î½": 3771,
      "Î±ÏģÎ¯Î¿Ïħ": 3772,
      "ĠÎµÎº": 3773,
      "Ġá¾ł": 3774,
      "ÏįÏĥ": 3775,
      "ĠÎ¼Î¬ÏģÏĦÏħ": 3776,
      "ĠÎ´Î¬Îº": 3777,
      "Î¬Î½Î±Î¹": 3778,
      "Î¸ÎŃÏĥÎµÏīÏĤ": 3779,
      "ĠÏĢÎ¿Î»Î»Î¿á¿ĸÏĤ": 3780,
      "ĠÎ¸Î±Î»Î¬ÏĥÏĥÎ·ÏĤ": 3781,
      "ĠÏĢÎ»ÎµÎ¿Î½": 3782,
      "ÏİÎ¼ÎµÎ½Î¿ÏĤ": 3783,
      "ĠÎµá¼µ": 3784,
      "ĠÎ£Î¤": 3785,
      "Ġá¼ĢÏĥÎº": 3786,
      "Î¬ÏĦÏī": 3787,
      "Î»Î¹ÏĢ": 3788,
      "Î³Î½Ïī": 3789,
      "ĠÏĦÎ¿ÏĥÎ¿Ïį": 3790,
      "Î²Î±Ïģ": 3791,
      "ĠÎµá¼¶ÏĢÎ¿Î½": 3792,
      "ĠÎ´Î¹Î¿Î¹Îº": 3793,
      "ĠÏĢÎ¹Îº": 3794,
      "Ġá½łÎ½": 3795,
      "ĠÎ¿Ïħ": 3796,
      "Ġá¼ĲÏĢÎ±Î¹Î½": 3797,
      "ĠÎºÎ»ÎŃ": 3798,
      "ĠâĢĺ": 3799,
      "ĠÎ´Î·Î¼Î¹Î¿ÏħÏģÎ³": 3800,
      "ÏĦÎµÎ»Îµ": 3801,
      "Ġá¼ĲÏĢÎ¹ÏĦÎ·": 3802,
      "Î±Î¹ÏģÎµ": 3803,
      "Ġá¼ĢÏĢÏĮÏĨÎ±": 3804,
      "ĠÎłÎ»": 3805,
      "ÏħÏĦÎ¿á¿¦": 3806,
      "Ġá¼Į": 3807,
      "ĠÎļÏįÏģÎ¹Î¿Î½": 3808,
      "ĠÎ´Î¿ÏįÎ»": 3809,
      "ÏĦá½°ÏĤ": 3810,
      "ĠÏĥÏĦÎ¿Î¹Ïĩ": 3811,
      "ĠÎ¼Î½Î®Î¼": 3812,
      "ĠÎºÏģÎ±ÏĦ": 3813,
      "ÏĨÏģÎ¬": 3814,
      "ÏĢÎ¿ÏħÏģÎ³": 3815,
      "ÏĮÏģÎ¿ÏħÏĤ": 3816,
      "Ġá¼°Î´Îµá¿ĸÎ½": 3817,
      "ĠÏĥÏĨÎ¯": 3818,
      "ĠÎ»Î®": 3819,
      "ĠÏĢÎ¿Î¹á¿ĨÏĥÎ±Î¹": 3820,
      "ÏģÎŃÏĥÎµÏīÏĤ": 3821,
      "ĠÎļÏħÏģÎ¯": 3822,
      "ĠÏĥÏĦÏĮ": 3823,
      "ĠÎ¿á½ĲÎ´Î±Î¼": 3824,
      "ĠÎ¼Î·ÏĩÎ±Î½": 3825,
      "ĠÎ³Î¹Î½ÏİÏĥÎº": 3826,
      "ÏĦÏĦÎ±": 3827,
      "Î¼Î¯Î±": 3828,
      "ÏģÎ¿á½ºÏĤ": 3829,
      "Î¯Î´Î¿ÏĤ": 3830,
      "ĠÏĢÎ»Î¿Ïį": 3831,
      "ÏĥÎ±Î¹ÏĤ": 3832,
      "Ġá½ħÎ»ÏīÎ½": 3833,
      "Ġá¼°Î´Î¿á½º": 3834,
      "ĠÎ±Î½Î±": 3835,
      "ĠÎľÎ®": 3836,
      "Ġá¼ĲÎºÎµÎ¯Î½Î·ÏĤ": 3837,
      "Î³ÏīÎ½": 3838,
      "Î¹ÏĢ": 3839,
      "Ġá¼ĺÎ³á½¼": 3840,
      "Ġá¼µÎ½": 3841,
      "ÏĥÏĦÎ¿á¿¦": 3842,
      "Ġh": 3843,
      "Î´Î±Î½": 3844,
      "Ġá¼¤Î¸ÎµÎ»": 3845,
      "ĠÎ¤ÏģÎ¹": 3846,
      "ĠÏĢÎ¬ÏĥÏĩ": 3847,
      "ÎºÎ¿ÏĥÎ¹": 3848,
      "Î»ÏħÎ¼": 3849,
      "ĠÎ´Î¹Î±ÏĢ": 3850,
      "ĠÎļÎ±Î»Î»": 3851,
      "ĠÏĥÎ±ÏĤ": 3852,
      "ĠÎ¿á½ĲÏģÎ±Î½Î¿á¿¦": 3853,
      "Î»Î¹Î¬": 3854,
      "ĠÏĨÎ¬": 3855,
      "ÏħÏĥÎ¹Î½": 3856,
      "ĠÎµá¼´ÏĢÎµÏģ": 3857,
      "Î¬Î½Î·": 3858,
      "ĠÏĢÏģÎ¿Îº": 3859,
      "ÏĦÎµÎ½": 3860,
      "Ġá¼ĢÎ»Î»Î®Î»ÏīÎ½": 3861,
      "ĠÎ³ÎµÎ½Îµ": 3862,
      "Ġá¼ĢÎ³ÏīÎ½": 3863,
      "ĠÎ½Î¯Îº": 3864,
      "ÏĥÏĦÎ·ÏģÎ¯Î¿Ïħ": 3865,
      "ĠÎļÎ±Ïģ": 3866,
      "ĠÎľÎµÎ½": 3867,
      "Ġá¼ĳÎ²Î´": 3868,
      "ÏĥÎ±Ïģ": 3869,
      "Î»Î¿": 3870,
      "Î¾Î±ÏĥÎ¸Î±Î¹": 3871,
      "ĠÎ§Ïģ": 3872,
      "ĠÏĢÎµÎ»": 3873,
      "Ġá¼ĢÏĨÎ¯": 3874,
      "ĠÎ¾Ïį": 3875,
      "Ġá¼ĲÏĦá¿¶Î½": 3876,
      "ÎµÏĥÎ¹Î½": 3877,
      "Î´ÏĮÎ½": 3878,
      "ÎĻÎĳÎĶ": 3879,
      "ÎµÏĥÎ¸Îµ": 3880,
      "Ġá¼ĲÎ¶": 3881,
      "Î¿Î´Î¹Îº": 3882,
      "ÎµÏįÏĤ": 3883,
      "Ġ38": 3884,
      "ÏĦÎ®ÏĥÎµÏīÏĤ": 3885,
      "ÏĨÎ¸Î·": 3886,
      "ĠÎ±á½ĲÏĦá½°Ïģ": 3887,
      "ÏĥÎ¹á¿¶Î½": 3888,
      "ĠÏĦÎ¬Ïĩ": 3889,
      "ĠÎļá¿¦": 3890,
      "ÏĢÏĦÏī": 3891,
      "ĠÎļÏīÎ½ÏĥÏĦÎ±Î½ÏĦÎ¹Î½": 3892,
      "ĠÎ³ÎµÎ½ÏĮÎ¼ÎµÎ½Î¿ÏĤ": 3893,
      "á¿ĸÎ½Î¿ÏĤ": 3894,
      "ÏĦÎ¹Î½Î±": 3895,
      "25": 3896,
      "ÏĢÎµÎ¼": 3897,
      "ĹÏĦÎ±Î¹": 3898,
      "ÎºÎµá¿ĸ": 3899,
      "ĠÎ¸Îµá¿·": 3900,
      "Î³Îº": 3901,
      "Ġá¿¥Î·": 3902,
      "Ġá¼ĢÎ½ÏīÏĦÎŃÏģÏī": 3903,
      "ÎŃÏĥÏĦÎ±": 3904,
      "Ġá½ķÏĪ": 3905,
      "Ġá¼ĲÎ½á½¶": 3906,
      "ĠÎ±á½ĳÏĦá¿¶Î½": 3907,
      "ĠÎ³ÎŃÎ½ÎµÎ¹": 3908,
      "ÏĥÏĦÎ·ÏĥÎ±Î½": 3909,
      "ÏĦÎ¿á¿ĸÏĤ": 3910,
      "ĠÎ²Î¿ÏįÎ»": 3911,
      "ĠÎ³ÎŃÎ½Î·ÏĦÎ±Î¹": 3912,
      "ĠÏĥÏĦÏĮÎ¼Î±": 3913,
      "ĠÏĢÎ»Î¿": 3914,
      "ĠÎĽÎŃÎ³": 3915,
      "ĠÎ¿á½ĲÎ´ÎŃÎ½": 3916,
      "Îµá¿ĸÎ¿ÏĤ": 3917,
      "Ġá½ĢÎ»Î¹Î³": 3918,
      "Ġá¼ĳÏĢÏĦá½°": 3919,
      "ĠÏĢÎ±ÏģÎ±Îº": 3920,
      "Î»ÎŃÎ¾Î±Î½": 3921,
      "ĠÎ³ÎŃ": 3922,
      "ĠÏĢÏįÎ»": 3923,
      "ĠÎĿÎµ": 3924,
      "Ġá¼ĦÎ»Î»Î·": 3925,
      "ĠÎºÏģÎµÎ¯": 3926,
      "ĠÎ»Î¿Î³Î¹ÏĥÎ¼": 3927,
      "Ġá¼ĦÎ³Î³ÎµÎ»": 3928,
      "ĠÎķÎł": 3929,
      "ĠÏĦÎŃÏĥ": 3930,
      "ÎŃÎ»Îµ": 3931,
      "ĠÎĶÎ¹Î¿Î½": 3932,
      "ĠÎ´ÎŃÎ½": 3933,
      "Ġpro": 3934,
      "ĠÎµá¼°ÎºÏĮ": 3935,
      "Î´Î¹ÎºÎ±": 3936,
      "ĠÎ²ÏģÎ±": 3937,
      "ÏĮÎ¼ÏīÎ½": 3938,
      "Ġ37": 3939,
      "ĠÏĥÏĦÎ¬": 3940,
      "ĠÎµá½ĲÎ»Î¿Î³": 3941,
      "Î±á½ĲÏĦ": 3942,
      "ÎĻÎŁÎ¥": 3943,
      "ĠÎ§ÏģÎ¹ÏĥÏĦá¿·": 3944,
      "Ġá¼ĢÏģÎµ": 3945,
      "ÎĻÎŁÎĿ": 3946,
      "ĠÎ´Î¹Î´Î±ÏĥÎºÎ±Î»": 3947,
      "ĠT": 3948,
      "Î²Î¿Î»á½´Î½": 3949,
      "Î½Î¿ÏħÏĤ": 3950,
      "ĠÎ¯": 3951,
      "ĠÎ£Ïĩ": 3952,
      "ĠÎ¼Î¹á¾¶ÏĤ": 3953,
      "Î´ÏģÎ¿Î½": 3954,
      "ÏĢÎ±Î³": 3955,
      "Ġá¼ĲÏĢÎ¹Ïĥ": 3956,
      "ĠÏĢÎ¿Î»Î»á½´Î½": 3957,
      "ĠÎºÎ¹Î½Î´ÏįÎ½": 3958,
      "ĠÎķá¼´": 3959,
      "ĠÏĨÏįÏĥÎ¹ÏĤ": 3960,
      "ÏĪÎ·ÏĨ": 3961,
      "ĠÏĦÏģÎ¹á¿¶Î½": 3962,
      "Î³ÏīÎ³": 3963,
      "Ġá¼ĢÎ´": 3964,
      "Î½Î¹": 3965,
      "ÏģÎ¹Î¬": 3966,
      "ÏĥÎ¼ÎŃÎ½Î¿Î½": 3967,
      "Ġá¼ĲÏĢÎ¿Î¯Î·ÏĥÎµÎ½": 3968,
      "Î±Î¯Î¿ÏħÏĤ": 3969,
      "ĠÎ¤á¿¶Î½": 3970,
      "ĠÏĢÏĦÏīÏĩ": 3971,
      "ĠÏĢÏİ": 3972,
      "ĠÎ¥á¼±Î¿á¿¦": 3973,
      "ĠÏĦÏįÏĢ": 3974,
      "ĠÎ´ÏįÎ½Î±Î½ÏĦÎ±Î¹": 3975,
      "ÏĮÎ´": 3976,
      "ĠÏĢÎ»ÎµÎ¯Î¿Î½": 3977,
      "ĠÏĢÎ±ÏģÎ¸ÎŃÎ½": 3978,
      "ĠÎºÏĦÎ»": 3979,
      "ĠÏĢÎ¿Î¹Î·ÏĦ": 3980,
      "ĠÎ¿á¼°ÎºÎ¿Î´Î¿Î¼": 3981,
      "ÎµÏģÎ¼Î±Î½": 3982,
      "ĠÎľÎ¬Ïģ": 3983,
      "ĠÏĢÎ±ÏģÎ±Î´": 3984,
      "Î¿ÏģÎº": 3985,
      "ĠÎ»Î¬": 3986,
      "ÏħÏĥÎ±Î½": 3987,
      "ÏĥÎ¹Î±ÏĥÏĦÎ¹Îº": 3988,
      "ĠÎ±á¼·Î¼Î±": 3989,
      "Ġá¼ĢÏĩ": 3990,
      "Î¼Î¼Î±": 3991,
      "ÏĥÎ±Î¼ÎµÎ½": 3992,
      "ĠÎ´ÎŃÎ¿Î½": 3993,
      "Ġá¼ĳÏĦÎŃÏģÎ¿Ïħ": 3994,
      "Ġá¼ĲÎ½Î½Î¿": 3995,
      "ĠÎłÎ»Î¬": 3996,
      "ĠÎ¼á¾¶ÏĤ": 3997,
      "Î¿ÏħÎ¼ÎŃÎ½Î·": 3998,
      "ĠÏĦÎ¿ÏĤ": 3999,
      "ĠÎłÎ¿Î»Î»": 4000,
      "Î¸ÎµÎ¹Î±": 4001,
      "ĠÎ²Î»Î±": 4002,
      "Ġá¼ĳÎº": 4003,
      "Ġr": 4004,
      "Ġá¼ĶÏĦÎ¿ÏħÏĤ": 4005,
      "ĠÏĨÎµÏģ": 4006,
      "Î´ÏįÎ½Î±ÏĦÎ¿": 4007,
      "ĠÏĨÎ¯Î»Î¿Î½": 4008,
      "ĠÎ³ÎŃÎ½Î¿Î¹ÏĦÎ¿": 4009,
      "ĠÏĦÎ¹Î½á½²ÏĤ": 4010,
      "Ġá¼ĲÎ»Î»": 4011,
      "ĠÎ¸ÎµÏģÎ±": 4012,
      "ĠÏĢÏģÎ¿ÏĥÎ¸": 4013,
      "ÏĢÎµÏĦÎ±Î¹": 4014,
      "Ġá¼¤Ïģ": 4015,
      "ĠÎ¸Î¬Î»Î±ÏĥÏĥÎ±Î½": 4016,
      "ĠÎ¼ÎµÎ³Î¬Î»Î·Î½": 4017,
      "Î¿á¿¶Î½": 4018,
      "Î¿ÏĦÎŃÏģÏīÎ½": 4019,
      "Ïģá¾¶ÏĤ": 4020,
      "Î¬ÏĦá¿³": 4021,
      "ĠÏĢÎ»ÎµÎ¹": 4022,
      "Î¿ÏħÎ¼ÎŃÎ½Î·ÏĤ": 4023,
      "Ġá¼łÎ¸": 4024,
      "ĠÎ¸ÏģÎ·": 4025,
      "Î½ÎµÎ³": 4026,
      "Ġ50": 4027,
      "Ġá¼ĦÎ¾Î¹Î¿Î½": 4028,
      "ÏĩÎ¿Ïħ": 4029,
      "ĠÎ³ÎµÎ»": 4030,
      "ĠÎ³ÎŃÎ³Î¿Î½ÎµÎ½": 4031,
      "Ġá¼ĢÏĢÎ¿Î¸Î±Î½": 4032,
      "ÏĥÎ¬Î¼ÎµÎ½Î¿ÏĤ": 4033,
      "Î¬ÏĥÏĥ": 4034,
      "Ġá¼ĦÎ½Î±": 4035,
      "á¼¡": 4036,
      "Ġá¼ĢÏĢÎ¿Î´ÎµÎ¹": 4037,
      "Ġá¼ĳÎºÎ¬ÏĥÏĦÎ¿Ïħ": 4038,
      "Î½Î®ÏĥÎº": 4039,
      "ĠÎ´ÎµÎ´": 4040,
      "ÏĢÎ±Î¸": 4041,
      "Ġá¼ĲÏĢÎ¹ÏĩÎµÎ¹Ïģ": 4042,
      "ÎµÏģÎ½Î®": 4043,
      "ĠÏĩÏģÎ¹ÏĥÏĦÎ¹Î±Î½": 4044,
      "Ġá¼ĳÎ±ÏħÏĦÎ¿á½ºÏĤ": 4045,
      "ĠÎ¸ÎµÎ¯Î±ÏĤ": 4046,
      "ĠÎ¿á¼·Î±": 4047,
      "ÏĢÎµÎ¶": 4048,
      "ĠÎĳá¼°Î³ÏįÏĢ": 4049,
      "Ġá½ħÏģ": 4050,
      "Ġá¼ĢÏĢÎ¿ÏĦÎµÎ»": 4051,
      "Î¿Î¼ÎŃÎ½Î±ÏĤ": 4052,
      "ÏĦÎ¹Îºá½¸ÏĤ": 4053,
      "ĠÏĦá¿Ĩ": 4054,
      "ÎµÎ»Î¸á½¼Î½": 4055,
      "ĠÎĻÎĻ": 4056,
      "18": 4057,
      "ĠÏĢÎ±Î½ÏĦÎ¿": 4058,
      "ÏĥÏĥÎ¿Î½": 4059,
      "Ġá¼ĲÎ¸Î½á¿¶Î½": 4060,
      "Î¿ÏħÎ¼ÎŃÎ½Î·Î½": 4061,
      "ÏĮÎ¼Î¿Î½": 4062,
      "ÏĦÎ¿ÏģÎ¿ÏĤ": 4063,
      "Ġá¼ĲÎ½Î±Î½ÏĦÎ¯Î¿Î½": 4064,
      "ÏĢÏĦÎµÎ¹Î½": 4065,
      "ĠÏĢÎ±á¿ĸÏĤ": 4066,
      "Ġá½ģÎ¼Î¹Î»": 4067,
      "Î»Î·ÏĨ": 4068,
      "Ġ39": 4069,
      "ĠÎºÎ±ÏĦÎ±Î²": 4070,
      "ĠÏĢÎ»Î·Î³": 4071,
      "ÏĦÎ¹ÎºÎ®": 4072,
      "ĠÎ¼Î½Î·": 4073,
      "ĠÎ¼Î¹Ïĥ": 4074,
      "Ġá¼ĲÎ½Î¹Î±": 4075,
      "ĠÎµá½ĲÏĦÏħÏĩ": 4076,
      "ÏĦÎµÏĥÎ¸Î±Î¹": 4077,
      "ĠÏĦÎ¬Î»": 4078,
      "ĠÎŁá½ĲÎºÎ¿á¿¦Î½": 4079,
      "Î»Î¯Î±ÏĤ": 4080,
      "ĠÏĨÎ¿Î½": 4081,
      "Î¹Îµ": 4082,
      "ĠÎ¤Î¿Î¹": 4083,
      "ĠÎłÎµÎ»Î¿ÏĢÎ¿Î½": 4084,
      "Î¹ÏĥÎ¼Î±": 4085,
      "Î¿á¿¤á¿¥": 4086,
      "ÏĪÏħÏĩ": 4087,
      "Ġá¼ĶÏĦÎµ": 4088,
      "ĠÎºÏīÎ»Ïį": 4089,
      "ĠÎºÏįÎºÎ»": 4090,
      "ÏĦÎ·ÏĥÎµ": 4091,
      "Ġá¼ĲÏĢÎ¹Î¼ÎµÎ»": 4092,
      "Î½Î¿Î¹Î±Î½": 4093,
      "Ġá¼ĢÏģÏĩá½°ÏĤ": 4094,
      "ÏĦÎ¹ÎºÏĮÎ½": 4095,
      "ĠÎ½ÏĮÎ¼Î¿ÏħÏĤ": 4096,
      "Ġá¼ĳÏĢÎ¿": 4097,
      "ÏįÏģÏīÎ½": 4098,
      "Î¾ÎµÎ¹Î½": 4099,
      "ĠÏĢÎµÏģÎ¹ÏĢÏĦ": 4100,
      "ĠÎµá½Ĺ": 4101,
      "Ġá¼ĢÏģÏĩÎ¹ÎµÏģ": 4102,
      "ĠÎ¤Î¯ÏĤ": 4103,
      "ÏĥÏħ": 4104,
      "ĠÎłÏģÏĮ": 4105,
      "ĠÎºÎ·": 4106,
      "ÏĢÏĢÎ¿ÏĤ": 4107,
      "ÎĳÎº": 4108,
      "ĠÏĨÏģÎ¿Ïħ": 4109,
      "ÏĦÎµÎ»á¿¶ÏĤ": 4110,
      "ÏģÎ·Î³": 4111,
      "ĠÏĢÏģÎ¿ÏĥÎºÏħÎ½": 4112,
      "ÏįÏīÎ½": 4113,
      "ĠÏĢÎ¿Î»Î¯": 4114,
      "ĠÎ¿á½ĲÏĥÎ¯Î±ÏĤ": 4115,
      "ÏĦÎŃÏģÎ¿Ïħ": 4116,
      "ĠÏĢÏĮÎ´Î±ÏĤ": 4117,
      "ĠÎµá¼°ÏĥÎµ": 4118,
      "Ġá¼ĲÎºÎŃÎ»ÎµÏħ": 4119,
      "ĠÎ£Î¿ÏĨ": 4120,
      "Ġá¼ĶÏĦ": 4121,
      "Î´Î¯Î¿Î½": 4122,
      "Ġá¼ĢÏĥÎµÎ²": 4123,
      "ĠÏĦÏħÏģÎ±Î½": 4124,
      "ÏĦÎ·ÏĥÎµÎ½": 4125,
      "âĢľ": 4126,
      "Î¿ÏħÏĥÎ±Î¹": 4127,
      "ĠÎļÎµ": 4128,
      "ĠÏĦÎ¹Î½Î¹": 4129,
      "ĠÎ¼Î¯": 4130,
      "Ġá¼ĲÎºÎµÎ¯Î½á¿³": 4131,
      "ÎĳÎ¤Îĳ": 4132,
      "ĠÎ¸Î½Î·": 4133,
      "ÎŃÏĥÏĦÎµÏģÎ¿Î½": 4134,
      "ĠÎ¼ÎµÎ¹": 4135,
      "Î²Î¿Î»á¿ĨÏĤ": 4136,
      "Ġá¼ĲÎ½Î´": 4137,
      "ĠÎ´ÏħÏĥÏĦ": 4138,
      "ĠÎŀÎµÎ½": 4139,
      "Ġá¼©ÏģÎ±Îº": 4140,
      "Î»Î¯Î±": 4141,
      "Ġá¼ĲÎºÎµá¿ĸÎ½Î¿Î¹": 4142,
      "ĠÎ¼Î±ÏģÏĦÏħÏģ": 4143,
      "Î³Î¹": 4144,
      "ĠÏĢÎ¬Ïģ": 4145,
      "Î¾Î¿Î½": 4146,
      "Ġá¼ĲÎºÎµá¿ĸÎ¸ÎµÎ½": 4147,
      "Î©Î£": 4148,
      "ÏİÎ½ÏħÎ¼": 4149,
      "ÎĽÎĽ": 4150,
      "Ġá¼ĲÏĨÎ±ÏģÎ¼": 4151,
      "ĠÎµá½ĲÏĩÎ±": 4152,
      "Î¿Î´Î¿ÏĤ": 4153,
      "Î¶Ïī": 4154,
      "al": 4155,
      "ÎĳÎ½ÏĦÎ¹": 4156,
      "ĠÎ¸ÎµÏģ": 4157,
      "ĠÏĢÏģÎµÏĥÎ²Ïį": 4158,
      "Ġá¼ĶÎ¿Î¹": 4159,
      "Î¿á¿ĸÎ±": 4160,
      "ĠÏĦÎµÎ»ÎµÎ¹": 4161,
      "ÏħÏĥÎµ": 4162,
      "Ġá¼ĶÎ¼ÏĢÏģÎ¿": 4163,
      "Ġá¼ĲÎ½ÎŃÏģÎ³": 4164,
      "ÏĥÏĦÎ·Î½": 4165,
      "Î¸ÎµÏģ": 4166,
      "Î±Î¹Î½Îµ": 4167,
      "Î¬Î½ÏĦÎµÏĤ": 4168,
      "Î´ÎµÏĩ": 4169,
      "Ġá¼ĲÏĢÎ±ÏģÏĩ": 4170,
      "Ġá¼ĶÎ¾": 4171,
      "ÏĥÎ¸Î±": 4172,
      "Î¬Î»ÎµÎ¹": 4173,
      "Î¬Î¶ÎµÏĥÎ¸Î±Î¹": 4174,
      "ĠÏĢÎ¿Î»ÎµÎ¼Î¯ÏīÎ½": 4175,
      "ĠÎ¿á¼¶Î´Î±": 4176,
      "ÏĥÎ¬": 4177,
      "ĠÎ»ÎŃÎ³Î¿ÏħÏĥÎ¹Î½": 4178,
      "Ġá¼ĢÎ»Î®Î¸ÎµÎ¹Î±Î½": 4179,
      "ĠÎºÎ®": 4180,
      "Ġá½ĦÏĩÎ¹": 4181,
      "ĠÏĮ": 4182,
      "ÎĳÏģÎ¹ÏĥÏĦ": 4183,
      "ĠÎ±á½ĹÏĦÎ±Î¹": 4184,
      "ĠÏĦÎµÎ¸": 4185,
      "Î»Î±Î½": 4186,
      "Ġá¼ĶÎ»Î¸": 4187,
      "Ġá¼ģÎ¼Î±ÏģÏĦÎ¯Î±ÏĤ": 4188,
      "ÎĳÎ¸Î·Î½Î±Î¯ÏīÎ½": 4189,
      "ĠÏĢÎµÏĢÎ¿Î¯": 4190,
      "ÎµÏģÎ³Îµ": 4191,
      "Ġá¿¥á¾³": 4192,
      "ÏĥÎ±ÏĥÎ±": 4193,
      "ÏĥÏĦÏģÎµ": 4194,
      "Ġá¼ĲÎ¾ÎµÎ»": 4195,
      "ĠÏĢÎ¿Î»Î»á½°ÏĤ": 4196,
      "ÏĮÎ»ÏīÏĤ": 4197,
      "ĠÏĪÎ·ÏĨ": 4198,
      "Î¬Î½ÏīÎ½": 4199,
      "ÏĥÏĦÎ·Î¼Î±": 4200,
      "ĠÎ³ÏħÎ½á½´": 4201,
      "ĠÎ¼ÎŃÏĥÎ±": 4202,
      "Ġá¼ĲÎ»ÎŃ": 4203,
      "ĠÏĦÎµÏĥÏĥ": 4204,
      "ĠÎµá½ĲÎº": 4205,
      "ÏģÎ¯Î½": 4206,
      "ÎºÏĦ": 4207,
      "ĠÏĨÏģÏĮÎ½": 4208,
      "Î¿ÏĥÏĦ": 4209,
      "Ġá¼ĶÎ»ÎµÎ³ÎµÎ½": 4210,
      "Ġá¼ĲÎ½ÏĦÎ¿Î»": 4211,
      "ĠÏĢÎ±Ïį": 4212,
      "ĠÎĵÎµÎ½": 4213,
      "Ġá¼¡Î¼ÎµÏģá¿¶Î½": 4214,
      "Î¬Î½ÎµÎ¹": 4215,
      "Ġá½ķÎ´Î±ÏĦÎ¿ÏĤ": 4216,
      "Î¬ÏĥÎ·ÏĤ": 4217,
      "Î¹Î½Î¿Î½": 4218,
      "Ġá¼ĦÏģÎ¸ÏģÎ¿Î½": 4219,
      "ÏĨÏħÎ³": 4220,
      "ĠÎ´Î¿Î¾": 4221,
      "ÏİÎ¼Î±ÏĦÎ¿ÏĤ": 4222,
      "ÏĢÎ¹ÏĥÏĦ": 4223,
      "Ġá¼ĢÏĢÎ¿Î²": 4224,
      "Ġá¼±Î´Ïģ": 4225,
      "Ġá½ĦÎ½ÏĦÎ±ÏĤ": 4226,
      "ĠÏĦÎ¬Î¾Î¹Î½": 4227,
      "Ġá¼ĢÎ»Î·": 4228,
      "ĠÎ´ÏįÎ½Î±Î¼Î¹ÏĤ": 4229,
      "Ġá¼ĲÎºÎµÎ¯Î½Î¿ÏħÏĤ": 4230,
      "Î¼Î±ÏĦ": 4231,
      "ĠÏĥÎ±ÏĨá¿¶ÏĤ": 4232,
      "ĠÎ´Î¹Î´Î±ÏĥÎº": 4233,
      "Î®Î¼Î±ÏĦÎ¹": 4234,
      "Ġá¼ĶÏĩÎ¿ÏħÏĥÎ¹Î½": 4235,
      "ÏĪÎµÎ¹ÏĤ": 4236,
      "ĠÏĦÏī": 4237,
      "ĠÎºÎµá¿ĸÏĦÎ±Î¹": 4238,
      "ĠÎ¼ÎµÏģ": 4239,
      "ĠÏĦÎ¿á¿¦ÏĦÏĮ": 4240,
      "ĠÏĢÏģÎ¿ÎµÎ¹": 4241,
      "ÏģÎµÎ¹Î½": 4242,
      "ĠÎ´Î¹Î±ÏĨÎ¸": 4243,
      "Î¬Î´Îµ": 4244,
      "ĠÎ¼ÎµÎ³Î¯ÏĥÏĦ": 4245,
      "ĠÎ´ÏĮÎ³": 4246,
      "Î¯Î·Î½": 4247,
      "Ġ43": 4248,
      "ĠÎ±ÏĢÎ¿": 4249,
      "Ġá½ĢÏĩ": 4250,
      "ÎķÎ»Î»": 4251,
      "ĠÎ§Î±Î»": 4252,
      "Î´Î¯ÏīÏĤ": 4253,
      "Ġá¼Ĥ": 4254,
      "ĠÎ´Î¹Î±ÏĦ": 4255,
      "ÏĦÎ·ÏĦÎ¿ÏĤ": 4256,
      "ĠÏĦÎ¿ÏĥÎ±Ïį": 4257,
      "ÏĦÎ¶": 4258,
      "ĠÎ¸Îµá¿ĸÎ¿Î½": 4259,
      "ĠÏĦÎµÎ»": 4260,
      "ĠÏĥÎµÎ¼Î½": 4261,
      "Î¯Î¶ÎµÏĥÎ¸Î±Î¹": 4262,
      "ĠÏĢÎ¬ÏĥÎ±ÏĤ": 4263,
      "ĠÎ¤Î±": 4264,
      "Ġá½ħÎ»Î·Î½": 4265,
      "Ġá¼ĲÎ³ÎŃÎ½Î¿Î½ÏĦÎ¿": 4266,
      "Ġá¼ĲÎ»Î¸Îµá¿ĸÎ½": 4267,
      "ĠÎºÏģÎ¬ÏĦÎ¿ÏĤ": 4268,
      "Ġá¼ĶÎ»ÎµÎ³Î¿Î½": 4269,
      "ĠÏĥÏħÎ½Î®Î¸": 4270,
      "Ġá¼ĶÏĩá¿ĥ": 4271,
      "ÏĦá¿ĨÏģÎ¿ÏĤ": 4272,
      "ĠÎķÎ»Î»": 4273,
      "ĠÏĦÏģÎ±Î³": 4274,
      "Î±ÏģÏĩÎ¿ÏĤ": 4275,
      "Î·Î¸á¿ĩ": 4276,
      "ĠÏĥÏĦÏģÎ±ÏĦÎµÏį": 4277,
      "ĠÎĵÎ±Î»Î»": 4278,
      "ÏģÏħÏĨ": 4279,
      "Î·ÏĥÎ¿Î½": 4280,
      "ĠÎµá¼°Î¼Î¹": 4281,
      "ÏĦÎ±Ïģ": 4282,
      "as": 4283,
      "Î·Î¼ÎµÏģ": 4284,
      "ÏĥÏīÎ¼ÎµÎ½": 4285,
      "ĠÎ¸ÎµÎ¿á½ºÏĤ": 4286,
      "Î®ÏĦÎ¿Ïħ": 4287,
      "ÏģÎ¹Îºá¿ĨÏĤ": 4288,
      "ĠÎµá¼°Î´ÎŃÎ½Î±Î¹": 4289,
      "Î¹ÎºÏĮÎ½": 4290,
      "Ġá¼ĲÎ½Îµ": 4291,
      "Ġá¼ĻÎ»Î»Î¬Î´Î¿ÏĤ": 4292,
      "Ġá¼ĺÎºÎºÎ»Î·ÏĥÎ¯Î±ÏĤ": 4293,
      "ĠÎ³ÏģÎ¬": 4294,
      "ĠÎ¶á¿¶": 4295,
      "ĠÎļÎĳÎĻ": 4296,
      "Ġá¼ĲÏĢÎ±Î½Î±": 4297,
      "Ġá¼ħÏĦÎµ": 4298,
      "Î´Î±Î»": 4299,
      "ÏīÎ´": 4300,
      "ĠÎ²ÎµÎ²Î±Î¹": 4301,
      "11": 4302,
      "Ġá¼ĦÏģÎ¹ÏĥÏĦ": 4303,
      "Ġá½ħÎ»Î±": 4304,
      "ĠÎµá¼°Î´ÏĮ": 4305,
      "ĠÏĩÏīÏģÎ¯Î¿Î½": 4306,
      "ĠÎłÎ±á¿¦Î»Î¿ÏĤ": 4307,
      "Ïģá¿¶": 4308,
      "ĠÎĳÎĵ": 4309,
      "ĠÎ¼ÎµÎ¯Î¶Î¿Î½": 4310,
      "ĠÎ¼ÎŃÏģÎ¿ÏħÏĤ": 4311,
      "ĠÏĥÏĦÏģÎ±ÏĦÎ¹Ïİ": 4312,
      "ÏİÎ´Î·": 4313,
      "Î³ÎµÎ»": 4314,
      "ĠÎ²Î±ÏĢ": 4315,
      "Ġá½ĳÏĢÎµ": 4316,
      "ĠÏĦÎ¿á¿¦Î´Îµ": 4317,
      "ĠÏĦÏģÎ¯ÏĦÎ¿Î½": 4318,
      "ÎŃÎ¿ÏĤ": 4319,
      "Î¼Î¿Î½Î±": 4320,
      "ĠÎºÎ±ÏģÎ´Î¯Î±ÏĤ": 4321,
      "ĠÎºÎµÏĨÎ±Î»á½´Î½": 4322,
      "Ġá¼ĢÎ»Î»Î®Î»Î¿Î¹ÏĤ": 4323,
      "ĠÏĥÏħÎ»Î»Î¿Î³": 4324,
      "ĠÏĢÎ±Î¯Î´ÏīÎ½": 4325,
      "ÏĥÎ±ÏįÏĦÏīÏĤ": 4326,
      "ÎĻÎ¤": 4327,
      "Ġá¼ģÎ»": 4328,
      "ĠÎ£Î¹ÎºÎµÎ»": 4329,
      "ĠÏĥÏĢÎ¿ÏħÎ´Î±": 4330,
      "Ġá¼ĢÎºÏģÎ¹Î²á¿¶ÏĤ": 4331,
      "ĠÎ´Î¹ÎºÎ±Î¯ÏīÏĤ": 4332,
      "ĠÎ¿á¼·ÏĮÎ½": 4333,
      "ĠÏĦÎ¿Î»Î¼": 4334,
      "Ġá¼ĿÎ»Î»Î·Î½ÎµÏĤ": 4335,
      "ĠÏĢÏģÎ¿ÎºÎµÎ¹": 4336,
      "ÏĩÎ¸á¿ĩ": 4337,
      "ÏĩÎ·": 4338,
      "ĠÎĶÎ¹á½¸": 4339,
      "ÏĢÎ»Î®": 4340,
      "Ġá¼°Î´Î¯á¾³": 4341,
      "ĠÏĥÎºÎŃ": 4342,
      "ĠÏĥÏĢÎŃÏģ": 4343,
      "Ġá¼ħÏĢÎµÏģ": 4344,
      "Î®Î¸Î·ÏĥÎ±Î½": 4345,
      "ÎĳÎ»": 4346,
      "Î½Ïħ": 4347,
      "ĠÏĨÎ±Î¹Î½": 4348,
      "Ġá½ħÏĢÎ»Î±": 4349,
      "Î¸ÎŃÎ½ÏĦÎ±ÏĤ": 4350,
      "ĠÎļÎ±Î½": 4351,
      "ĠÎ²Î¹Î²Î»Î¯": 4352,
      "Î²Î»": 4353,
      "ĠÎ£ÏīÎºÏģÎ¬": 4354,
      "Î¸Î·ÎºÎµ": 4355,
      "Î¹Îºá½¸ÏĤ": 4356,
      "Ġá¼ĲÎ»ÎµÏį": 4357,
      "ÏĩÎ¹Î»Î»": 4358,
      "ÎºÏĦÎ¿Î½": 4359,
      "Î¯Î½Î·": 4360,
      "ĠÎºÎŃÏģ": 4361,
      "ĠÎ³ÏħÎ½Î±Î¹Îºá¿¶Î½": 4362,
      "ĠÎ¶Ïīá½´Î½": 4363,
      "Î¿Î·": 4364,
      "Ġá¼ĶÎ´Î¿": 4365,
      "ĠÎĺÎµÏĥÏĥÎ±": 4366,
      "ĠÏĦÎ¿Î¹Î±ÏįÏĦÎ·": 4367,
      "ĠÏĥÏħÎ¼ÏĨ": 4368,
      "ĠÏĢÎ½ÎµÏįÎ¼Î±ÏĦÎ¿ÏĤ": 4369,
      "ĠÎĶÎµ": 4370,
      "Ġá¼¤Î¸Îµ": 4371,
      "ĠÏĥÎ¹ÏīÏĢ": 4372,
      "ĠÎ»ÎµÎ¹ÏĦÎ¿ÏħÏģÎ³": 4373,
      "Î¯ÏĥÎ¸Î·": 4374,
      "ÎŃÎ²Î±Î»": 4375,
      "Ġá¼ĢÏĨÎ±Î½": 4376,
      "ĠÏĢÏģÎ¬Î¾ÎµÎ¹ÏĤ": 4377,
      "Î¸ÎµÏĥÎ¹ÏĤ": 4378,
      "ĠÎķá½ĲÏģ": 4379,
      "ĠÎ¼ÎŃÎ¼": 4380,
      "ĠÎ¼ÎµÎ³Î¬Î»Î±": 4381,
      "Î¸á¿Ĩ": 4382,
      "ĠÎºÎµÏĩ": 4383,
      "ĠÎ¼ÎŃÎ³Î±Î½": 4384,
      "ĠÎ´Î¹ÎºÎ±Î¯ÏīÎ¼Î±": 4385,
      "ÏĮÎ½Î¿Î½": 4386,
      "ÎķÎ¤": 4387,
      "ÎĻÎł": 4388,
      "ĠÎĴÏħÎ¶": 4389,
      "Ġá½ĢÎ½ÏĮÎ¼Î±ÏĦÎ¹": 4390,
      "ĠÎĶÎ±Ïħ": 4391,
      "Ġá¼¦Î»Î¸ÎµÎ½": 4392,
      "ÏħÏģÎ¿ÏĤ": 4393,
      "Î¾Î¬Î¼ÎµÎ½Î¿ÏĤ": 4394,
      "Ġ&": 4395,
      "Ġá¼ĢÏĢÎŃÎº": 4396,
      "Î¸ÎµÏĤ": 4397,
      "Ġá¼ĢÏĢÎ±Î³": 4398,
      "á¿¶Î½ÏĦÎ±Î¹": 4399,
      "ĠÎ´ÏĮÎ¾Î±": 4400,
      "Î±Î½ÏĦÎ¿": 4401,
      "Â»,": 4402,
      "ÏĮÏĦ": 4403,
      "Î¯ÏĥÏĦÎ·": 4404,
      "ĠÏĢÎ¬Î¸Î¿ÏĤ": 4405,
      "ĠÎ´ÏīÏģÎµ": 4406,
      "ĠÎ¼Î½Î·Î¼Î¿Î½": 4407,
      "ĠÎ»ÏįÏĢ": 4408,
      "ĠÎ¼Î·Î´ÎµÎ½": 4409,
      "Ġá¼ĢÏĨÎ¹Îº": 4410,
      "ĠÎ´ÏħÎ½Î¬Î¼ÎµÎ¹ÏĤ": 4411,
      "Ġá½ģÎ¼Î¿Î¹": 4412,
      "Îµá¿ĸÏĥÎ±Î½": 4413,
      "Ġá¼°Ïĥ": 4414,
      "ĠÎ³Î¯Î½ÎµÏĥÎ¸Î±Î¹": 4415,
      "ĠÏĢÏģÎŃÏĥÎ²": 4416,
      "ÎºÎ±Î»ÎŃ": 4417,
      "ĠÎĴÎ¿ÏħÎ»": 4418,
      "Î´Î±Î¹Î¼Î¿Î½": 4419,
      "ĠÎ¸ÎµÎ»": 4420,
      "Î±Î¯Î¿Î¹ÏĤ": 4421,
      "ÏīÏĥÎµÎ½": 4422,
      "ÏģÏĮÏĤ": 4423,
      "ĠÎĵÎ±": 4424,
      "ĠÏĢÏģá¿¶ÏĦÎ±": 4425,
      "ĠÎ±Î¹": 4426,
      "ĠÎ³ÎŃÏģ": 4427,
      "ĠÎ¼ÎµÏĦÎŃ": 4428,
      "ÏģÎµÎ½": 4429,
      "Ġá¼ĶÏĦÎµÎ¹": 4430,
      "ĠÎ£Îµ": 4431,
      "Î±Î½ÏĦÎ¯Î¿Î½": 4432,
      "Ġá¼ĶÎ¸Î½Î·": 4433,
      "Î¿ÏģÎ¿ÏĤ": 4434,
      "Î¸Î®ÎºÎ·ÏĤ": 4435,
      "ĠÏĦÎ¯Î½Î±": 4436,
      "ĠÎ¼Î·Î´Îµ": 4437,
      "ĠÏĢÎ¿Î»Î»Î¿á¿¦": 4438,
      "Î¸Î·ÏĤ": 4439,
      "Î¹Î½ÏİÏĥÎº": 4440,
      "Î±Î³Îµá¿ĸÎ½": 4441,
      "ĠÏĩÏģÎµ": 4442,
      "Ġá¼°Î´á½¼Î½": 4443,
      "ĠÏĦÏģÎ¯Î±": 4444,
      "ÏĩÎµÎ¯": 4445,
      "Î¯Î¶ÏīÎ½": 4446,
      "ĠÏĪÏħÏĩá½´": 4447,
      "ĠÎºÏħÎ½": 4448,
      "Î±Î½Î¿á¿¦": 4449,
      "ĠÎ²Î»Î¬": 4450,
      "ĠÎĽÎµ": 4451,
      "Î®ÏĥÎ±Î½ÏĦÎ¿ÏĤ": 4452,
      "ĠÏĢÎ±ÏģÎ±ÎºÎ±Î»": 4453,
      "ĠÎ¤Î¿Ïħ": 4454,
      "Ġá¼¡ÏĥÏħÏĩ": 4455,
      "ĠÏĢÎµÏĥ": 4456,
      "Î¿Î»Î¿Î½": 4457,
      "Î»ÎµÎ¾Î¬Î½": 4458,
      "ĠÎºÎ±Î»ÎŃ": 4459,
      "ĠÎ½ÏħÎºÏĦá½¸ÏĤ": 4460,
      "Î¸ÎŃÏīÏĤ": 4461,
      "Ġá½ħÏĢÎ»": 4462,
      "Ġá¼ĲÎ´ÎŃ": 4463,
      "ÏģÎ¯á¿³": 4464,
      "Ġá¼ĶÎ³ÏģÎ±": 4465,
      "ĠÎ´Î¹ÏĢÎ»": 4466,
      "ÏĢÎ¿Î»Î¹Î½": 4467,
      "ĠÎ¸ÎµÎ¿á¿ĸÏĤ": 4468,
      "Î¿Î»Î±": 4469,
      "ĠÏĥÏĦá½¸": 4470,
      "Ġá¼ĳÏī": 4471,
      "Ġá¼ĶÎ³Î³": 4472,
      "ĠÎºÎ±Î½Î¿Î½": 4473,
      "Ġá¼ĢÎ½Î¸": 4474,
      "ĠÎ´Î¿ÏħÎ»": 4475,
      "Ġá¼ĢÏĢÎ±Ïģ": 4476,
      "ĠÎ§ÎŁ": 4477,
      "Î¿ÏģÎ¿Î½": 4478,
      "ĠÏĦÏģÎ¬": 4479,
      "Ġad": 4480,
      "ÎŃÎ»Î±": 4481,
      "ĠÎ½ÏĮÎ¼ÏīÎ½": 4482,
      "Ġá½ĢÏĢÎ¯": 4483,
      "ĠÏĢÏħÏģá½¸ÏĤ": 4484,
      "á¿¶ÏĦÎ±Î¹": 4485,
      "ĠÎĶÎ±Ïģ": 4486,
      "ĠÎºÎ¿Î¹Î½á½¸Î½": 4487,
      "ĠÏĢÎ±á¿ĸÎ´Î±ÏĤ": 4488,
      "ĠÎľÎ·": 4489,
      "ĠÏĨÎ¯Î»ÏīÎ½": 4490,
      "ÏĩÏīÎ½": 4491,
      "ĠÏĢÏģÎ¿ÏĥÎ±Î³": 4492,
      "ĠÎ¦Î¯Î»Î¹": 4493,
      "ĠÎ±á½ĲÏĦÎ¯ÎºÎ±": 4494,
      "im": 4495,
      "Î¹Îºá½°ÏĤ": 4496,
      "ÏĥÎ¼á½¸ÏĤ": 4497,
      "il": 4498,
      "ĠÎ¼ÎµÎ³Î¬Î»Î·": 4499,
      "ÏĮÏĦÎ±ÏĦÎ¿Î½": 4500,
      "Ġá¼ĲÎ¾Î·Î³": 4501,
      "ĠÏĩÏģá¿Ĩ": 4502,
      "ĠÏĦÎ¹Î½á½°ÏĤ": 4503,
      "Ġá¼´Î´": 4504,
      "Î¿ÏģÎ¯Î±": 4505,
      "á¼ĺ": 4506,
      "ĠÎ´Î¹Î±ÏĨÎŃÏģ": 4507,
      "ĠÏĩÎµÎ¹Î¼": 4508,
      "ÏĮÎ½Î±ÏĤ": 4509,
      "ĠÎ³ÏħÎ½Î±Î¹Îºá½¸ÏĤ": 4510,
      "Î¬ÏĦÎ·ÏĤ": 4511,
      "ÏĮÏĦÎµÏĤ": 4512,
      "ÏĦÎ®Î¼Î±ÏĦÎ±": 4513,
      "ĠÎ¿á½ĲÏģÎ±Î½á½¸Î½": 4514,
      "ÎŃÏĩÎµÏĥÎ¸Î±Î¹": 4515,
      "ÎµÎ¹Ïĥ": 4516,
      "ĠÎŁá½Ķ": 4517,
      "ĠÎ²Î±ÏĥÎ¹Î»ÎµÎ¯Î±Î½": 4518,
      "Ġá½ķÎ²": 4519,
      "ĠÎ»ÎŃÎ³Î¿ÏħÏĥÎ¹": 4520,
      "ĠÎ³ÎµÎ½Î½Î±": 4521,
      "Ġá¼ĲÏĢÎ¿Ïĩ": 4522,
      "ĠÎļÎ¿": 4523,
      "ĠÎ¡ÏīÎ¼Î±": 4524,
      "ÏĩÎ¿ÏħÏĤ": 4525,
      "Ġá¼ĢÏģÏĩÎ±Î¹": 4526,
      "Ġá¼ĳÎºÎ¬ÏĥÏĦá¿³": 4527,
      "ĠÎºÎ±ÏĦÎ¿ÏģÎ¸": 4528,
      "ÎŁÎĶ": 4529,
      "Ġá¼ĦÎ¾Î¹": 4530,
      "ÎĳÎ¸Î·Î½Î±á¿ĸÎ¿Î¹": 4531,
      "Î±ÏģÎ¿ÏĤ": 4532,
      "ĠÎµá½ĲÎ±Î³Î³ÎµÎ»": 4533,
      "ĠÎ¶Î®ÏĦÎ·": 4534,
      "ĠÎ´Î¹ÎºÎ±Î¯Î¿Ïħ": 4535,
      "ĠÎļÏħÎ²": 4536,
      "Î»Î¿Î½ÏĮÏĦÎ¹": 4537,
      "ÏĦÏģÎŃÏĢ": 4538,
      "ĠÎłÎ»Î¬ÏĦÏīÎ½": 4539,
      "ÏĥÎ¯Î¿Ïħ": 4540,
      "Î¼Î±ÏĦÎ¬": 4541,
      "ĠÏĨÎ±Ïģ": 4542,
      "Ġá¼ĢÎºÎ¿Î»Î¿ÏħÎ¸": 4543,
      "Î¼á½¸Î½": 4544,
      "ÎµÎ¯Î¿Î¹ÏĤ": 4545,
      "ĠÎµá½ĲÎµÏģÎ³Îµ": 4546,
      "Î¿ÏįÏĥá¿ĥ": 4547,
      "Î´Î±Î¯": 4548,
      "Ġá¼ĶÎ¼ÏĢÏģÎ¿ÏĥÎ¸ÎµÎ½": 4549,
      "ĠÏĢÏģÎ±": 4550,
      "Î¿ÏħÏĥÎ¯Î±ÏĤ": 4551,
      "Î±Î¯ÏģÎµ": 4552,
      "Î±Î½ÏĦÎ¯Î±": 4553,
      "ÏĢÏĦÎ¿Ïħ": 4554,
      "ĠÎĸÎµá½ºÏĤ": 4555,
      "Ġá½ĢÎ½Î¿Î¼Î±": 4556,
      "ĠÎºÏħÏģÎ¯ÏīÏĤ": 4557,
      "ÏĥÏĦÏīÎ½": 4558,
      "ĠÏĥÏĩÎŃ": 4559,
      "Ġá¼ĢÏģÏĩá½´": 4560,
      "ÏĦÏĦÏī": 4561,
      "ĠÎ³ÎµÎ½Î½": 4562,
      "ĠÎ¤Î¿": 4563,
      "ĠÎļÎķÎ¦": 4564,
      "Î¹Î¼Î±": 4565,
      "ĠÏħá¼±Î¿á¿¦": 4566,
      "ÏĦÎ¬ÏĤ": 4567,
      ".Â»": 4568,
      "ÎºÎ¿Î¹": 4569,
      "Ġ48": 4570,
      "ÏĥÎ¯ÏīÏĤ": 4571,
      "ĠÏĥÏīÎ¼Î±": 4572,
      "ÎŃÏģÎ¿ÏĤ": 4573,
      "Î£Î¤": 4574,
      "ÏħÎ´": 4575,
      "Ġá¼¸Î¿ÏħÎ´Î±Î¯ÏīÎ½": 4576,
      "Ġá¼ĢÏģÎ¯": 4577,
      "Ġá¼ĦÎ½ÏīÎ¸ÎµÎ½": 4578,
      "ÏĦÎ·ÏĦÎ±": 4579,
      "ĠÎ±á¼°ÏĦÎ¯Î±ÏĤ": 4580,
      "ĠÎºÏİ": 4581,
      "ĠÎµÏĢÎ¹": 4582,
      "ĠÎ¼ÎµÎ³Î¬Î»Î¿Ïħ": 4583,
      "Ġá¼ĶÎ³Î½Ïī": 4584,
      "Î¯Î´Î·ÏĤ": 4585,
      "ÎĳÏĨ": 4586,
      "ec": 4587,
      "Ġá½ĤÎ½": 4588,
      "ÏĮÏĦÏīÎ½": 4589,
      "Ġá¼ĢÎ½Î±Î³ÎºÎ±á¿ĸÎ¿Î½": 4590,
      "ÏģÎ±ÏĢÏĦÎ±Î¹": 4591,
      "ÏĦá½´ÏĤ": 4592,
      "á¾´": 4593,
      "ÎķÎľ": 4594,
      "ĠÎ³Î¹Î³Î½": 4595,
      "Ġá¼ĢÎ¼ÏĨÎ¿ÏĦÎŃÏģ": 4596,
      "ĠÎļÏīÎ½ÏĥÏĦÎ±Î½ÏĦ": 4597,
      "Î¹ÏĥÏĩ": 4598,
      "ĠÏĦÎµÏĩÎ½": 4599,
      "ĠÎ¤á¿·": 4600,
      "ĠÏĢÎ¿Î½Î·": 4601,
      "ĠÏĦÎµÏĤ": 4602,
      "ĠÎºÎ¯Î½Î´ÏħÎ½": 4603,
      "Ġá¼ĦÎ»Î»Î±ÏĤ": 4604,
      "ĠÎ¿á½ĲÏĥÎ¯Î±Î½": 4605,
      "ÏĦÎ·Î¼Î¬ÏĦÏīÎ½": 4606,
      "Ġá¼ĲÎºÎµá¿ĸÎ½Î±": 4607,
      "ĠÎµá¼°Îºá½¸ÏĤ": 4608,
      "Î»Î¹Î±": 4609,
      "ĠÎ»Î¹Î¼": 4610,
      "ĠÏĦÎµÎ»ÎµÎ¯": 4611,
      "Î¿ÏĨá¿¶Î½": 4612,
      "ĠÎºÎ±Î»á½°": 4613,
      "ĠÏĦÏĮÏĥÎ¿Î½": 4614,
      "ÎŃÎ»ÎµÎ¹Î±Î½": 4615,
      "ĠÏĥÎ¹Î³": 4616,
      "ÏĥÎ´Îµ": 4617,
      "Ġá¼ĲÎ³Î³ÏģÎ¬ÏĨ": 4618,
      "Ġá¼ĲÎ¾Î¿ÏħÏĥÎ¯Î±Î½": 4619,
      "Ġá¼ĢÎ´ÏįÎ½Î±ÏĦÎ¿Î½": 4620,
      "ĠÎ£Îº": 4621,
      "ĠÏĩÎµá¿ĸÏģÎ±": 4622,
      "Ġá¼ĢÎµÎ¯": 4623,
      "Ġ44": 4624,
      "ĠÎ³á¿ĩ": 4625,
      "Ġá¼ĢÏģÎµÏĦá½´Î½": 4626,
      "Î¯Î´Î±ÏĤ": 4627,
      "ĠÎļÎ»Îµ": 4628,
      "Ġá¼ĪÎ»Î»á½°": 4629,
      "Ġá¼ĲÏĥÏĦÎ¯": 4630,
      "ÏĦÏģÎ¹Î²": 4631,
      "ÏĥÎ¯ÏīÎ½": 4632,
      "ÎĳÎ¼": 4633,
      "Ġá¼ĦÏĢÎµÎ¹": 4634,
      "Ġá¼ĲÏĢÎ¹Î³": 4635,
      "ĠÎ¼Î®ÏĦÎ·Ïģ": 4636,
      "ĠÏĢÎ»Î·ÏģÏī": 4637,
      "ĠÏĢÏģÏİÏĦÎ·Î½": 4638,
      "Î¯Î·ÏĤ": 4639,
      "ĠÏĩÏģÎ·ÏĥÏĦ": 4640,
      "á¿¶ÏĦÎ±": 4641,
      "Ġá½ĳÏĢÎ¿ÏħÏģÎ³": 4642,
      "Î¬Î³ÎµÏĦÎ±Î¹": 4643,
      "ĠÎºÎ¿Î½": 4644,
      "ÏįÏģÎ¹Î¿Î½": 4645,
      "Î¬Î½Î¿Ïħ": 4646,
      "ÏĥÎºÎ¿Î½": 4647,
      "Î¼Î²ÏģÎ¯Î¿Ïħ": 4648,
      "Î¬Î½ÏĦÎ±": 4649,
      "Ġá¼ĢÏĢÎ¿ÏĨÎ±": 4650,
      "Î¸Îµá¿ĸÏĥÎ±": 4651,
      "ÏĥÎ¼ÎŃÎ½Î¿ÏĤ": 4652,
      "Ġá¼ĲÎ½ÎŃ": 4653,
      "ĠÏĨÎ¹Î»Î±Î½": 4654,
      "ĠÏĢÏħÎº": 4655,
      "Î¾Î·": 4656,
      "ĠÎ²Î±Î»": 4657,
      "ĠÎ±á¼´ÏĦÎ¹Î¿Î½": 4658,
      "Ġá¼ĢÎ»Î·Î¸á¿Ĩ": 4659,
      "Î»Î®Î¸Î·": 4660,
      "Ġá¼ĶÏĨÎ±": 4661,
      "Ġ46": 4662,
      "Î¿ÏģÎ³": 4663,
      "ÏĢÏģÎ¬": 4664,
      "ĠÎ´Î·Î»Î¿Î½ÏĮÏĦÎ¹": 4665,
      "ĠÏĩÏģÎ¿Î½": 4666,
      "Ġá¼°Î´Î¯Î±Î½": 4667,
      "Î±Î³Î³ÎŃÎ»": 4668,
      "Ġá¼¦Î»Î¸Î¿Î½": 4669,
      "ĠÎ¸Î¬": 4670,
      "Î¥Î¤": 4671,
      "ĠÏĦÎ¿Î¹Î±ÏįÏĦÎ·ÏĤ": 4672,
      "ĠÏĢÏĮÎ»ÎµÏīÎ½": 4673,
      "ĠÏĢÏģÎ¬Î³Î¼Î±ÏĦÎ¿ÏĤ": 4674,
      "ÏĥÏĦÎ·ÏĤ": 4675,
      "ÎºÎµÎ¹Î½": 4676,
      "Î²Î±Î»Îµ": 4677,
      "ĠÎļÎ±Î¹": 4678,
      "ĠÎ¥á¼±á½¸ÏĤ": 4679,
      "ĠÏĢÏģÎ¿Îµ": 4680,
      "Î¿Î¯á¾³": 4681,
      "ĠÎ²Î¿ÏįÎ»ÎµÏĦÎ±Î¹": 4682,
      "Î¸á½²Î½": 4683,
      "ÏİÏĥÎ±ÏĤ": 4684,
      "ĠÎµÎ¯": 4685,
      "ÏĥÎ±Î¯": 4686,
      "ĠÎºÎ»Î®": 4687,
      "ĠÏĥÎŃ": 4688,
      "ÏĦá¿ĩ": 4689,
      "ĠÏĢÎŃÏģÎ¹": 4690,
      "Ġá¼ĶÏĥÏĦÏī": 4691,
      "ĠÏĨÎ¿Î²ÎµÏģ": 4692,
      "ĠÎ³ÎŃÎ½Î¿ÏħÏĤ": 4693,
      "ĠÎ´Î¹Î´Î¬Ïĥ": 4694,
      "ĠÎ»Î±á½¸ÏĤ": 4695,
      "Ġá¼±ÎµÏģá½¸Î½": 4696,
      "ĠÎ³ÎµÎ³ÏģÎ±Î¼": 4697,
      "ĠÏĢÎ»Î¿Ïħ": 4698,
      "Ġá¿¥Î®": 4699,
      "ÏĥÏīÏĥÎ¹": 4700,
      "Ġá¼ĢÏĢÎ¿Î»Î¿Î³": 4701,
      "Î¯Î½Î±": 4702,
      "á¿ĸÏĦÎ±Î¹": 4703,
      "ÏħÏĥÎ¹": 4704,
      "Ġá¼ĲÎ³ÎµÎ½": 4705,
      "Ġá½ĳÏĢá¿ĨÏģÏĩ": 4706,
      "ÏİÏģ": 4707,
      "ĠÏĦÎ·Ïģ": 4708,
      "ÏĪÏī": 4709,
      "Ġá¼ĲÏĢÎ¹Î³ÏģÎ±ÏĨ": 4710,
      "Ġá¼ĦÏģÎ¸ÏģÎ¿Ïħ": 4711,
      "Ġá¼łÎ¾": 4712,
      "ÏīÎ»": 4713,
      "Î´Î¹Î¿ÏĤ": 4714,
      "ÏİÎ½ÏĦÏīÎ½": 4715,
      "Ġá¼ĢÏĨÎ¿á¿¦": 4716,
      "ÎŃÎ½ÏĦÎµÏĤ": 4717,
      "ÎºÎ±Î¼ÎµÎ½": 4718,
      "Î¿ÏħÎ»Î¯Î¿Ïħ": 4719,
      "Ġá½ĦÏĪÎ¹Î½": 4720,
      "ĠÎľÎµÎ»": 4721,
      "ĠÎµá¼°ÎºÏĮÏĦÏīÏĤ": 4722,
      "ĠÎ¼ÏĮÎ»Î¹ÏĤ": 4723,
      "12": 4724,
      "ĠÏĨÎ¯Î»Î¿ÏĤ": 4725,
      "ĠÏĢÎ±á¿ĸÎ´ÎµÏĤ": 4726,
      "Ġá½ĳÎ³Î¹": 4727,
      "ĠÎ£Ïį": 4728,
      "ÏģÎµÏĥ": 4729,
      "Ġá¼ĲÎ»ÏĢ": 4730,
      "30": 4731,
      "Ġá¼ĶÏĢÎ±": 4732,
      "Ġá½ĦÏģÎ¿ÏĤ": 4733,
      "Ġá½ĦÎ½ÏĦÏīÏĤ": 4734,
      "ÎŁÎ¤": 4735,
      "ĠÏĨÎŃÏģÎµÎ¹": 4736,
      "Ġá¼ĢÎ½ÏĦÎ±": 4737,
      "ĠÎ¼Î¿Î½Î±Ïĩ": 4738,
      "Ġá¼ĢÎ»Î·Î¸Î¹Î½": 4739,
      "ĠÏĥÎ¯": 4740,
      "ÏħÏĩÎ½": 4741,
      "Î¿ÏģÎ¸": 4742,
      "Î»Î»Îµ": 4743,
      "ĠÏĦÎ¹Î¼ÏīÏģÎ¯": 4744,
      "Î¿ÏħÎ¼ÎŃÎ½Î¿ÏħÏĤ": 4745,
      "Î¿ÏģÎ¹ÏĥÎ¼": 4746,
      "ĠÎºÎ±Îºá½°": 4747,
      "ĠÎ´Î¹Î¬Î½": 4748,
      "Î¿Î³ÏģÎ¬ÏĨ": 4749,
      "ĠÎ½Î¿Î¼Î¿Î¸Îµ": 4750,
      "Ġá¼ĲÎ¸Îµ": 4751,
      "Ġá¼ĶÏĩÎ¿ÏħÏĥÎ±": 4752,
      "ĠÎķá½Ķ": 4753,
      "ÎŁÎ¡ÎŁÎ£": 4754,
      "ĠÎ¼Î·ÏĦÏģ": 4755,
      "Î¼Î±Î¸": 4756,
      "Î±Î¹Î±": 4757,
      "ĠÎ£ÏĢ": 4758,
      "ĠÎ¿á¼°ÎºÎ¯Î±ÏĤ": 4759,
      "Ġá¼ĶÏĩÎµÎ¹ÏĤ": 4760,
      "Ġá¼ĲÎ»Î¸á½¼Î½": 4761,
      "Ġá¼ĲÏĦÎµ": 4762,
      "ĠÎ´Î·Î»Î¿á¿ĸ": 4763,
      "ĠÏĦÎ¹Î½ÏīÎ½": 4764,
      "ĠÏĢÎ¿Î»Î»á¿ĨÏĤ": 4765,
      "Ġá½łÏĨ": 4766,
      "ÏĮÎ½Î±Î¹": 4767,
      "ÏĮÎ½Î¿Ïħ": 4768,
      "ÏĦÎŃÏģÏī": 4769,
      "Î»Î·ÏĥÎ¹Î½": 4770,
      "ÏĦÎµÏħÎ¼Î±": 4771,
      "ÏĥÏĦÎµÏģ": 4772,
      "ĠÎ³ÎµÏīÏģÎ³": 4773,
      "ĠÎ³Î¹Î±": 4774,
      "ĠÎµá¼´ÎºÎ¿ÏĥÎ¹": 4775,
      "ĠÏĦÎ¹Î½á½¶": 4776,
      "14": 4777,
      "Ġá¼ĢÏĢÎŃÎ¸Î±Î½": 4778,
      "Î¯Î½Ïī": 4779,
      "ĠÎºÏįÏģÎ¹Î¿Î½": 4780,
      "Ġá¼ĲÎºÎµÎ¯Î½Î¿Î¹ÏĤ": 4781,
      "ĠÏĢÎ±ÏģÎŃÏĩ": 4782,
      "ĠÎ¥á¼±á½¸Î½": 4783,
      "ĠÎ£Ïİ": 4784,
      "ĠÎ¤á¿ĨÏĤ": 4785,
      "ĠÎĿÎ±": 4786,
      "Î¿á¿ĸÎ¿": 4787,
      "ĠÎ´Î¯Î´Ïī": 4788,
      "ÏĥÎ¼Î¬ÏĦÏīÎ½": 4789,
      "ĠÏĨÎ¯Î»Î¿ÏħÏĤ": 4790,
      "ĠÎłÏģÏī": 4791,
      "ĠÏĢÎ¿ÏģÎµÏį": 4792,
      "ĠÎµá½ĲÎ³ÎµÎ½": 4793,
      "ĠÏĢÏģÎ¿Î¸ÏħÎ¼": 4794,
      "ĠÎłÎ¬": 4795,
      "Î±Î»Î±Î¹": 4796,
      "ÏĢÎµÏģÎ¹": 4797,
      "ÏĥÏĥÎµ": 4798,
      "Î¸ÎµÏĦÎ±Î¹": 4799,
      "Ġá¼ĳÎºÎ±ÏĦá½¸Î½": 4800,
      "Î¬Î³ÏīÎ½": 4801,
      "ĠÏĥÏīÏĦÎ·ÏģÎ¯Î±ÏĤ": 4802,
      "ĠÎ²Î¿ÏħÎ»ÎµÏį": 4803,
      "ĠÎĶÎ·Î¼Î¿": 4804,
      "Î´ÏħÎ½ÎµÏį": 4805,
      "ĠÎķá¼¶ÏĦÎ±": 4806,
      "Ġá¼ĲÏĢÎ¿Î¯Î·ÏĥÎµ": 4807,
      "Ġá½ģÏĢÎ¿á¿ĸÎ±": 4808,
      "ĠÏĦÎ±ÏĤ": 4809,
      "Î¿ÏįÎ¼ÎµÎ½Î±": 4810,
      "ĠÎ½Î¿Î¼Î¯": 4811,
      "Ġá¼ĲÎ³ÎºÎ±": 4812,
      "ĠÎłÎ±ÏģÎ±": 4813,
      "ĠÏħá¼±Î¿á½¶": 4814,
      "Ġ47": 4815,
      "ĠÎºÎ±Î¹Ïģá¿·": 4816,
      "Î®ÏĥÎ¿Î¼ÎµÎ½": 4817,
      "ĠÎ±á¼°ÏĩÎ¼Î±": 4818,
      "ÏİÎ½Î¹Î¿Î½": 4819,
      "Ġá¿¥Î·ÏĦ": 4820,
      "Ġá¼ĢÎ¼ÏĨÎ¹": 4821,
      "Î¿ÏįÎ´Î±": 4822,
      "Î¹ÎºÎ¬": 4823,
      "Î´Î®ÏĢÎ¿ÏĦÎµ": 4824,
      "ĠÏĢÎµÏĨ": 4825,
      "ÎŃÏĥÎ¸Ïī": 4826,
      "ĠÎ¼á½°": 4827,
      "ĠÎ¾ÎµÎ½": 4828,
      "ÏĥÎ¹Î¼Î¿Î½": 4829,
      "Î¯Î·": 4830,
      "ĠÏĢÏģÎ¬ÏĦÏĦÎµÎ¹Î½": 4831,
      "ĠÏĥÏĦÎŃ": 4832,
      "ĠÎļÏīÎ½ÏĥÏĦÎ±Î½ÏĦÎ¹Î½Î¿Ïħ": 4833,
      "ĠÎµá¼¶Î´Î¿Î½": 4834,
      "ĠÎ£ÏĦ": 4835,
      "Î¹Ïİ": 4836,
      "Î¿Î¹Î¼": 4837,
      "ÏĦÎ¿ÏģÎ±": 4838,
      "ĠÎ½ÎµÎ½": 4839,
      "Î»ÎŃÎ¿ÏħÏĤ": 4840,
      "ĠÎ¼Î¬Î½": 4841,
      "Î¿Î¹Ïī": 4842,
      "ÎŃÏĥÏīÏĤ": 4843,
      "Î²Î»Î·": 4844,
      "Ġá¼ĢÎ¸Î±Î½": 4845,
      "ĠÎĵÎµÏģÎ¼Î±Î½": 4846,
      "Ġá½ģÏĢÎ¿á¿¦": 4847,
      "ÏĢÏĮÎ»ÎµÎ¹": 4848,
      "Î¼Îµá¿ĸÏĤ": 4849,
      "ĠÎ¿á½ĲÎ´ÎµÎ½á½¸ÏĤ": 4850,
      "ĠÎľÎ±ÎºÎµ": 4851,
      "ĠÏĢÏģÎ¿ÏĥÏĦÎ±": 4852,
      "ĠÏĥÏħÎ¼ÏĨÏīÎ½": 4853,
      "Î¼ÏĮÎ½ÏīÎ½": 4854,
      "ÏĥÎºÎ¿ÏĢÎ¿ÏĤ": 4855,
      "ĠÎłÎ±ÏĦÎŃÏģÎ±": 4856,
      "Ġá¼ĢÏģÏĩÎ±": 4857,
      "Î®Î»Î¿Ïħ": 4858,
      "Î¥ÎĿ": 4859,
      "ĠÎ´ÏħÏĥÏĦÏħÏĩ": 4860,
      "ĠÏĢÏģÎ¿ÏĥÏİÏĢÎ¿Ïħ": 4861,
      "Ġá½ĪÎ´ÏħÏĥ": 4862,
      "Î¿Î³Î¿Î½": 4863,
      "Ġá¼ĶÏĩÎ¿Î¼ÎµÎ½": 4864,
      "ĠÏĦÏģÎŃ": 4865,
      "ÎķÎĻÎĳÎ£": 4866,
      "Î·ÏĥÎ±": 4867,
      "Ġá¼ĢÏĢÏĮÎ´ÎµÎ¹": 4868,
      "Î´Î±ÏĢ": 4869,
      "ĠÏĦÎŃÏģ": 4870,
      "Î¾Î±Î½ÏĦÎ¿": 4871,
      "ĠÎºÏģÎ¯Î½": 4872,
      "Ġ55": 4873,
      "Ġá¼ĳÎ±ÏħÏĦÎ¿á¿ĸÏĤ": 4874,
      "Î¼ÎµÏģ": 4875,
      "ÏĦÎ®ÏģÎ·": 4876,
      "ĠÏĩÎ¿ÏģÎ·Î³": 4877,
      "á¿¶Î½ÏĦÎµÏĤ": 4878,
      "ĠÏĦÎ¹Î¼ÏīÏģ": 4879,
      "ÏĨÎ±Î»Î±": 4880,
      "ĠÎ¤ÏĮÏĦÎµ": 4881,
      "Î®Î½Î·": 4882,
      "19": 4883,
      "Î¬Î»Î¿Ïħ": 4884,
      "ĠÎºÎµÏĨÎ±Î»á¿ĨÏĤ": 4885,
      "ĠÎ¤Î·": 4886,
      "ĠÎ½ÏĮÎ¼á¿³": 4887,
      "ĠÎ³ÎŃÎ³Î¿Î½Îµ": 4888,
      "ĠÎŁÎ´ÏħÏĥ": 4889,
      "ĠÎ¿á½ĲÎ´ÎŃÎ½Î±": 4890,
      "Î¬Î³Î¼Î±ÏĦÎ¿ÏĤ": 4891,
      "ĠÏĢÎ±á¿ĸÎ´Î±": 4892,
      "ÎŃÎ»Î·": 4893,
      "Î¿á¿¦ÏĥÎ¸Î±Î¹": 4894,
      "ĠÎ½Î±á¿¦ÏĤ": 4895,
      "Î¬Î»Ïħ": 4896,
      "Ġ42": 4897,
      "ĠÎ»ÎµÏĢ": 4898,
      ".âĢľ": 4899,
      "ĠÏĥÎ¬ÏģÎºÎ±": 4900,
      "ÎĳÎĵ": 4901,
      "á¿ĥÏĥÎ¹": 4902,
      "Ġá¼ĢÎ½ÏĦ": 4903,
      "ĠÎ¿á½ĸÏĥÎ±Î½": 4904,
      "ÏĨÎµÎ¹": 4905,
      "ĠÎ¼ÎŃÎ³Îµ": 4906,
      "Î²Î¬Î»Î»ÎµÎ¹": 4907,
      "ÎµÎ½ÏĦÎ±": 4908,
      "ĠÏĥÎºÎ»Î·": 4909,
      "ĠÏĥÏįÎ³": 4910,
      "ĠÎĴÎ±Î²": 4911,
      "ĠÎ¿á½ĸÏĥÎ±": 4912,
      "Ġá¼ĶÎ»ÎµÎ³Îµ": 4913,
      "Î»Î»Î±Î³": 4914,
      "Ġá¼ĶÎ¸Î½Î¿ÏĤ": 4915,
      "ÏĢÎ±Î¹": 4916,
      "Ġá½¡ÏģÎ±": 4917,
      "ĠÎµÎ¹ÏĤ": 4918,
      "Ġá½ĳÏĢÎŃÏģ": 4919,
      "ĠÎµá¼°ÏģÎ®Î½Î·Î½": 4920,
      "ĠÏĨÏħÎ»": 4921,
      "Ġá½ĳÎ²": 4922,
      "Î¶ÏĮÎ¼ÎµÎ½Î¿ÏĤ": 4923,
      "ĠÏĥÏħÎ¼ÏĨÎ¿Ïģ": 4924,
      "ÎĳÎ¸Î®Î½": 4925,
      "ĠÎºÎ±ÏģÎ´Î¯Î±Î½": 4926,
      "ÏĦÎµÏģÏĮÎ½": 4927,
      "ĠÎ½Î¿Ïħ": 4928,
      "ĠÎļÎ¬": 4929,
      "ĠÏĢÎ±ÏģÎµÎº": 4930,
      "ĠÎ½ÎµÎ±Î½": 4931,
      "ĠÏĥÏİÎ¼Î±ÏĦÎ¹": 4932,
      "Ġá¼ĪÎ½": 4933,
      "ÎĳÎļ": 4934,
      "Ġ49": 4935,
      "ĠÎ³ÎµÎ½Î½Î·": 4936,
      "ĠÎ´Î¹ÎµÎ¾": 4937,
      "ĠÏĦÎ¬ÏĩÎ±": 4938,
      "16": 4939,
      "ĠÏĢÎ¿Î»Î¹ÏĦÎµÎ¯Î±ÏĤ": 4940,
      "ĠÏĢÎ»Î·Î¸": 4941,
      "ÏĥÎ¯Î»ÎµÎ¹": 4942,
      "ĠÏĢÎµÎ¹Î¸": 4943,
      "ĠÎ±á½ĲÏĦÎ±á¿ĸÏĤ": 4944,
      "ĠÎ¤ÎĹÎ£": 4945,
      "ĠÎ±á¼°Î´": 4946,
      "Î¯ÏĦÎ·ÏĤ": 4947,
      "ĠÎ´Î¹ÎµÎ»": 4948,
      "ĠÎ³ÏħÎ½Î±á¿ĸÎºÎµÏĤ": 4949,
      "ĠÏĥÏĦÏģÎ±ÏĦÎ¿": 4950,
      "Ġá¼®": 4951,
      "Ġá¼ĳÎ»": 4952,
      "á¾¶ÏĦÎ¿": 4953,
      "Î¹Îºá¿ĩ": 4954,
      "ÏģÎ¬Îº": 4955,
      "Ġá¼ķÏĦÎµÏģÎ¿ÏĤ": 4956,
      "ĠÎĽÏħÎº": 4957,
      "Ġá¼ĦÏĨ": 4958,
      "ĠÎķÎĿ": 4959,
      "ĠÏĦÏģÎ¹Î¬ÎºÎ¿Î½ÏĦÎ±": 4960,
      "Ġá¼°Î±ÏĦÏģ": 4961,
      "ĠÎºÎ±Î¼": 4962,
      "ĠÎ¸ÎµÏīÏģÎ¯": 4963,
      "Î²Îµ": 4964,
      "Ġá¼ĢÏĢÎ¹": 4965,
      "ÏİÎ¼Î·ÏĤ": 4966,
      "ĠÏĦÏħÏĨ": 4967,
      "Ġá¼ĢÎ½Î±ÏĨÎŃÏģ": 4968,
      "ĠÎļÏģÎ¬": 4969,
      "Î´Î¯á¾³": 4970,
      "ĠÎĳÎł": 4971,
      "Ġá¼ĢÎ½Î¬Î³ÎºÎ·ÏĤ": 4972,
      "ÏĦÎŃÏģÎµÏĤ": 4973,
      "Ġá½ģÏĢÎ¿Î¯Î±ÏĤ": 4974,
      "ĠÏĦÎ¬ÏĨ": 4975,
      "ĠÏĢÏģÎ¿Î»": 4976,
      "Ġá¼¤Î³Î¿ÏħÎ½": 4977,
      "ĠÎķÎ¡": 4978,
      "ĠÎ²ÏīÎ¼": 4979,
      "Î´Î¯Î¿Ïħ": 4980,
      "Î®ÏĥÎ±Î¹": 4981,
      "ĠÎ±á¼°á¿¶Î½Î¿ÏĤ": 4982,
      "ĠÏĦÎŃÎ»ÎµÎ¹": 4983,
      "ÏīÎ¼Î¬ÏĦÏīÎ½": 4984,
      "ĠÏĢÎ¹Î¸Î±Î½": 4985,
      "ÏīÎ³Îµ": 4986,
      "ÏģÎ¹ÏĥÏĦÎ±": 4987,
      "Ġá¼ĲÎºÎ»Î¿Î³": 4988,
      "ĠÎ¸ÎµÎ¿á½¶": 4989,
      "ĠÎ±á¼±ÏģÎµ": 4990,
      "ĠÎ½ÎµÏī": 4991,
      "ĠÎ¼Î±ÏģÏĦÏħÏģÎ¯": 4992,
      "Ġá¼ĲÎ¬Î½": 4993,
      "Î¿Î¹ÏĦ": 4994,
      "Ġá¼ĲÏĢÎ¹ÏĥÎºÏĮÏĢ": 4995,
      "ÏĮÏĦÎµÏģÎ¿Î¹": 4996,
      "ĠÎ¦ÎĻÎĽ": 4997,
      "ĠÏĥÏĩá¿ĨÎ¼Î±": 4998,
      "ĠÏĨÏīÎ½á½´Î½": 4999,
      "Ġá¼łÎ½": 5000,
      "ÏĮÎ»Î±": 5001,
      "ĠÎķÎļ": 5002,
      "ÏħÎ¼ÏĨ": 5003,
      "Î²Î¹": 5004,
      "Ġá¼ķÎ»": 5005,
      "Ġá½Į": 5006,
      "ÎµÎ¯Î±Î¹ÏĤ": 5007,
      "ĠÎºÎ±Î¸Î®": 5008,
      "ĠÎ´Î·Î¼Î¿ÏĥÎ¹": 5009,
      "ĠÏĦÎ¿ÏħÏĦÎŃÏĥÏĦÎ¹": 5010,
      "ĠÏĢÎ±ÏģÏĮÎ½ÏĦÎ¿ÏĤ": 5011,
      "ĠÎ±á½ĲÏĦÎ¿ÎºÏģÎ¬": 5012,
      "ĠÎľÏīÏĭ": 5013,
      "Î½Î±Î½ÏĦÎ¯Î¿Î½": 5014,
      "ĠÏĢÏģÏİÏĦÎ·": 5015,
      "ĠÏĦÎµÏģ": 5016,
      "ĠÎ¾Î¯": 5017,
      "ĠÎ³ÎµÎ³ÎµÎ½Î·": 5018,
      "ĠÎ£Î¹": 5019,
      "ĠÎĳÎ½Î±": 5020,
      "Î´ÎµÎ¹ÏĤ": 5021,
      "ĠÎ´ÏįÎ½Î±ÏĥÎ¸Î±Î¹": 5022,
      "ĠÎ´Î±Î¹": 5023,
      "ĠÎ»Î±á½¸Î½": 5024,
      "ÏģÎ¹Îºá¿¶Î½": 5025,
      "Ġá¼ĺÎ¾": 5026,
      "ĠÎ¿á½ĶÏĥÎ·ÏĤ": 5027,
      "ĠÎĽÏĮÎ³Î¿ÏĤ": 5028,
      "ÏĥÏĦÎ¿ÏħÏĤ": 5029,
      "ÏĢÏĮÎ½": 5030,
      "ĠÏĢÎ¬Ïĥá¿ĥ": 5031,
      "Ġá¼¹ÎµÏģÎ¿ÏħÏĥÎ±": 5032,
      "Ġá½¤Î½": 5033,
      "ĠÏĥÏĦÎ¹Î³": 5034,
      "ĠÎĻÏī": 5035,
      "ĠÏĥÏĦÎ·": 5036,
      "ÏİÎ¼ÎµÎ½Î¿Î¹": 5037,
      "Ġá½ģÏģÎ¯Î¶": 5038,
      "ĠÏĢÎ»Îµá¿ĸÏĥÏĦÎ¿Î½": 5039,
      "ĠÏĦÏģÏĮÏĢá¿³": 5040,
      "ĠÎ¼ÎµÎ»ÎŃ": 5041,
      "ĠÏĢÏģÎ¿Î³": 5042,
      "Î¬Î³ÎµÎ¹Î½": 5043,
      "Ġá¼ĶÏģÏĩÎµÏĦÎ±Î¹": 5044,
      "ĠÎ³ÎµÎ½Î¿Î¼ÎŃÎ½Î·ÏĤ": 5045,
      "Ġá½ģÏĢÎ¿Î¯Î±Î½": 5046,
      "Ġá½ĳÏĢÎ¿ÏĩÏģÎµ": 5047,
      "Î»Î±Î²Îµ": 5048,
      "ÏĢÎŃÎ¶": 5049,
      "Î¿ÏĥÎ¹": 5050,
      "ĠÏĦÎ¯ÏĦ": 5051,
      "ĠÏĢÏĮÏģ": 5052,
      "ĠÏĦÎ¯Î½Î¿ÏĤ": 5053,
      "ĠÎ²ÏĮ": 5054,
      "Ġá¼ĢÏĢÎµÎºÏģÎ¯": 5055,
      "Ġá¼ĳÏĦÎŃÏģÏīÎ½": 5056,
      "Ġá¼ĢÎ½Î¬Î³ÎºÎ·Î½": 5057,
      "ĠÏĥÎ·Î¼Îµá¿ĸÎ¿Î½": 5058,
      "Ġá¼ĶÏĥÏī": 5059,
      "Ġá¼ĢÏĢÎ®": 5060,
      "Î³Î±Î¸": 5061,
      "ÎºÎŃÎ½Î±Î¹": 5062,
      "Ġá¼ĲÎ³Ïĩ": 5063,
      "ÏĢÎ±ÏĤ": 5064,
      "ĠÎ±á¼¶": 5065,
      "ĠÎµá½ĲÎ½": 5066,
      "ÏĦÏģÎ¿Ïħ": 5067,
      "ĠÎ²Î±Î¸Î¼": 5068,
      "ĠÎłÏħÎ¸": 5069,
      "ĠÎµá¼°ÎºÏĮÎ½Î±": 5070,
      "ĠÎ¶á¿ĨÎ½": 5071,
      "ĠÏĥÏħÎ½Î¬": 5072,
      "Ġá¼ķÎ½ÎµÎºÎµÎ½": 5073,
      "Ġá¼ĶÏĢÎµÎ¼": 5074,
      "ĠÏĥÏİÎ¼Î±ÏĦÎ±": 5075,
      "ĠÏĢÏģÎ±Îº": 5076,
      "ĠÎ¿á¼°ÎºÎ¯Î±Î½": 5077,
      "ÏĦá¿ĨÏģÎ±": 5078,
      "ÏĦÎµÎ¯Î±": 5079,
      "ĠÎ´Î¬ÎºÏģÏħ": 5080,
      "13": 5081,
      "ÏįÎ»ÏīÎ½": 5082,
      "ĠÎ¼Î¿Î½Î±": 5083,
      "ÎĳÏĦ": 5084,
      "ÏģÎ±Î¼Î¼Î±": 5085,
      "ĠÏĢÎµÏģÎ¹ÏĥÏĥ": 5086,
      "ÏĥÎ¸ÎŃÎ½ÏĦÎµÏĤ": 5087,
      "ÎŃÏĥá¿ĥ": 5088,
      "ĠÎ¼ÎŃÎ³Î¹ÏĥÏĦÎ¿Î½": 5089,
      "ĠÏĢÏģÏĮÏĥÎ¸ÎµÎ½": 5090,
      "Î±á¿ĸÎ¿Î½": 5091,
      "Ġá¼ĶÎ½Î´Î¿Î½": 5092,
      "ĠÏĨÏīÎ½á¿ĨÏĤ": 5093,
      "Î¿á¿¦Î½ÏĦÎ¹": 5094,
      "ÏĢÎµÎ´Î¿Î½": 5095,
      "ĠÎĳá¼´Î³": 5096,
      "Ġá¼ĶÎ¾ÏīÎ¸ÎµÎ½": 5097,
      "Ġá¼ĶÏģ": 5098,
      "ĠÏĥÏħÎº": 5099,
      "ĠÏĦÎ¿á¿ĸ": 5100,
      "ĠÎºÏīÎ¼": 5101,
      "ĠÎµá¼´ÏģÎ·": 5102,
      "Ġá¼ĲÏĩÏģ": 5103,
      "ĠÏĦÎ¿Î¹Î¿á¿¦ÏĦÎ¿ÏĤ": 5104,
      "ĠÎºÏĮÎ»": 5105,
      "Î´Î¿ÏĥÎ¹Î½": 5106,
      "ĠÏĨÎ±ÏĥÎ¹Î½": 5107,
      "ĠÎ´Î·Î»Î±": 5108,
      "Î´Î¬": 5109,
      "Ġá¼ħÏĢÎ±Î½ÏĦÎµÏĤ": 5110,
      "Ġá¼ĲÏģÎµ": 5111,
      "Ġá¼ĢÎºÏĮÎ¼Î·": 5112,
      "ĠÎ³ÏħÎ½Î±á¿ĸÎºÎ±ÏĤ": 5113,
      "Ġá½ĳÎ¼Îµ": 5114,
      "ÎµÎ¹Î»ÎµÎ½": 5115,
      "ÏĥÎºÎµÏį": 5116,
      "ĠÎĶÎ¯": 5117,
      "ĠÎŁÎĶ": 5118,
      "ÏģÎ¹Î±Îº": 5119,
      "Î¸ÎµÎ¯ÏĥÎ·ÏĤ": 5120,
      "ĠÎ´ÏģÎ±": 5121,
      "ĠÏĢÎµÎ¹ÏģÎ±": 5122,
      "Ġá¼¤Î¸ÎµÎ»Îµ": 5123,
      "Ġá¼ĲÎ½ÏĦ": 5124,
      "Ġá¼ĢÎ»Î»Î¿ÏĦ": 5125,
      "ÏĢÎ±ÏģÎ±": 5126,
      "Ġá¼ĢÎ½ÎµÎ»": 5127,
      "Ġá¼ĶÏģÏī": 5128,
      "Ġá¼¡Î»Î¯Î¿Ïħ": 5129,
      "ÎĹÎ¡": 5130,
      "ÎŃÎ¼ÎµÎ¹Î½": 5131,
      "Ġá¼ĲÎ´ÏĮÎºÎµÎ¹": 5132,
      "Ġá¼ĲÎ¾Ïī": 5133,
      "Î²ÏīÎ½": 5134,
      "ĠÎ¸ÎµÏģÎ±ÏĢ": 5135,
      "Ġá¼ĲÏĢÎ¹Î½": 5136,
      "Ġá½ĦÎ½ÏĦÎ¹": 5137,
      "ÏĥÏħÎ½": 5138,
      "ĠÏĢÎ¿Î¹á¿¶Î½": 5139,
      "ĠÎ´Î¹Î¬ÏĨ": 5140,
      "Ġá¼ĶÎ´ÏīÎºÎµÎ½": 5141,
      "ĠÎ¼Î·ÏĦÎŃÏģÎ±": 5142,
      "Ġá¼ĢÏĢÎ·": 5143,
      "Ġá¼ĲÎ½Î¯": 5144,
      "ĠÏĢÎµÎ¹Ïģ": 5145,
      "ĠÎºÎ·ÏģÏį": 5146,
      "ĠÎµá½ĲÏģ": 5147,
      "Ġ||": 5148,
      "ÏĥÎ±Î½ÏĦÎ±ÏĤ": 5149,
      "ĠÏĨÎ¯Î»Î¿Î¹": 5150,
      "Î®Î½Î·ÏĤ": 5151,
      "Ġá¼ĲÎºÎµÎ¯Î½Î·": 5152,
      "ĠÎºÎŃÎ½": 5153,
      "Î¸ÎµÏĥÎ¼": 5154,
      "ÏĢÎ±Ïį": 5155,
      "Ġá½ĢÏĢÎ¯ÏĥÏī": 5156,
      "ÏĢÎ¿Î¼ÎµÎ½": 5157,
      "ĠÎļá¿¦ÏģÎ¿ÏĤ": 5158,
      "Ġá¼ĢÎ½ÏĦÎµ": 5159,
      "Ġá½¥ÏģÎ±Î½": 5160,
      "ĠÏĦÎ¿ÏįÏĤ": 5161,
      "Î¨": 5162,
      "ÎĳÏĢ": 5163,
      "ÏģÎ¿Î¹ÏĤ": 5164,
      "ĠÎ¼ÎŃÎ³ÎµÎ¸Î¿ÏĤ": 5165,
      "ĠÎ¼Î¿á¿¦": 5166,
      "ĠÎ½Î¿á¿¦ÏĤ": 5167,
      "ÏĦÎŃÏĤ": 5168,
      "Ġá½ĳÏĢÎ¿ÏĥÏĦ": 5169,
      "Ġá½¥ÏĥÏĦ": 5170,
      "Î¼Î¿Î½Î¿ÏĤ": 5171,
      "ĠÏĥÏīÏĦÎ·ÏģÎ¯Î±Î½": 5172,
      "ÏİÏĦÎ±ÏĦÎ¿ÏĤ": 5173,
      "ÏĦÎ¹Îºá½°ÏĤ": 5174,
      "ĠÎĶÎµÏĥ": 5175,
      "Ġá¼¡Î³ÎµÎ¼Î¿Î½": 5176,
      "ĠÏĦÎŃÎ»Î¿ÏħÏĤ": 5177,
      "Î¿ÏħÏĥÎ¹Îº": 5178,
      "ĠÏĢÎ±ÏĦÏģÎ¯Î´Î¿ÏĤ": 5179,
      "á½ĸ": 5180,
      "ĠÏģÎ±": 5181,
      "ĠÎĽÎ¹Î²": 5182,
      "ĠÎłÎ±ÏĦÏģÎ¹": 5183,
      "ĠÎ£ÏĩÎ¿Î»": 5184,
      "ĠÎľÏīÏĭÏĥ": 5185,
      "Ġá¼ĢÏĢÎ¿ÏĨÎ¬ÏĥÎµÏīÏĤ": 5186,
      "Ġá½¡ÏĥÎ±ÏįÏĦÏīÏĤ": 5187,
      "ÎŃÎµÎ¹Î½": 5188,
      "Î»Î·ÏĥÎµ": 5189,
      "Ġá¼ħÏĢÎ±Î½ÏĦÎ±ÏĤ": 5190,
      "Î¶ÎµÎ½": 5191,
      "ĠÎķÏĢÎ¹": 5192,
      "ÏįÎ½ÎµÎ¹": 5193,
      "á¿ĸÎ½Î¿Î½": 5194,
      "ĠÎŁá½ĲÎ´": 5195,
      "ÏħÏĤ": 5196,
      "ĠQ": 5197,
      "Ġá¼ĲÎ½Î¸Î¬": 5198,
      "ĠÎ¶Î·Î¼": 5199,
      "ĠÏĥÏĦÏģÎ¬": 5200,
      "ÏĥÎ¿Î¹": 5201,
      "Î»ÎŃÎ±": 5202,
      "ĠÎ½Î±Î¹": 5203,
      "Ġá¼ĢÎ½Î´ÏģÎ¬": 5204,
      "ÏİÏĢÏīÎ½": 5205,
      "ÏĦÎ·ÏĥÎ¹ÏĤ": 5206,
      "ĠÎĴÎ±Î²ÏħÎ»": 5207,
      "Î¿Î¼Î®": 5208,
      "ĠÎ£ÏĦÎ±": 5209,
      "ĠÏĥÏħÎ¼Î¼Î¬Ïĩ": 5210,
      "Î¼Î¿á¿¦": 5211,
      "ÏĥÎ¼Î±ÏĦÎ±": 5212,
      "ĠÎ¼Î¬ÏĩÎ·Î½": 5213,
      "ĠÏģÎ¹": 5214,
      "ÏĢÎµÏĤ": 5215,
      "Ġá¼ĲÏĥÎº": 5216,
      "ÎĻÎļÎĹ": 5217,
      "Ġá¼ĲÏģÎ®Î¼": 5218,
      "Ġá¼ĳÏĥÏĦ": 5219,
      "ÏĮÏģÎ±": 5220,
      "ÏģÎ³Î±": 5221,
      "ĠN": 5222,
      "ÎºÏĦÎ¿ÏĤ": 5223,
      "ĠÏĨÎ±Î½ÏĦÎ±": 5224,
      "ÏĮÎ¼Î¿ÏħÏĤ": 5225,
      "ĠÏĢÎ±Î½ÏĦÎ±ÏĩÎ¿á¿¦": 5226,
      "Ġá½ĢÏĥÏĦ": 5227,
      "Î¸á¿³": 5228,
      "Ġá¼´ÏĥÎ¿Î½": 5229,
      "Ġá¼ĲÏģÏĩ": 5230,
      "ĠÎ³ÏģÎ¬Î¼Î¼Î±ÏĦÎ±": 5231,
      "Ġá¼ĲÏĢÎ¯ÏĥÎ·ÏĤ": 5232,
      "á½¡": 5233,
      "ĠÏģÎ·": 5234,
      "Î¼ÏĮ": 5235,
      "Îºá¿ĥ": 5236,
      "ĠÏĢÎ±ÏģÎ±Î¼": 5237,
      "Ġá¼ħÏĢÎ±Î¾": 5238,
      "ĠÏĢÎ¿Î»á½ºÎ½": 5239,
      "Ġá¼ĢÎ½ÎµÎº": 5240,
      "ĠÎºÏģÎ¯ÏĥÎ¹Î½": 5241,
      "Î¤ÎŁÎ£": 5242,
      "Ġá¼¸Î´Î¿á½º": 5243,
      "ĠÎ¸Î»Î¯": 5244,
      "Ġá½ħÏĦ": 5245,
      "Ġá¼°Î´Î¯ÏīÏĤ": 5246,
      "ĠÏĩÏģÏĮÎ½Î¿ÏĤ": 5247,
      "ĠÎĳá¼°Î³ÏħÏĢ": 5248,
      "ÏįÎ½Î·ÏĤ": 5249,
      "ĠÎ§ÎŁÎ¡ÎŁÎ£": 5250,
      "Î´Î¹Ïİ": 5251,
      "ĠÏĦÎµá¿ĸ": 5252,
      "Ġá¼ĢÏĢÎ¿ÏĥÏĦÎ¿Î»": 5253,
      "ÏĦÏĦÎ±Î½": 5254,
      "ÎµÎ»ÏĨ": 5255,
      "ĠÏĩÏģá¿ĨÏĥÎ¸Î±Î¹": 5256,
      "ĠÎĽÎ¿Ïħ": 5257,
      "ĠÎºÏĮÏģ": 5258,
      "ĠÎ¤ÏģÏİ": 5259,
      "ÏĦÏĦÏīÎ½": 5260,
      "ĠÎµá¼°Î´Î¹Îº": 5261,
      "Ġá¼ĲÎ³ÎºÎ±ÏĦÎ±": 5262,
      "Ġá½ģÎ´Î¿á¿¦": 5263,
      "ĠÎ²ÎµÎ²Î±Î¯ÏīÏĤ": 5264,
      "ĠÎ½Î®": 5265,
      "Ïĥá¿³": 5266,
      "ĠÎ±á¼°Î½": 5267,
      "ÏĩÎ¹ÏĥÏĦÎ¿Î½": 5268,
      "ĠÏĢÏģÎ¿ÎŃ": 5269,
      "ĠÎłÎ¿Ïĥ": 5270,
      "ĠÏĥÏħÎ¼Î¼Î±Ïĩ": 5271,
      "ĠÎłÎŃÏĦÏģÎ¿ÏĤ": 5272,
      "Ġá¼ħÏģ": 5273,
      "Ġá¼°ÏĩÎ¸": 5274,
      "ĠÎ´ÎµÎ¯ÎºÎ½Ïħ": 5275,
      "Î»ÎŃÎ½": 5276,
      "ÏĮÎ½Î¹": 5277,
      "ĠÎ²Î¿ÏħÎ»ÏĮÎ¼ÎµÎ½Î¿ÏĤ": 5278,
      "ĠÎ³Î±ÏĥÏĦ": 5279,
      "Ġá½ĢÏĨÎµÎ¯Î»ÎµÎ¹": 5280,
      "ĠÎ¼Î½Î·Î¼": 5281,
      "Ġá¼ĳÏĦÎ±Î¯": 5282,
      "ĠÎ¸ÎµÎ¬": 5283,
      "Ïģá¿ĥ": 5284,
      "ĠÎ¼á¿¦": 5285,
      "17": 5286,
      "ĠÎ³Î½ÏīÏģÎ¯Î¶": 5287,
      "ĠÏĥÏįÎ¼": 5288,
      "Î±ÏĩÎ¿á¿¦": 5289,
      "Î²Î±ÏĥÎ¹Î½": 5290,
      "Ġá¼ĲÎ¼Î²": 5291,
      "ĠÎ»ÏĮÎ³Î¿Î¹": 5292,
      "ed": 5293,
      "ĠÎ´Î¿á¿¦Î½Î±Î¹": 5294,
      "ĠÏĢÎ»Î¬": 5295,
      "ĠÏĢÎ±ÏģÎ±Î½": 5296,
      "ĠÏĥÎ¸Î±Î¹": 5297,
      "Î»Î®Î¼": 5298,
      "Î³Î±Ïģ": 5299,
      "ĠÏĩÎ¹Î»Î¹Î¬": 5300,
      "Ġá½Ń": 5301,
      "ĠÎļÎ¹": 5302,
      "ĠÎ¸Î®": 5303,
      "Î²Î¿ÏħÎ»ÎµÏį": 5304,
      "ÏĦÎ¹ÎºÎ¬": 5305,
      "Ġá¼ĢÎ¾Î¯Î±Î½": 5306,
      "ĠÏĢÎ»ÎµÎ¯Î¿ÏħÏĤ": 5307,
      "ÏĥÏīÎ½": 5308,
      "Î½ÏĮ": 5309,
      "Î¾ÎµÏĦÎ±Î¹": 5310,
      "ÏĢÎ½Î¿Î½": 5311,
      "ĠÎĺÎķ": 5312,
      "ĠÎĻÎĽ": 5313,
      "ĠÏĢÎ±ÏĦÏģÎ¯Î´Î±": 5314,
      "ĠÎ´Î·Î¼ÏĮ": 5315,
      "ĠÏĪÏħÏĩá¿ĩ": 5316,
      "ĠÏĦÎ·Î»": 5317,
      "ÏĦÎ±Î¾": 5318,
      "ĠÎľÎ±Î½": 5319,
      "ĠÎµá½ĳÏģÎµ": 5320,
      "Ġá¼ĲÎ½Î±Î³": 5321,
      "ÏĥÏĦÏīÏĤ": 5322,
      "Î¬ÏģÎ¹Î¿ÏĤ": 5323,
      "ĠÎ½ÎµÎºÏģá¿¶Î½": 5324,
      "á¿ĨÏĦÎµ": 5325,
      "ÎŃÎ»Î¸á¿ĥ": 5326,
      "ĠÏĦÏģÎ¹Î±Îº": 5327,
      "Î¬Î¼ÎµÎ½Î¿Î½": 5328,
      "Î»Î±Î²á½¼Î½": 5329,
      "Î®ÏĥÏīÏĥÎ¹": 5330,
      "ÏģÎµÏĨ": 5331,
      "Ġá¼ĢÎ½ÏĦÎ¹ÏĢ": 5332,
      "Ġá¼ĲÎ½á¿·": 5333,
      "ÏĦÏīÎ»": 5334,
      "Î¿Î»Î¿Î³Î¯Î±ÏĤ": 5335,
      "ĠÎ¼Î¬ÏĩÎ·ÏĤ": 5336,
      "Ġá¼ĶÎ»Î±Î²Îµ": 5337,
      "Î¬Î»Ïī": 5338,
      "ĠÏĦÏĮÏĢÎ¿Ïħ": 5339,
      "Ġá¼°ÏĥÏĩÏħ": 5340,
      "Ġá¼ĲÏĢÎ¹ÏĦÎ®": 5341,
      "Î¿Î¼Î¯Î±ÏĤ": 5342,
      "Ġá¼ĲÏĢÎ¹ÏĨÎ±Î½": 5343,
      "ĠÎ½ÎŃÎ¿Î½": 5344,
      "Î´Î¹Î¬": 5345,
      "ĠÎ¸Ïģ": 5346,
      "ĠÏĢÎ±ÏģÎ±Î³": 5347,
      "Ġá¼ĲÎºÎºÎ»Î·ÏĥÎ¹Î±ÏĥÏĦÎ¹Îº": 5348,
      "Î¿Î»Î¹": 5349,
      "ĠÏĦÎ¹Î¼á¿ĨÏĤ": 5350,
      "Ġá¼ĲÏĥÏĦÎµ": 5351,
      "ĠÏĥÏħÎ³ÏĩÏīÏģ": 5352,
      "ĠÏĢÏģÎ¿ÎµÎ¹ÏģÎ·": 5353,
      "ĠÎĴÎ¿Ïħ": 5354,
      "ĠÎºÏĮÏĥÎ¼á¿³": 5355,
      "ĠÎ½Î¿ÏĤ": 5356,
      "ĠÎ»ÎŃÎ³Î¿Î½ÏĦÎ¿ÏĤ": 5357,
      "ĠÎ±á¼°á¿¶Î½Î±": 5358,
      "Ġá¼±ÏĥÏĦÎ¿ÏģÎ¹Îº": 5359,
      "ÏĥÏĦÎ®ÏģÎ¹Î±": 5360,
      "ĠÎ±á¼±Ïģ": 5361,
      "ĠÎ½Î·Ïĥ": 5362,
      "Î¸Ïī": 5363,
      "Ġá¼ĦÎ»Î»Î·ÏĤ": 5364,
      "ĠÎŁá½ķÏĦÏīÏĤ": 5365,
      "ĠÏĦÎ¿ÏħÏĦÎŃÏĥÏĦÎ¹Î½": 5366,
      "ĠÏĦÎµÎ¹": 5367,
      "ĠÏĢÎ¿Î»ÎµÎ¼Î¯Î¿ÏħÏĤ": 5368,
      "Î³ÎµÎ¹": 5369,
      "ĠÏĨÎ¬Ïģ": 5370,
      "Î¿Î¼ÎŃ": 5371,
      "Î¼Î½Î·": 5372,
      "Î¿ÏįÎ¼ÎµÎ¸Î±": 5373,
      "Î´ÎµÎ¯ÎºÎ½Ïħ": 5374,
      "ÏĦÎ¬Ïĥ": 5375,
      "ĠÎ¸Î¬Î½Î±ÏĦÎ¿ÏĤ": 5376,
      "ÏĥÏĦÎµÏģÎ±": 5377,
      "ĠÏĢÎµÏģÎ¹ÏĦ": 5378,
      "ĠÏĢÎ¬Î¸Î·": 5379,
      "ĠÎłÎĳ": 5380,
      "Ġá¼łÎ´ÏįÎ½Î±ÏĦÎ¿": 5381,
      "ÏģÎ¿Î´Î¯": 5382,
      "ĠÎµá¼°ÏģÎ®Î½Î·ÏĤ": 5383,
      "ĠÎŀÎµÎ½Î¿ÏĨá¿¶Î½": 5384,
      "Ġá¼ĢÎ¼ÎŃÏĥÏīÏĤ": 5385,
      "ĠÏĥÎµÎ¹": 5386,
      "ĠÎ¤Î¹Î¼": 5387,
      "ĠÎ¿á½ĲÎ´ÎµÎ¼Î¯Î±Î½": 5388,
      "ĠÏĢÎ»Î±Î½": 5389,
      "ĠÏĥÏħÎ¼Î²Î¿Ïħ": 5390,
      "Î¬ÏģÏĩÎ·ÏĤ": 5391,
      "ÏĢÎµÏħ": 5392,
      "Î¿Î¯Î½": 5393,
      "ÏĥÎ¬Î½": 5394,
      "Î¯ÎºÏīÎ½": 5395,
      "ĠÏĪÎµÏį": 5396,
      "ĠÎľÎ±ÎºÎµÎ´Î¿Î½": 5397,
      "Î¸Î·ÎºÎµÎ½": 5398,
      "Î´ÏīÎºÎµÎ½": 5399,
      "Ġá¼ĲÎ²Î±": 5400,
      "Î¸ÎµÏĥÎ¸Î±Î¹": 5401,
      "ĠÎ´ÏİÎ´ÎµÎºÎ±": 5402,
      "ÏħÎ»Î¬": 5403,
      "Ġá¼ĲÏĢÎ¹ÏĦÏģÎ¿ÏĢ": 5404,
      "ĠÎ¼ÎµÏĦÎ±Î²": 5405,
      "Ġá¼¡Î¼ÎŃÏģÎ±": 5406,
      "á¼ĢÎ»Î»": 5407,
      "ÎºÎ¿ÏħÎ½": 5408,
      "ÎºÏĮÏĦÎµÏĤ": 5409,
      "ĠÎºÏģÏį": 5410,
      "ĠÎºÎ±ÏĦÎ±Î³": 5411,
      "Ġá¼¤Î½": 5412,
      "Î»Î®ÏĥÎµÏīÏĤ": 5413,
      "ĠÏĦÏģÎŃÏĨ": 5414,
      "ÎŃÏģÎ¹": 5415,
      "ÏĥÎ¼ÎŃÎ½Î¿Î¹": 5416,
      "ÎŃÏĦ": 5417,
      "Ġá¼¦Î»Î¸Îµ": 5418,
      "ÏĢÎ¿Î»Î¹": 5419,
      "ĠÏĩÏģÏĮÎ½Î¿ÏħÏĤ": 5420,
      "Ġá¼ĦÏĦÎ¿": 5421,
      "ĠÎ£á½º": 5422,
      "Î®ÏĥÎ¿Ïħ": 5423,
      "ĠÏĢÏģÎ¿ÏĨÎ·": 5424,
      "ĠÏĢÏģÎµÏĥÎ²ÏħÏĦÎŃÏģ": 5425,
      "ti": 5426,
      "ĠÎ³Î¬": 5427,
      "ĠÎ¼ÎŃÎ»Î·": 5428,
      "Ġá¼ĢÏĢÎ¿Î½": 5429,
      "ĠÏĩÎ¹Î»": 5430,
      "ĠÎ´Î®Î¼Î¿Ïħ": 5431,
      "Ġá¼ĢÏĢÎµÎ¯": 5432,
      "ÎĳÎ¸Î®": 5433,
      "Î¶Î·": 5434,
      "ÎºÎ±ÏĦÎµ": 5435,
      "ĠÎĽÎ±ÎºÎµÎ´Î±Î¹Î¼ÏĮÎ½": 5436,
      "ĠÎµá½ĲÎ´Î±Î¹Î¼Î¿Î½": 5437,
      "Ġá¼ĤÏĤ": 5438,
      "Ġá¼ĲÏģÏīÏĦ": 5439,
      "ÏįÎ»Î±": 5440,
      "Î¯Î½á¿ĥ": 5441,
      "ÏģÎ¿Îº": 5442,
      "ĠÏĥÎºÎ¹": 5443,
      "ÎķÎĻÎ£": 5444,
      "ĠÎºÎ±Î¸ÏĮÎ»Î¿Ïħ": 5445,
      "Ġá¼ĢÎ»Î»Î¬": 5446,
      "Ġá¼ĲÎ³Î³á½ºÏĤ": 5447,
      "ĠÎµÎ¾": 5448,
      "ÏĢÎ¹ÏĥÎ¸ÎµÎ½": 5449,
      "ĠÏĦÏĮÏĢá¿³": 5450,
      "Ġá¼ĶÎ²": 5451,
      "ĠÎ±á¼µÎ¼Î±ÏĦÎ¿ÏĤ": 5452,
      "Ġá¼ĦÎ»Î»á¿³": 5453,
      "ĠÏĦÏİÏģÎ±": 5454,
      "Ġá¼ĲÏĢÎ¿ÏģÎµÏį": 5455,
      "Î¹Îºá¿·": 5456,
      "ĠÎĶÏį": 5457,
      "Î¬Î»ÏīÎ½": 5458,
      "Îµá½¶ÏĤ": 5459,
      "ÏİÏĦÎµÏģÎ¿ÏĤ": 5460,
      "ĠÎļÏħÏģÎ¯á¿³": 5461,
      "ÏĦÎ¿á½¶": 5462,
      "ĠÏĩÎµÎ¹Ïģá½¸ÏĤ": 5463,
      "ĠÎ»Î¿Ïħ": 5464,
      "á¼·": 5465,
      "ĠÏĦÎ±ÏħÏĦ": 5466,
      "ÏĦÎµá¿ĸÏĦÎ±Î¹": 5467,
      "ÏĥÏĦÎ±á½¶": 5468,
      "Ġá¼ĲÏĩÏĮÎ½ÏĦÏīÎ½": 5469,
      "Ġá¼¸Î±Îº": 5470,
      "Ġá¼ĦÏĥÏĦ": 5471,
      "ĠÎ´á¿ĨÎ¼Î¿Î½": 5472,
      "ĠÎļÎ±ÏģÏĩ": 5473,
      "ĠÎ¼Î·ÏĦÏģá½¸ÏĤ": 5474,
      "ĠÏĩÎµÎ¹ÏģÎ¿ÏĦÎ¿Î½": 5475,
      "ÏĥÏĦá½´ÏĤ": 5476,
      "Ġá¼ĲÎ½Î±": 5477,
      "ĠÎĽÎ±ÎºÎµÎ´Î±Î¹Î¼Î¿Î½Î¯ÏīÎ½": 5478,
      "Ġá½ĳÎ´": 5479,
      "Î±á¿ĸÎ¿ÏĤ": 5480,
      "Î¾Î±Î½ÏĦÎµÏĤ": 5481,
      "ĠÎķá½ĲÏģÏİÏĢ": 5482,
      "Î¿Î¼Î¿Î»Î¿Î³": 5483,
      "ÏĥÏĦá½°ÏĤ": 5484,
      "ĠÎºÎ±ÏĦÎ±ÏĨÏģÎ¿Î½": 5485,
      "ĠÏĨÏģÎ¿Î½ÏĦÎ¯": 5486,
      "Î»Î¹Î½": 5487,
      "ĠÏĢÎ±ÏģÎ±Î´ÎµÎ¯": 5488,
      "ĠÎ¸ÎŃÏĥÎ¹Î½": 5489,
      "ÎķÎĻÎĳ": 5490,
      "Î°": 5491,
      "ĠÎ¼Î¹Î¼": 5492,
      "....": 5493,
      "ĠÎ¼Îµá¿ĸ": 5494,
      "Ġá¼ĢÎ½Î´Ïģá½¶": 5495,
      "Ġá¼ĦÎ»Î»Î¿ÏĦÎµ": 5496,
      "Î¯Î½Î·Î½": 5497,
      "ĠÏĢÏįÏģÎ³": 5498,
      "ĠÎ´Î¹ÎµÎº": 5499,
      "Î¯ÏĥÎ¼Î±ÏĦÎ±": 5500,
      "ĠÏĥÏĦá½´Î½": 5501,
      "ÎķÎº": 5502,
      "ĠÏĢÎµÎ½ÏĦÎ®": 5503,
      "ĠÎ¿á½ĲÎ´ÎŃÏĢÎ¿ÏĦÎµ": 5504,
      "ĠÏĩÎ¬ÏģÎ¹ÏĤ": 5505,
      "Ġá¼ĢÎ²": 5506,
      "Ġ<": 5507,
      "Î¼ÎŃÎ½Î±Î¹": 5508,
      "Î¬Î¶Ïī": 5509,
      "ÏĮÏģÎµÏħ": 5510,
      "Ġá¼ĲÏĩÎ¸Ïģá¿¶Î½": 5511,
      "ĠÎĵÎ±Î»": 5512,
      "ĠâĢł": 5513,
      "ĠÎºÎµÏĨÎ¬Î»": 5514,
      "ĠÏĢÏģÎ¿ÏĥÏīÏĢ": 5515,
      "ĠÎ»Î¿Î¹ÏĢá¿¶Î½": 5516,
      "ÏĥÎ¿Î¼Î±Î¹": 5517,
      "Ġá¼ĶÏģÎ·": 5518,
      "Ġá¼¡Î³ÎµÎ¼ÏĮÎ½": 5519,
      "ĠÎ¤á¿ĩ": 5520,
      "Î¿Î¾": 5521,
      "Ġ60": 5522,
      "ÏĩÎ¸á¿ĨÎ½Î±Î¹": 5523,
      "ĠÎ³Î¯Î³Î½ÎµÏĦÎ±Î¹": 5524,
      "ÎĳÎ»ÎŃÎ¾Î±Î½": 5525,
      "Ġá¼ĳÎºÎ¬ÏĥÏĦÎ·Î½": 5526,
      "Ġá½¡ÏģÎ¹ÏĥÎ¼ÎŃÎ½": 5527,
      "ÎĻÎŁÎ£": 5528,
      "].": 5529,
      "Ġá¼ĢÏĢÎ±Î½ÏĦ": 5530,
      "á¾¶ÏĦÎµ": 5531,
      "ÎºÎ±Î¸": 5532,
      "ĠÎµá½ĲÏĩÎ±ÏģÎ¹ÏĥÏĦ": 5533,
      "ÏĦÎ¬Îº": 5534,
      "Î¸Î¿Î¹": 5535,
      "Îµá¿ĸÏĥÎ±Î¹": 5536,
      "ÏģÎ¿á¿ĸÏĤ": 5537,
      "ĠÎ¿á½ĶÏĢÏī": 5538,
      "ĠÎºÎ±ÏĦÎ±ÏĨ": 5539,
      "Î´Î¹ÎºÎ¿ÏĤ": 5540,
      "Ġá¼ĻÏģÎ¼": 5541,
      "Ġ189": 5542,
      "ĠÎ¼Î¿Î»": 5543,
      "ĠÎ½ÎŃÎ±ÏĤ": 5544,
      "Î½Î±ÏĦÎ¿": 5545,
      "eg": 5546,
      "ĠÎ¼ÎµÎ³Î¬Î»Î·ÏĤ": 5547,
      "ĠÎ¼ÎµÎ³Î¬Î»ÏīÎ½": 5548,
      "ĠÎĳÏģÎ³": 5549,
      "Ġá¼ĳÏĦÎ±Î¹": 5550,
      "ĠÏĦá¼Ħ": 5551,
      "ÏĮÎ½ÎµÏĤ": 5552,
      "Ġá½ĢÎ½ÏĮÎ¼Î±ÏĦÎ±": 5553,
      "ÎĻÎĳÎĶÎŁÎ£": 5554,
      "ĠÎ½ÏīÎ½": 5555,
      "ĠÎ½Î¿Î½": 5556,
      "Ġá¼ĢÎ¼ÏĢ": 5557,
      "ĠÏĥÏĨÎµ": 5558,
      "ÏĥÎ¼ÎŃÎ½Î±": 5559,
      "ÏĪÎ±Î½ÏĦÎµÏĤ": 5560,
      "Ġá¼ĶÏĦÏħÏĩ": 5561,
      "ri": 5562,
      "ĠÎµá½ĲÏĢ": 5563,
      "ĠÎ¸ÏħÎ¼á½¸Î½": 5564,
      "ÏİÏĦÎ±ÏĦÎ±": 5565,
      "Î¿ÏįÏģÎ³": 5566,
      "ÏģÏīÏĥÎ¹Î½": 5567,
      "ÏģÎŃÎ¸Î·": 5568,
      "ĠÏĥÎºÎ¿": 5569,
      "ĠÎļÎ±Î¸": 5570,
      "ĠÎ¾Î·Ïģ": 5571,
      "ÎĲÎ¿Ïħ": 5572,
      "ÎºÎ±ÏĥÎ¹Î½": 5573,
      "ĠÎºÎŃÎº": 5574,
      "ÏħÏĦá¿¶Î½": 5575,
      "Ġá¼ĢÎ¼ÏĨÎ¿ÏĦÎŃÏģÏīÎ½": 5576,
      "ĠÏĢÎ¿ÏĦÎ±Î¼Î¿á¿¦": 5577,
      "Î±Î½Î¿Î½": 5578,
      "ÏģÏĮÎ½ÏīÏĤ": 5579,
      "Ġá¼ĢÏĥÏĢÎ¯": 5580,
      "Î¶ÏħÎ³": 5581,
      "Ġá¼ĻÎ»Î»Î¬Î´Î±": 5582,
      "ĠÎ¼Î¿ÏħÏĥÎ¹Îº": 5583,
      "Ġá½ĳÏĢÎ¬Ïģ": 5584,
      "ĠÎ²ÎµÎ»ÏĦÎ¯": 5585,
      "ĠÎ³Î½ÏİÎ¼Î·ÏĤ": 5586,
      "ĠÏĢÏģÎ¿ÏĥÎµÏħÏĩ": 5587,
      "ĠÎ´ÎµÎ¹ÎºÎ½Ïį": 5588,
      "ĠÎļÎĳÎ¤Îĳ": 5589,
      "ÎĳÎľ": 5590,
      "Î¿Î¼Î·": 5591,
      "ĠÎºá¼ĢÎºÎµá¿ĸÎ½": 5592,
      "ÏĥÏīÏĥÎ¹Î½": 5593,
      "Îºá¿¶Î½": 5594,
      "Î¿á¿¦Î½Î±Î¹": 5595,
      "ÎµÏģÎµ": 5596,
      "ÎĽÎĹÎ£": 5597,
      "ĠÎ¼ÎŃÏģÎµÎ¹": 5598,
      "ĠÏĥÏħÎ½Î±Î³": 5599,
      "ĠÎ»ÎµÎ»": 5600,
      "ĠÎĺÎµÏĮÎ½": 5601,
      "ÎĳÎĻÎŁÎĿ": 5602,
      "Ġá¼ĢÏģÎ¹Î¸Î¼á½¸Î½": 5603,
      "ĠÎĴÎ±Ïģ": 5604,
      "ĠÏĦÎ¹Î¼á½´Î½": 5605,
      "Ġá¼ĢÎºÎ¿ÏįÏĥÎ±ÏĤ": 5606,
      "Ġá¼¸ÏīÎ¬Î½Î½Î·ÏĤ": 5607,
      "ĠÎ±á¼°á¿¶Î½Î±ÏĤ": 5608,
      "ĠÎºÎ±Î»Î»Î¹": 5609,
      "ĠÎŁá½ĹÏĦÎ¿ÏĤ": 5610,
      "Ġá¼¸Î·ÏĥÎ¿á¿¦Î½": 5611,
      "Î®Î½Î·Î½": 5612,
      "ĠÏĢÎµÏģÎ¹ÏĥÏĦ": 5613,
      "Ġá¼ĺÎ¼": 5614,
      "Î¥Î£Î£": 5615,
      "ĠÏīÏĤ": 5616,
      "Ġá¼ĢÎ¸Ïģ": 5617,
      "ĠÎ¼ÎµÎ»Î»": 5618,
      "Î¿Î¯Î·": 5619,
      "Ġg": 5620,
      "Î²Î±ÏĤ": 5621,
      "ÏĦÎ¿Îº": 5622,
      "Ġá¿¥Î±": 5623,
      "ÎĳÎ¼ÏĨ": 5624,
      "ĠÎĳÏĨ": 5625,
      "Î²Î¿ÏĤ": 5626,
      "ĠÎ±á¼°ÏĦÎ¹": 5627,
      "á¿¶Î´ÎµÏĤ": 5628,
      "ĠÎºÎ±ÎºÏĮÎ½": 5629,
      "ĠÎĿÏĮÎ¼Î¿Ïħ": 5630,
      "ĠÏĥÏĦÏģÎ±ÏĦÎ¿á¿¦": 5631,
      "Ġá¼ģÎ³Î¹": 5632,
      "*)": 5633,
      "Ġá½ģÏģÎ¹": 5634,
      "ĠÎ²ÎŃÎ²": 5635,
      "ĠÎ¼Î±ÏĦÎ±": 5636,
      "Î·ÏĥÎ¬Î¼ÎµÎ½Î¿ÏĤ": 5637,
      "Ġá¼µÏĢÏĢÎ¿ÏħÏĤ": 5638,
      "Ġá½ģÏĢÏĮÏĦÎµ": 5639,
      "Ġá¼ĲÎ¼ÏĨÎ±Î½": 5640,
      "ĠÏĢÎ½": 5641,
      "á¼ĢÎ½": 5642,
      "ĠÏĢÎ»ÎµÎ¯Ïī": 5643,
      "ĠÎºÏħÎº": 5644,
      "Ġ--": 5645,
      "Ġá¼ĲÏģÎ±": 5646,
      "ĠÎ²Î±Î¸": 5647,
      "Ġá¼ĵÎ¾": 5648,
      "ĠÎ¤Îµ": 5649,
      "ĠÏĥÏĦÎ®": 5650,
      "ĠÎºÏħÏģ": 5651,
      "ÎĻÎĵ": 5652,
      "Î¿Î´Ïģ": 5653,
      "ĠÏĥÏħÎ½ÎµÏĢ": 5654,
      "ÎºÎ±Î»Ïį": 5655,
      "Ġá¼°Î´Î¯Î±ÏĤ": 5656,
      "ĠÎłÎµÏģÏĥá¿¶Î½": 5657,
      "Î½ÎµÏį": 5658,
      "Îµá¿ĸÎ±Î½": 5659,
      "ÏĦÎ±ÏĦÎ¿Î½": 5660,
      "ĠÏĥÎ·Î¼Î±Î¯Î½ÎµÎ¹": 5661,
      "Î¿ÏįÎ»Î¿Ïħ": 5662,
      "Ġá¼łÎ´á½²": 5663,
      "Ġá½¥ÏģÎ±ÏĤ": 5664,
      "ÏģÎŃÏīÎ½": 5665,
      "Î¯Î»Î±": 5666,
      "Ġá¼ĢÎ½Î±Î³Î½Ïī": 5667,
      "Î·Î»Î±": 5668,
      "ĠÎ±á½ĲÎ»": 5669,
      "Ġá½ħÎ½": 5670,
      "ÏĥÎµÎ¹Î½": 5671,
      "ĠÎ³Î¯Î½Î¿Î½ÏĦÎ±Î¹": 5672,
      "ĠÎ¼ÎŃÏĩÏģÎ¹ÏĤ": 5673,
      "Ġá½ħÏģÎ±": 5674,
      "ÏĢÎ®": 5675,
      "ĠÎ´Î¹Î±Î¹": 5676,
      "Ïģá¿¶ÏĤ": 5677,
      "ĠÎĶÎ¯Î±": 5678,
      "ÏĦÎ±á¿ĸ": 5679,
      "ĠÏĢÎ±Î¸": 5680,
      "Ġá¼ĲÎºÏĢÎ¿": 5681,
      "ĠÎĴÎ¹": 5682,
      "ĠÎĻÎĽÎĻÎĳÎĶÎŁÎ£": 5683,
      "oc": 5684,
      "Ġá¼ĢÏģÏĩá¿ĩ": 5685,
      "á½¡ÏĤ": 5686,
      "ĠÎ´Î¹Î±ÏĦÎ¬Î¾ÎµÎ¹ÏĤ": 5687,
      "ĠÎ´ÎµÎºÎ±": 5688,
      "Î¥ÎĽ": 5689,
      "Ġá½ĢÎ´": 5690,
      "Ġá¼ĳÎ½á½¶": 5691,
      "Ġá¼ĲÎºÏĦÎµ": 5692,
      "Î½Î·ÏĥÎ¹Î½": 5693,
      "Î³Î¿ÏĤ": 5694,
      "ĠÏĢÎ¿Î¹Îµá¿ĸÏĥÎ¸Î±Î¹": 5695,
      "ÎµÏįÎµÎ¹": 5696,
      "Î¿ÏĩÎ¿ÏĤ": 5697,
      "Î¸Î·ÏĥÎ¹Î½": 5698,
      "ĠÏĢÎµÏģÎ¹Î²": 5699,
      "ĠÎ¿á¼´ÎºÎ¿Ïħ": 5700,
      "ĠÏĢÏĮÎ¸ÎµÎ½": 5701,
      "ĠÏĨÎ¬ÏĥÎº": 5702,
      "Ġá½ĻÏĢÎ¿ÏħÏģÎ³": 5703,
      "ĠÏĢÎ»Î·Î¼": 5704,
      "ĠÏĥá¾¶ÏĤ": 5705,
      "ĠÏĥÏĦÎ±Î¸Î¼": 5706,
      "Î¸ÎµÎ¯ÏĤ": 5707,
      "ĠÎ±á¼´ÏĥÎ¸Î·": 5708,
      "Ġá¼ĿÎ»Î»": 5709,
      "á¿ĩÏĤ": 5710,
      "Ġá¼ĢÏģÏĩÎ·Î³": 5711,
      "ÏģÎ·ÏĤ": 5712,
      "ÏĦÎ±ÏĥÎ¹Î½": 5713,
      "ĠÏĥÎ·Î¼ÎµÎ¹": 5714,
      "ĠÏĥÎºÎµÏħ": 5715,
      "Ê¹": 5716,
      "ĠÏĢÏģÎ¿Î¸ÎµÏĥÎ¼": 5717,
      "ĠÎ¼ÏĮÎ½Î·": 5718,
      "ĠÏĥÏħÎ½Î®": 5719,
      "ÏĥÏĦÎ·ÏģÎ¯ÏīÎ½": 5720,
      "ĠÎ²Î¿Ïģ": 5721,
      "Î±Î½Îµ": 5722,
      "Î¯ÏĥÎ±Î¹": 5723,
      "ĠÎ¸Î±Ïģ": 5724,
      "ĠÏĦÎ±ÏĩÎŃÏīÏĤ": 5725,
      "ĠÏĩÎµÎ¹Ïģá¿¶Î½": 5726,
      "ĠÏĢÎ±ÏĦÏģÏĮÏĤ": 5727,
      "ĠÎ³Î»Ïİ": 5728,
      "ÏĦÎ·ÏĥÎ±Î½": 5729,
      "ĠÏĦÎµÏį": 5730,
      "Î¿Î¹Î½ÏĦÎ¿": 5731,
      "á¿ĨÎºÎµ": 5732,
      "ĠÎ´Î¯ÎºÎ±Î¹Î±": 5733,
      "ÏĥÏĢÎŃ": 5734,
      "ÎĳÎ³Î³": 5735,
      "Î²Î¬Î»Î»Î¿Î½": 5736,
      "ĠÎ½ÏįÎºÏĦÎ±": 5737,
      "ĠÎķÎ»Î»Î·Î½": 5738,
      "ĠÎ´ÏħÏĥÏĩ": 5739,
      "Ġá¼ĢÏģÎ¹Î¸": 5740,
      "ÎŃÏī": 5741,
      "Ġá¼ĶÎ³Î³ÏģÎ±ÏĨ": 5742,
      "ĠÎ§Î¡": 5743,
      "ĠÎµá¼°Î´á½¼ÏĤ": 5744,
      "ÏĮÎ´ÏīÎ½": 5745,
      "ĠÎ¼Î±ÎºÏģá½°Î½": 5746,
      "Î¬ÏĦÎ·Î½": 5747,
      "ĠÎĴÎ¿Î¹Ïī": 5748,
      "Î¿ÏĥÎ¯Î±ÏĤ": 5749,
      "ĠÏĥÎ±ÏģÎºá½¸ÏĤ": 5750,
      "Î¯Î¼Î¿Ïħ": 5751,
      "ÏİÎ½Î¹Î¿ÏĤ": 5752,
      "ÎĳÎ»Îº": 5753,
      "ĠÎµá¼´ÏĢÎ¿Î¹": 5754,
      "Î½á¿ĥ": 5755,
      "Î®ÏĥÎ±Î½ÏĦÎ±": 5756,
      "ĠÎ»Î±Î¼Î²Î¬Î½ÎµÎ¹": 5757,
      "ĠÎ²Î±ÏģÎ²Î¬Ïģ": 5758,
      "ĠÎºÎµá¿ĸÎ½": 5759,
      "ĠÎļÏģÎ®": 5760,
      "ÏģÎ¹Î¼": 5761,
      "ĠÏĢÏģÎ¿Î´": 5762,
      "Ġá½ĳÏĢá¿ĨÏģ": 5763,
      "ĠÏĢÎ±ÏģÎ±Î¹": 5764,
      "Ġá¼ĶÏĤ": 5765,
      "ĠÎµá¼´Î´Î·": 5766,
      "ĠÏĨÎ±ÏĥÎ¹": 5767,
      "ĠÎºÎµÏĨÎ±Î»Î±": 5768,
      "ĠÏĪÎ®ÏĨ": 5769,
      "Ġá¼ĶÏĩÎ¿Î½ÏĦÎ±ÏĤ": 5770,
      "ÏĥÏĦÎµÏħ": 5771,
      "ĠÏĨÎŃÏģÎµÎ¹Î½": 5772,
      "ĠÎºÏįÎºÎ»á¿³": 5773,
      "ĠÎµá¼¶Î½Î±Î¯": 5774,
      "Î·ÏĥÎ±ÏĤ": 5775,
      "Î¤ÎĹ": 5776,
      "ĠÏĥÎ±ÏħÏĦ": 5777,
      "ĠÏĢÏģÎ¿Ïĭ": 5778,
      "ĠÎĳá¼°Î³ÏįÏĢÏĦÎ¿Ïħ": 5779,
      "ĠÎŁÎĶÎ¥Î£Î£": 5780,
      "ĠÎ´ÎµÎ½": 5781,
      "Ġá¼ĢÎ½ÎŃÎ¼": 5782,
      "ÏĪÎ¹": 5783,
      "Ġá¼µÏĢÏĢÏīÎ½": 5784,
      "ĠÏĥÎ¼Î¹Îº": 5785,
      "Î®ÏĦÏīÎ½": 5786,
      "Ġá¼ĢÏģÎ¹ÏĥÏĦÎµ": 5787,
      "ĠÏĦÎ¿Î¯": 5788,
      "Ġá¼ĲÎ¼ÎŃ": 5789,
      "Î´ÎµÎ¹Î½": 5790,
      "ĠÏī": 5791,
      "Î´Î¯ÏīÎ½": 5792,
      "ĠÎĳÏĢÏĮ": 5793,
      "Ïĩá¿¶Î½": 5794,
      "Î»ÎµÎ¾Î±Î½": 5795,
      "ĠÎ¤Î©ÎĿ": 5796,
      "ÎĳÎ²": 5797,
      "Ġá¼łÎ¸ÎŃ": 5798,
      "ĠÎ´Î±Î½ÎµÎ¹": 5799,
      "ĠÎ´Î¹ÎµÏħ": 5800,
      "ĠÎ¸ÏħÎ¼á¿·": 5801,
      "ĠÏĩÎ¬ÏģÎ¹ÏĦÎ¿ÏĤ": 5802,
      "Ġá¼ĳÏĦÎŃÏģÎ±Î½": 5803,
      "ÎºÏģÎ±ÏĦÎµÏĤ": 5804,
      "ÏĦÎ¬ÏĢÎ±": 5805,
      "ĠÏĦÎµá¿ĸÏĩÎ¿ÏĤ": 5806,
      "ĠÎ¤Î¿á½ºÏĤ": 5807,
      "Î±Î½ÏĦÎµÏĤ": 5808,
      "Ġá½ĳÏĢÎ¬ÏģÏĩÎµÎ¹Î½": 5809,
      "ÎŃÎ½ÏĦÎ±": 5810,
      "ÎĳÏĢÏĮÎ»Î»ÏīÎ½": 5811,
      "Î¼Î±ÏĩÎ¿ÏĤ": 5812,
      "Ġá¼ĢÎ¼Îµ": 5813,
      "Î¬Î¶ÎµÏĦÎ¿": 5814,
      "Ġá¼ĶÏĥÎµÏĥÎ¸Î±Î¹": 5815,
      "ĠÏĢÎ»Î¿Î¯Î¿Ïħ": 5816,
      "ĠÎ¼Î®ÏĦ": 5817,
      "ĠÎłÎµÏģÎ¹": 5818,
      "Ġá¼ĢÎ½ÎµÎ³": 5819,
      "Ġá¼ĢÏĢÎ¿Î»Î±Ïį": 5820,
      "Î¸Î·Ïĥ": 5821,
      "ÏĩÎ¸Î·ÏĥÎ±Î½": 5822,
      "Î±Î¼Î²Î¬Î½": 5823,
      "Ġá¼ĢÎ³á¿¶Î½Î±": 5824,
      "Ġá¼ĦÏģÏĦÎ¹": 5825,
      "ĠÎļÏĮ": 5826,
      "ĠÎºÎŃ": 5827,
      "ĠÎ¼ÎŃÎ½ÎµÎ¹": 5828,
      "Ġá¼ĢÏģÎº": 5829,
      "ÏĢÎ¹Îº": 5830,
      "ĠÏĥÏħÎ½ÎµÏģÎ³": 5831,
      "Î»Îµá¿ĸ": 5832,
      "ĠÏĦÏĮÏĢÎ¿ÏĤ": 5833,
      "ĠÏĢÎ¿Î»Î»Î¬": 5834,
      "ĠÎ¸Î·ÏĥÎ±": 5835,
      "Ġá¼ĲÎ¾Î®": 5836,
      "ĠÎ²Î¬ÏģÎ²Î±Ïģ": 5837,
      "ÏĦÎ¹ÎºÎ¿á½¶": 5838,
      "ĠÎłÎ±Î»Î±Î¹": 5839,
      "ĠÏĢÏģÎ¿ÏĥÎ´Î¿Îº": 5840,
      "ĠÎľÎ±ÎºÎµÎ´": 5841,
      "Ġá¼ĢÎ»Î±": 5842,
      "ÏĥÏĦá½´Î½": 5843,
      "ÏĢÎ¿ÏĦ": 5844,
      "ĠÏĢÏģÏİÏĦÎ·ÏĤ": 5845,
      "ÏĨÏĮ": 5846,
      "Î±Î½á½¸ÏĤ": 5847,
      "Î·ÏĦÎ¿ÏĤ": 5848,
      "ĠÎ¸ÎµÏģÎ±ÏĢÎµÏį": 5849,
      "ÏĦÎ±Î¾Îµ": 5850,
      "ÎµÎ½Îµ": 5851,
      "ĠÏĦÎµÎ»ÎŃ": 5852,
      "Ġá¼ĢÏĥÏĩ": 5853,
      "ĠÏĢÎ¿Î»Î¹Î¿ÏģÎº": 5854,
      "Ġá¼´ÏĥÎ±": 5855,
      "ĠÏĥÏħÏĩÎ½": 5856,
      "ĠÎºÏĮÏĥÎ¼Î¿ÏĤ": 5857,
      "ĠÎ±á¼·ÏĤ": 5858,
      "ĠÏĢÎ»Î®Ïģ": 5859,
      "Ġá¼ķÏĦÎµÏģÎ±": 5860,
      "Ġá¾Ħ": 5861,
      "Ġá¼ĲÎ¾ÎµÏĦÎ¬": 5862,
      "ĠÎ¼Î±Ïģ": 5863,
      "á¿ĨÎ¿ÏĤ": 5864,
      "Î¯Î¶Ïī": 5865,
      "ĠÏĥÏīÏĨ": 5866,
      "ÏģÎ¯á¾³": 5867,
      "ÎºÎ¿ÏħÏĤ": 5868,
      "ĠÏĥÏħÎ¼Î²Î±Î¯Î½ÎµÎ¹": 5869,
      "Ġ190": 5870,
      "ĠÎºÎµÎ¯": 5871,
      "Ġ54": 5872,
      "ĠÏĢÎµÎ½ÏĦÎ®ÎºÎ¿Î½ÏĦÎ±": 5873,
      "Ġ53": 5874,
      "ĠÎºÎ±ÏĦÎ·": 5875,
      "Î¬Î¶Î¿Î½ÏĦÎµÏĤ": 5876,
      "ĠÎ¶Î®ÏĦÎ·Î¼Î±": 5877,
      "Î¿ÏĥÎ¯ÏīÎ½": 5878,
      "Ġá¼ĲÏĢÎµÎº": 5879,
      "Ġá¼ĦÏĩÏģÎ¹": 5880,
      "ĠÎ±á½ĲÏĦÎ¬": 5881,
      "Ġá¼ĢÎ½Î¿Î¯": 5882,
      "ĠÏĥÎµÏīÏĤ": 5883,
      "Ġá¼ģÏģÎ¼ÏĮ": 5884,
      "ĠÎĵÏģÎ·Î³": 5885,
      "Î²Î±Î¯Î½ÎµÎ¹Î½": 5886,
      "ÎŃÏĩÎ¸Î·": 5887,
      "ĠÏĩÎµÎ¹Ïģá½¶": 5888,
      "ĠÎµá¼°ÏĥÎ±Î³": 5889,
      "ĠÎļÎķÎ¦ÎĳÎĽ": 5890,
      "Ġá¼ĶÎ³ÏīÎ³Îµ": 5891,
      "Î»Î»Î¿ÏĤ": 5892,
      "ÏĢÎ±ÏĦ": 5893,
      "Î»Î»Î¬": 5894,
      "Ġá¼ħÏĦÎ¹Î½Î±": 5895,
      "Î±á¿¦": 5896,
      "Î¶ÏĮÎ¼ÎµÎ½Î¿Î¹": 5897,
      "ĠÎºÏĦÎ®": 5898,
      "ĠÏĦÎŃÏĩÎ½Î·ÏĤ": 5899,
      "Î³Ïİ": 5900,
      "ĠÎ¼Î·Îº": 5901,
      "Î®Ïĥá¿ĥÏĤ": 5902,
      "ĠÎłÎ±ÏģÎ¸ÎŃÎ½": 5903,
      "Ġ56": 5904,
      "ĠÎĶÎ·Î¼Î¿ÏĥÎ¸ÎŃÎ½": 5905,
      "ÎµÎ¹á¿¶Î½": 5906,
      "á½´Î¼": 5907,
      "ÏģÎ¹Ïĥ": 5908,
      "Ġá¼ĿÎ»Î»Î·Î½Î±ÏĤ": 5909,
      "ĠÎ´ÎµÎ¹Î»": 5910,
      "Î¯ÎºÎ¿Ïħ": 5911,
      "Î·Î¸Îµá½¶ÏĤ": 5912,
      "ÏĮÎ½ÏĦÏīÏĤ": 5913,
      "Ġá¼ĲÎ¼á½¸Î½": 5914,
      "Î·ÏĦÎ¿á¿¦": 5915,
      "Î½ÏİÏĥÎº": 5916,
      "ÎºÎ±ÏĥÎ¹": 5917,
      "ĠÎ´ÎµÏħÏĦ": 5918,
      "Î´ÎµÎ¹Î±": 5919,
      "Ġá¼ĲÎ¼Î¿Î¯": 5920,
      "ĠÎµá½ĲÎ´Î¿Îº": 5921,
      "ÎĳÎ¸Î·Î½á¿¶Î½": 5922,
      "Â«": 5923,
      "Î·Î¸á¿ĨÎ½Î±Î¹": 5924,
      "ĠÎłÎŁÎĽ": 5925,
      "ĠÎ»ÎµÏĢÏĦ": 5926,
      "ĠÎºÎ¿Î¯": 5927,
      "Ġá¼ĲÏĢÎ¹Î´": 5928,
      "ĠÏĨÏħÎ»Î¬ÏĦ": 5929,
      "Ġá½ķÏĢÎ½": 5930,
      "ÏįÎ½Î±Î¹": 5931,
      "Î±Î¼ÎŃÎ¼": 5932,
      "Ġá¼ĲÏĢÎ±Î³": 5933,
      "ĠÏĦÎ¿á½ĲÎ½Î±Î½ÏĦÎ¯Î¿Î½": 5934,
      "Ġá¾Ĳ": 5935,
      "Î¼Î±Îº": 5936,
      "ĠÏĦÎ±Î¼": 5937,
      "Î·ÏĦá½´ÏĤ": 5938,
      "Ġá½ĦÏĨ": 5939,
      "ĠÏĢÎ»Îµá¿ĸÏĥÏĦÎ±": 5940,
      "Î¬Î¶Î¿Î½ÏĦÎ±Î¹": 5941,
      "ÏĥÏĦÎ¿": 5942,
      "ÏĥÎ¸ÎŃÎ½ÏĦÎ±": 5943,
      "ÎĳÎ´": 5944,
      "ĠÏĪÏħÏĩÎ®": 5945,
      "ĠÏĦÎ±Îº": 5946,
      "ÏĮÎ¼Î¿Î¹": 5947,
      "Î»Î¯á¾³": 5948,
      "ÎµÏĥÏĥÎ¹": 5949,
      "ĠÎĳÎĽ": 5950,
      "Ġá¼ĺÏĨ": 5951,
      "ĠÎłÎ¡ÎŁÎ£": 5952,
      "Ġá¼ĦÎ½Îµ": 5953,
      "Î¬Î»á¿ĥ": 5954,
      "ÎµÏĥÎ¹": 5955,
      "os": 5956,
      "ÏįÎ¼ÏīÎ½": 5957,
      "ĠÎ¿á¼¶Î½Î¿Î½": 5958,
      "Î¬ÏĦÎ¿ÏħÏĤ": 5959,
      "ĠÏĥÎ¿ÏĨÎ¯Î±ÏĤ": 5960,
      "ĠÏĥÏħÎ½ÏĦÎµ": 5961,
      "Î´ÎµÎ¹Î³Î¼Î±": 5962,
      "£ÏĤ": 5963,
      "ÏĦÎµÏģÎ±Î¹": 5964,
      "ĠÎŁÎ¡": 5965,
      "ĠÎľÎµÏĥÏĥ": 5966,
      "Î¼Î®Î½": 5967,
      "á¼ĲÎº": 5968,
      "ĠÎµá½ĲÎ¸ÎŃÏīÏĤ": 5969,
      "ĠÎ²Î¬Î»Î»": 5970,
      "Ġá½ģÎ´Î·Î³": 5971,
      "Ġá¼ĲÎºÎµá¿ĸÏĥÎµ": 5972,
      "ĠÎ´Îµá¿¦": 5973,
      "á¿¤á¿¥Ïī": 5974,
      "Ġá¼¡Î¼ÎŃÏģÎ±Î¹ÏĤ": 5975,
      "ÎºÏĮÏĦÎ±": 5976,
      "ÏĪÎµÏĦÎ±Î¹": 5977,
      "«ÏĤ": 5978,
      "Ġ65": 5979,
      "ĠÎºÏģÎµ": 5980,
      "ĠÎ²Î¯á¿³": 5981,
      "ĠÎ¤ÎŁ": 5982,
      "ĠÏĢÎ»ÎµÏħÏģ": 5983,
      "ĠÎĺÎµÎ¿ÏĦÏĮ": 5984,
      "Ġá¼ĢÎ»Î·Î¸á½²ÏĤ": 5985,
      "ÏĦÎ·Î¼Î±": 5986,
      "Ġá¼ĲÎºÎºÎ»Î·ÏĥÎ¯Î±Î½": 5987,
      "ĠÎĶÎ±Î²": 5988,
      "Ġá¼ĢÎ½Î¸ÏģÏī": 5989,
      "Î½Î·ÏĥÎ¹ÏĤ": 5990,
      "Î¿ÏĢÏģÎµÏĢ": 5991,
      "ĠÏĢÎ¿ÏĦÎŃ": 5992,
      "ĠÏĩÏģÏĮÎ½ÏīÎ½": 5993,
      "Î½Î±Î³": 5994,
      "ĠÏĩÏģÎ·ÏĥÎ¹": 5995,
      "Î»Î¯Î±Î½": 5996,
      "ĠÏĢÎ»Î·ÏģÏİ": 5997,
      "Î¿ÏħÏĥÎ¯Î±Î½": 5998,
      "ĠÎ¼Î¿á¿ĸ": 5999,
      "ĠÏĢÎ¿Î´": 6000,
      "Î´ÏīÎºÎµ": 6001,
      "ÏīÎ½Î¿ÏĤ": 6002,
      "ÎĳÏĢá½¸": 6003,
      "ĠÎºÎ±Î»á¿¶Î½": 6004,
      "ĠÏĨÏħÎ»Î±": 6005,
      "Î¶Î¿Î½ÏĦÎ±Î¹": 6006,
      "ĠÏĢÎ±Î¸Îµá¿ĸÎ½": 6007,
      "ĠÎºÎ¹Î½Î´ÏħÎ½ÎµÏį": 6008,
      "ĠÏĢÎµÏģÎ¹ÎŃÏĩ": 6009,
      "Î¼á½°ÏĤ": 6010,
      "ÏīÏĥÎ±Î½": 6011,
      "ĠÏĢÎ±Î³": 6012,
      "ĠÎĳÏĢÎ¿": 6013,
      "ĠÏĥÏīÎ¼Î¬ÏĦÏīÎ½": 6014,
      "ĠÎ´Î¹Î¬ÏĦÎ±": 6015,
      "ÎŃÏģÎ¿ÏħÏĤ": 6016,
      "Î¹Î¿": 6017,
      "ĠÎ´ÎµÎ¹Î½á½¸Î½": 6018,
      "ĠÏĨÎŃÏģÏīÎ½": 6019,
      "ĠÎ³Î»ÏİÏĥ": 6020,
      "ĠÎ§ÏģÏħÏĥ": 6021,
      "Ġá¼ĲÎ¼ÏĢÏĮ": 6022,
      "ĠÎ£ÏİÎºÏģÎ±ÏĦÎµÏĤ": 6023,
      "Ġá½ħÎ¼Î¿Î¹Î¿Î½": 6024,
      "ĠÎºÎ¿Ïį": 6025,
      "Ġá¼ĢÎ½Ïħ": 6026,
      "ĠÏĥÏĦÏģÎ¬ÏĦÎµÏħÎ¼Î±": 6027,
      "ĠÎĶÎ±": 6028,
      "ÏĮÎ»á¿³": 6029,
      "ra": 6030,
      "Ġá¼ĢÎ³Î±Î¸á½°": 6031,
      "ÏİÏģÎ³": 6032,
      "Ġá½ģÏĢÎ¿Î¯Î¿Ïħ": 6033,
      "ulg": 6034,
      "Ġá¼ĲÎ½Î¸ÏħÎ¼": 6035,
      "Ġá¼°Î´Î¹Ïī": 6036,
      "Î»Î»Ïħ": 6037,
      "ÏĮÎ¼á¿³": 6038,
      "Ġá¼ĢÎ¼Î¿Î¹": 6039,
      "ĠÎ¶Î·Î»": 6040,
      "ĠÎ³ÎµÎ½ÏĮÎ¼ÎµÎ½Î¿Î½": 6041,
      "Ġá¼ĢÎ½Î¹": 6042,
      "Î½ÏīÏĥÎ¹Î½": 6043,
      "Ġ58": 6044,
      "ĠÎ²Î±ÏģÎ²Î¬ÏģÏīÎ½": 6045,
      "ÏįÎº": 6046,
      "Î´Î¿Î¹": 6047,
      "ĠÏĥÏħÎ½ÎµÎ´": 6048,
      "Î»Î·Î¼Î±": 6049,
      "ĠÏĢÎ¿Î»ÎŃÎ¼á¿³": 6050,
      "Ġá¿¥á¾³Î´Î¯ÏīÏĤ": 6051,
      "ĠÏĢÏģÎŃ": 6052,
      "ÏģÎ±Î²": 6053,
      "Ġá½ĳÎ¼Î½": 6054,
      "Î´Î·Î»Î¿Î½": 6055,
      "ĠÎºÎ»á¿Ĩ": 6056,
      "á¿ĨÎºÎµÎ½": 6057,
      "ĠÎºÏģÎ·": 6058,
      "ÏĥÎºÎµÎ½": 6059,
      "Ġá½ĢÏĢ": 6060,
      "ĠÏĦÎ¬Î¾ÎµÏīÏĤ": 6061,
      "Ġ188": 6062,
      "Î¼Î¿ÏģÏĨ": 6063,
      "Ġá½«ÏĤ": 6064,
      "ĠÏĥÎµÎ±ÏħÏĦ": 6065,
      "ĠÎ¶ÏħÎ³": 6066,
      "Ġá¼ĢÎºÎ¿Ïħ": 6067,
      "Ġá½ģÏĢÎ¿Î¯ÏīÎ½": 6068,
      "Î±Î½ÏĦÎ¿ÏĤ": 6069,
      "ĠÎºÎ±Î¹Ïģá½¸ÏĤ": 6070,
      "ĠÎ¤Î¹": 6071,
      "ĠÏĢÎ¿Î¸": 6072,
      "ĠÎºÎ±Î»Îµá¿ĸ": 6073,
      "Î¯Î²": 6074,
      "Î¸ÎŃÎ½Î±Î¹": 6075,
      "Ïĥá¿ĥÏĤ": 6076,
      "ĠÎ´Î¹Î¬Î½Î¿Î¹Î±Î½": 6077,
      "Ġá¼ĲÏĢÎµÎ¹": 6078,
      "ÏįÎµÎ¹": 6079,
      "ĠÎĳá¼°ÏĥÏĩ": 6080,
      "Ġá¼ª": 6081,
      "ÏĥÏĦÎ¿Î»Î¿ÏĤ": 6082,
      "Î¼Î±ÏģÏĦ": 6083,
      "ĠÎ¼Î¹á½°": 6084,
      "Ġá¿¥ÎŃ": 6085,
      "ĠÎ¼Îµá¿ĸÎ¶Î¿Î½": 6086,
      "Î¯ÏĢÏĢÎ¿Ïħ": 6087,
      "ÎĳÏĩÎ¹Î»Î»": 6088,
      "ĠÎºÎ±ÏĦÎŃÏĩ": 6089,
      "ĠÏĥÏĦÏģÎ±ÏĦÏĮ": 6090,
      "Î»Î·Î½": 6091,
      "Ġá¼ĲÎ½ÏĮÎ¼": 6092,
      "ÎĲÎ±ÏĤ": 6093,
      "Ġá¼ĢÏģÎ½": 6094,
      "ĠÏĢÎ±ÏģÎ±Î²": 6095,
      "ĠÎ»Î¿Î¹ÏĢá½°": 6096,
      "ĠÏĢÎ®": 6097,
      "Î©Î¡": 6098,
      "Ġá¼ĢÏĢÎµÎ¹Î»": 6099,
      "Î¹Î¼Î¿ÏĤ": 6100,
      "Ġá¼¬": 6101,
      "Ġ+": 6102,
      "ĠÎ»ÎµÎ³ÏĮÎ¼ÎµÎ½Î¿Î½": 6103,
      "ĠÎĶÎĻÎļ": 6104,
      "Ġá¼ĢÎ½ÎµÏĩ": 6105,
      "ÏħÏĢÏĦÎ¿Î½": 6106,
      "Ġá¼ĶÎ»ÎµÎ³": 6107,
      "ÏĥÎºÎµÏįÎ±": 6108,
      "Ġá¼ĶÎ¼ÎµÎ¹Î½": 6109,
      "ĠÎºÎ¬Ïģ": 6110,
      "ĠÎĶÎµÏĥÏĢÏĮ": 6111,
      "ĠÏĢÎ¿Î´á¿¶Î½": 6112,
      "ĠÎºÎ±ÎºÎ¿á¿¦": 6113,
      "ĠÎ´Î±ÏĢ": 6114,
      "ĠÏĥÏįÎ¼ÏĢ": 6115,
      "Ġan": 6116,
      "ÎºÎµÏĦÎ¿": 6117,
      "ÏĥÏĦÎ¹Îºá¿ĨÏĤ": 6118,
      "ĠÏĢÏģÏİÏĦÎ¿Ïħ": 6119,
      "ĠÏĢÎµÏģÎ¹ÎŃ": 6120,
      "Î®ÏĥÎµÏīÎ½": 6121,
      "ĠÏĢá¾¶ÏĥÎ±Î¹": 6122,
      "Î®Î³Î±Î³ÎµÎ½": 6123,
      "ĠÎĽÎµÏħ": 6124,
      "ĠÏĢÎ½ÎµÏįÎ¼Î±ÏĦÎ¹": 6125,
      "ÏģÏīÎ¼Î±": 6126,
      "ĠÎ´Î±ÎºÏģÏį": 6127,
      "ĠÎºÏĮÎ¼": 6128,
      "ĠÏĦÎ¿á½Ķ": 6129,
      "Î³Î¿Ïħ": 6130,
      "ĠÎłÎ¿ÏĥÎµÎ¹Î´": 6131,
      "ĠÎŁá½ĲÏĩ": 6132,
      "ĠÎ£Î±Î¼": 6133,
      "ÏĦÎ¯Î¼Î·": 6134,
      "Î¸Î®ÎºÎ·Î½": 6135,
      "ĠÎ¼Î±Î½Î¸Î¬Î½": 6136,
      "Î¹ÏĥÎµ": 6137,
      "ÏĥÏĦÎ±Î»": 6138,
      "Ġá¼ĲÎºÎº": 6139,
      "ĠÎºÎ»Î¯": 6140,
      "Ġá¼ĲÏģÎ·": 6141,
      "ÏĥÎ¯Î±Î¹ÏĤ": 6142,
      "ĠÎļÎ¿Ïģ": 6143,
      "Î´ÎµÏĦÎ±Î¹": 6144,
      "Î¹Î½Î±": 6145,
      "ÎºÎµÎº": 6146,
      "ĠÎ½Îµá¿¶Î½": 6147,
      "ĠÎ³Î½á¿¶ÏĥÎ¹Î½": 6148,
      "ĠÎŀÎŃÏģ": 6149,
      "ĠÏĢÎ±ÏģÎ±ÏĦÎ·Ïģ": 6150,
      "Î¼Î¿Î½ÎµÏĤ": 6151,
      "ĠÎłÎ½ÎµÏį": 6152,
      "Ġá¼ĢÏĢÎµÎ»": 6153,
      "ĠÎļÎµÏģ": 6154,
      "Î¯Î½á¿³": 6155,
      "Ġá¼ĢÎ¼ÎµÎ»": 6156,
      "ĠÎ¼Î¿Î¯": 6157,
      "Ġá¼¥Î»Î¹Î¿ÏĤ": 6158,
      "Ġá¼±Î¼Î¬": 6159,
      "ĠÏĨÎ¸Î¿Ïģ": 6160,
      "ĠÏĦÎŃÎºÎ½Î¿Î½": 6161,
      "ĠÎ¦Î¹": 6162,
      "Ġá¼ģÎ³Î¯Î±ÏĤ": 6163,
      "Î±ÏĥÎ¹Î½": 6164,
      "ÏģÎ¹Î¸Î¼": 6165,
      "ÏģÎ¹Îºá½¸Î½": 6166,
      "Î¼á½²Î½": 6167,
      "ÏĥÎŃÎ²": 6168,
      "á½¶Î´": 6169,
      "ÏĢÎµÏĥÎ¸Î±Î¹": 6170,
      "Ġá¼¸ÏīÏĥ": 6171,
      "ÏĥÏĥÎ¹": 6172,
      "Ġá½ĢÏģÎ¸Î¿": 6173,
      "ĠÎºÎ±Î¸ÎŃ": 6174,
      "ĠÎĶÎ¹Î¿Î½Ïį": 6175,
      "ĠÏĩÎ¸": 6176,
      "ÎµÏįÎµÎ¹Î½": 6177,
      "ĠÎ¼Î·ÏĦÏģÎ¿": 6178,
      "Ġá¼ĲÎ½Î´Îµ": 6179,
      "ÏĢÎ¹Î±": 6180,
      "Ġá½ħÎ»Î·ÏĤ": 6181,
      "ÏģÎ¯Î¿Î¹ÏĤ": 6182,
      "ÏĥÎ¼á¿¶Î½": 6183,
      "ĠÎºá¿Ĩ": 6184,
      "ÏĦÎ¿Ïĩ": 6185,
      "ĠÎ´Î·Î»Î±Î´á½´": 6186,
      "ÏĢÎ¿Î½ÏĦÎµÏĤ": 6187,
      "ĠÎ¼Î±Î»Î±Îº": 6188,
      "Ġá¼ĲÏĩÎ¸": 6189,
      "Ġá¼ĲÏĢÎµÎ¹Î´á½°Î½": 6190,
      "ĠÏĦÎŃÏĥÏĥÎ±": 6191,
      "Ġá¼ĢÎ½Î±Î³Îº": 6192,
      "ĠÎ¼Î¿Ïĩ": 6193,
      "ĠÎ´Î¹Î±Ïĥ": 6194,
      "ĠÏĪÏħÏĩÎ®Î½": 6195,
      "ĠÏĪÏħÏĩá½°ÏĤ": 6196,
      "ÏĦÎ·ÏģÎ¯Î¿Ïħ": 6197,
      "ÏİÎ´Î·ÏĤ": 6198,
      "ĠÎ¼ÎŃÏĥÎ¿Ïħ": 6199,
      "Ġá¼ĢÎ´Î¯Îº": 6200,
      "ĠÎ½á½´": 6201,
      "ĠÎ±á½ĲÏĦÏĮÎ¸Î¹": 6202,
      "ÎĳÎ»ÎµÎ¾Î¬Î½": 6203,
      "ĠÏĥá½¸Î½": 6204,
      "ĠÎ´ÎŃÏģ": 6205,
      "Ġá¼°Î´Î¯ÏīÎ½": 6206,
      "ĠÎ´á¿¶ÏģÎ±": 6207,
      "ĠÏĦÎ¬ÏĩÎ¹ÏĥÏĦÎ±": 6208,
      "Î±ÎºÎ¿Ïį": 6209,
      "ĠÎ´á¿ĨÎ¼Î¿ÏĤ": 6210,
      "Î¬ÏģÎ¹Î¿Î½": 6211,
      "Ġá¼ĢÎ´ÏħÎ½": 6212,
      "ĠÎ¼Î¹ÎºÏģá½°": 6213,
      "ĠÎºÎ¿ÏģÏħÏĨ": 6214,
      "Î±Î½Î´": 6215,
      "ĠÏħá¼±á¿¶Î½": 6216,
      "ĠÏĩÏģÎ·Î¼Î±": 6217,
      "ĠÎ´Î¹ÎºÎ±Î¹Î¿ÏĥÏįÎ½Î·ÏĤ": 6218,
      "âĢ¢": 6219,
      "ĠÎ½ÎµÏĨ": 6220,
      "ĠÎĽÎ±ÎºÎµÎ´Î±Î¹Î¼ÏĮÎ½Î¹Î¿Î¹": 6221,
      "ÎĦ,": 6222,
      "ĠÏĢÎ¿Î»Î¹ÏĦá¿¶Î½": 6223,
      "ĠÏĢÎ±ÏģÎµÎ»Î¸": 6224,
      "ÏĥÎµÏĦÎµ": 6225,
      "ĠÏĥÏħÏĥÏĦ": 6226,
      "ÏīÏģÎ¹ÏĥÎ¼ÎŃÎ½": 6227,
      "Ġá¼¡Î½Î¯": 6228,
      "ĠÏĥÏħÎ¼Î²Î¿Î»": 6229,
      "ÏİÎ¼Î·Î½": 6230,
      "ĠÎłÎĽ": 6231,
      "ÏĦÎµá¿ĸÏĤ": 6232,
      "ÏģÎ±Î¯": 6233,
      "ĠÎ¤Î¡": 6234,
      "ĠÏĥÏįÎ¼Î²": 6235,
      "ĠÎ´Î®ÏĢÎ¿Ïħ": 6236,
      "ÎºÎ±ÏĦÎ¬": 6237,
      "ĠÏĢÎ¿ÏĦÎ±Î¼á½¸Î½": 6238,
      "ĠÏĥÏīÏĨÏģÎ¿Î½": 6239,
      "Ġá¼¡Î´": 6240,
      "ÏĦÎ¹ÎºÏĮÏĤ": 6241,
      "ÏĥÎºÎµÏħÎ±": 6242,
      "Ġá½ĢÎ»Î¯Î³Î±": 6243,
      "Ġá¼¸Î½": 6244,
      "ĠÎ´Î¿ÎºÎµá¿ĸÎ½": 6245,
      "ĠÎ¼ÎŃÏĦÏģÎ¿Î½": 6246,
      "Î¸ÎŃÏĥÎµÎ¹ÏĤ": 6247,
      "ĠÎ¸ÎµÏĮÏĤ": 6248,
      "Î½ÎµÏĦÎ¿": 6249,
      "Î®ÏĥÎ±ÏĦÎµ": 6250,
      "ĠÏĦÎ¿Î¾": 6251,
      "Î»ÎµÎ½": 6252,
      "ÎĻÎĴ": 6253,
      "ĠÏĢÏĮÏĦÎµÏģÎ¿Î½": 6254,
      "ĠÏĨÏĮÎ²Î¿Î½": 6255,
      "Ġá¼ĶÏĨÎ·Î½": 6256,
      "ĠÎ²Î±ÏĥÎ¹Î»ÎŃÏīÎ½": 6257,
      "ĠÎĺÎ·Î²Î±": 6258,
      "ĠÎĿá¿¦Î½": 6259,
      "ĠÏĥÏĢÎ¿Î½": 6260,
      "Ġá¼ĲÎºÎ²": 6261,
      "ÏģÎŃÎ±": 6262,
      "Î®Î¸Î¿ÏħÏĤ": 6263,
      "Ġá¼°Î±ÏĦ": 6264,
      "ĠÎºÎ±Î»Î¬": 6265,
      "Ġá¼ĲÏĨÎ±": 6266,
      "Î©Î¤": 6267,
      "Î½Î±Î½": 6268,
      "Î»Î·Î¼": 6269,
      "ĠÏĩÏģÎµÎ¯Î±Î½": 6270,
      "Î¸ÎŃÏĥÎ¸Î±Î¹": 6271,
      "Î±Î¹Î½Î¿Î½": 6272,
      "Î»Î·ÏĥÎµÎ½": 6273,
      "ĠÎ±ÏĢ": 6274,
      "Î»Î±ÏĤ": 6275,
      "ÏĨÏħÏģ": 6276,
      "Ġá¼ĲÏĢÎ®": 6277,
      "ÏħÏģÎ¿Î½": 6278,
      "Î¿á¿¦ÏĦÎ¿": 6279,
      "ĠÎ»ÎŃÎ³Î¿Î¼ÎµÎ½": 6280,
      "ÎĦ)": 6281,
      "ĠÏĦÏģÎ±Ïĩ": 6282,
      "ÎŃÎ»Î·ÏĤ": 6283,
      "ĠÎºÎ±Î»Îµá¿ĸÏĦÎ±Î¹": 6284,
      "ĠÎ½ÎŃÎ¿Ïħ": 6285,
      "Ġá¼ĢÎ½ÎµÎ¾": 6286,
      "ĠÎºÎµÏģÎ±": 6287,
      "XX": 6288,
      "Î»Î¯á¿³": 6289,
      "á¾½Â·": 6290,
      "Î¿Î¼Î¿Î½": 6291,
      "Î¹ÎºÎ¿á¿ĸÏĤ": 6292,
      "Ġá¼ĢÏĢÎ¿Î¸": 6293,
      "ĠÎļÎ±ÏĦÎ±": 6294,
      "Î´Î¿Î¼ÎµÎ½": 6295,
      "Ġá¼ĲÎ¸ÎµÎ»": 6296,
      "Ġá½ĢÏĪ": 6297,
      "Î¥Îľ": 6298,
      "Î¹ÏĥÏĦÎ¿ÏĤ": 6299,
      "ĠÏĦÏħÏĨÎ»": 6300,
      "ĠÎ³ÎµÏģ": 6301,
      "Ġá¼ĶÏĩÎ¿Î¹": 6302,
      "ĠÎ¸ÎµÎ¯Î¿Ïħ": 6303,
      "Ġá¼ĢÏĢÎ¿Î»Ïį": 6304,
      "ÏĮÏĦÎ±ÏĤ": 6305,
      "ĠÎĿÎ¿Î¼": 6306,
      "ĠÎķá½ĲÎ±Î³Î³ÎµÎ»": 6307,
      "ÏĪÎ±ÏĦÎ¿": 6308,
      "ÏĢÎµÏĦÎ¿": 6309,
      "ÏīÎ¸á¿ĩ": 6310,
      "ĠÎµá¼±": 6311,
      "Ġá¼ĦÎ¼ÏĨ": 6312,
      "ÏĥÎ¸Î·Î½": 6313,
      "Î´ÏĮÏĥÎµÏīÏĤ": 6314,
      "Î»ÏħÎ¸": 6315,
      "ÏĦÎ¹Îºá¿ĩ": 6316,
      "ĠÏĢÏĮÎ»ÎµÎ¼Î¿ÏĤ": 6317,
      "Î´ÏģÎ±ÏĤ": 6318,
      "ĠÎºÎ±ÏĦÎ±Î»Î¹ÏĢ": 6319,
      "Ġ=": 6320,
      "ĠÏĦá¿¦": 6321,
      "Ġá¼ĢÎ»Î»Î¿": 6322,
      "ĠÎ´Î¹Î´Î¬": 6323,
      "Ġá½ħÏĥá¿³": 6324,
      "ĠÎ´Î¹Î±ÏĨÏĮÏģÏīÎ½": 6325,
      "Ġá¼ĲÎ½Î±Î½": 6326,
      "Î¬ÏĥÎ¹": 6327,
      "ÏĮÏīÎ½": 6328,
      "ĠÎŁÎĶÎ¥Î£Î£ÎķÎĻÎĳÎ£": 6329,
      "Î´Î¯ÎºÎ¿Ïħ": 6330,
      "ÏĮÏĦÎ±ÏĦÎ±": 6331,
      "ĠÎ¤Î±Ïį": 6332,
      "Î¹ÏĥÎ¼á½¸Î½": 6333,
      "Ġá¼ĲÏĢÎ¿": 6334,
      "ĠÏĢÏģÏĮÎ²Î±": 6335,
      "ĠÎ¦Ïģ": 6336,
      "Ġ59": 6337,
      "ÏĦÎ¹ÎºÎ¿á¿ĸÏĤ": 6338,
      "ĠÎ´Î¹Î´Î¬ÏĥÎºÎ±Î»": 6339,
      "ÏİÎ¸Î·ÏĥÎ±Î½": 6340,
      "ĠÏĥÏħÎ½ÏĦ": 6341,
      "Î¯Î¶Î¿Î½ÏĦÎ±Î¹": 6342,
      "Î½Î±ÏĤ": 6343,
      "Ġá½¥ÏģÎ±": 6344,
      "ĠÎ±á¼µÏĦÎ¹Î½ÎµÏĤ": 6345,
      "ĠÎ³Î±á¿ĸ": 6346,
      "Ġá¼ĲÏĢÎ¯ÏĥÎº": 6347,
      "ĠÏĢÏģÎ¿ÏĥÎ¹": 6348,
      "ĠÏĥÏħÎ½ÏĮÎ´Î¿Ïħ": 6349,
      "ĠÎ²Î»Î¬Î²": 6350,
      "Î¶ÏĮÎ¼ÎµÎ½Î¿Î½": 6351,
      "Î»Î±Î¼Î²Î¬Î½ÎµÎ¹": 6352,
      "Î±Î½Î¸": 6353,
      "ĠÎ²Ïģ": 6354,
      "Î¬Î¼Îµ": 6355,
      "ĠÎºá¼ĢÎ³á½¼": 6356,
      "á¿¶Î½Î±Î¹": 6357,
      "ĠÏĢÏĮÏĦÎµ": 6358,
      "ÏīÎ¼ÎŃÎ½ÏīÎ½": 6359,
      "Î´ÎµÎ¹Î±Î½": 6360,
      "Ġá¼ĶÏĢÎ¿ÏĤ": 6361,
      "ĠÏĦÎ¹Î½á¿¶Î½": 6362,
      "Íµ": 6363,
      "Î¼Î·ÏĤ": 6364,
      "ÎµÎ¹Î½Î¿Î½": 6365,
      "ÏĥÏĦÎ¹Îºá¿¶ÏĤ": 6366,
      "ĠÎ»Î±Î¼Î²Î¬Î½ÎµÎ¹Î½": 6367,
      "Î¸ÏįÎ½": 6368,
      "ĠÎµá¼°ÏģÎ·Î½": 6369,
      "ĠÎ¼Î¿Î¹Ïĩ": 6370,
      "ĠÏĥÏħÎ½ÎµÎº": 6371,
      "ÏĢÎ¿á½¶": 6372,
      "Î²ÏģÎ±á½°Î¼": 6373,
      "ĠÎ¸ÏħÎ³Î±ÏĦÎŃÏģÎ±": 6374,
      "Î´ÎµÎ¹ÎºÎ½Ïį": 6375,
      "Ġá¼ĲÎ½ÎŃÏģÎ³ÎµÎ¹Î±Î½": 6376,
      "Î¶ÎµÏĥÎ¸Î±Î¹": 6377,
      "Ġá¼ĲÏĨÎµÎ¾": 6378,
      "ÏģÎ¯ÏĥÎµÏīÏĤ": 6379,
      "ÏģÎ¹Îºá½´Î½": 6380,
      "ĠÏģÎ¿Î½": 6381,
      "ĠÎ±Î³": 6382,
      "Ġá¼¡Î´ÎŃ": 6383,
      "ĠÏĢÎ±Î¹Î´á½¸ÏĤ": 6384,
      "Î»Î¹Î¿": 6385,
      "á¿¶ÏĥÎ±": 6386,
      "Ġá¼ĲÎ´Î¯Î´Î±": 6387,
      "ii": 6388,
      "Î¼á¿ĨÏĤ": 6389,
      "ÎµÎ¹ÏĢ": 6390,
      "ĠÎ²Î±Î´Î¯": 6391,
      "ĠÏĢÎµÏģÎ¹ÏĢÏĦÏİÏĥÎµÎ¹": 6392,
      "ĠÎ´Î¯ÎºÎ·ÏĤ": 6393,
      "ĠÎ´ÎµÎºÎ¬": 6394,
      "Î¿ÏĥÎ¯Î¿ÏħÏĤ": 6395,
      "ĠÎ¼Î±Î¸Îµá¿ĸÎ½": 6396,
      "ĠÎłÎ±ÏĦá½´Ïģ": 6397,
      "Ġá¼ĲÏĢÎ¹ÏĥÎºÎ¿ÏĢ": 6398,
      "ĠÏĨÎ¹Î»Î±Î½Î¸ÏģÏīÏĢ": 6399,
      "Î´ÏīÏģÎ¿ÏĤ": 6400,
      "ÏģÎ³Î¬": 6401,
      "Ġá¼±ÎµÏģá¿¶Î½": 6402,
      "ÏĢÏĢÎ¿Î½": 6403,
      "ÏĢÎ»ÎŃ": 6404,
      "ĠÏĢÎ¿Î¹ÎºÎ¯Î»": 6405,
      "ĠÎ¸ÎŃÎ»Ïī": 6406,
      "ÏĥÏĦá¿Ĩ": 6407,
      "Ġ80": 6408,
      "ĠÎºÎ±ÏĦÏĮÏĢ": 6409,
      "ĠÏĢÏģÎŃÏĥÎ²ÎµÎ¹ÏĤ": 6410,
      "ÏĥÏĩÎµá¿ĸÎ½": 6411,
      "ÎĹÎ¤": 6412,
      "ĠÏĢÏģÎ¿ÏĥÏĨÎŃÏģ": 6413,
      "ĠÎ¿á¼¶Î´": 6414,
      "ÏĩÏħ": 6415,
      "Ġá½ĦÏģÎ½": 6416,
      "Î¼Î¬Ïģ": 6417,
      "Ġá¼¸ÏīÎ¬Î½Î½Î¿Ïħ": 6418,
      "ĠÎ¼Î±ÏģÏĦÏįÏģÏīÎ½": 6419,
      "ot": 6420,
      "ĠÎºÎ±ÎºÎ¯Î±ÏĤ": 6421,
      "ÏģÎµÏīÏĤ": 6422,
      "ĠÎ¿á¼°ÎºÎŃ": 6423,
      "Ġá¼ĲÎ¾Î¹": 6424,
      "ĠÎ²Î»Î±ÏĥÏĨ": 6425,
      "ĠÏĥÎŃÎ²": 6426,
      "ĠÎ²Î±ÏĥÎ¹Î»Îµá¿¦": 6427,
      "Ġá¼±ÎºÎµ": 6428,
      "ÏİÏĦÎµÏģÎ±": 6429,
      "ĠÎ³ÎŃÎ»": 6430,
      "ĠÎ´Î¿Î³": 6431,
      "ĠÏĨÏģÎµÎ½": 6432,
      "Ġá¼ĲÏĨÎµÎ¾á¿ĨÏĤ": 6433,
      "ÏģÎ¿ÏĥÏįÎ½Î·ÏĤ": 6434,
      "ÏģÎ¹ÏĥÎ±": 6435,
      "ÏĦÎŃÎ±": 6436,
      "Ġá¼ĢÎ³Î±Î¸Î¿á¿¦": 6437,
      "ĠÎ´ÎµÎº": 6438,
      "Ġá¼ĦÎºÎ¿Ïħ": 6439,
      "ĠÎµá¼°ÏģÎ·Î¼ÎŃÎ½ÏīÎ½": 6440,
      "ÎĳÏĩÎ±Î¹á¿¶Î½": 6441,
      "ĠÏĥÏĦÎ¯Ïĩ": 6442,
      "ĠÏĢÎ¯ÏĥÏĦÎµÎ¹": 6443,
      "Ġá¼ĲÎºÎ¬Î»Îµ": 6444,
      "ĠÎ¼ÎµÎ»": 6445,
      "ĠÏĨÏįÎ»Î±": 6446,
      "Ġá¼ĲÎ¾Î·": 6447,
      "ĠÏĢÎ±Î½ÏĦÎµÎ»á¿¶ÏĤ": 6448,
      "ĠÏĢÎ±Î½ÏĦÎ¬ÏĢÎ±": 6449,
      "Î´Î¿Î¾Î¿Î½": 6450,
      "Ġá¼ĢÎ³Î¬ÏĢÎ·ÏĤ": 6451,
      "ĠÏĢÎ±ÏĦÏģá½¶": 6452,
      "Î¹Î±Îº": 6453,
      "ÏĦÎŃÏīÎ½": 6454,
      "ÏħÏĥÎ¿Î½": 6455,
      "Ġá¼ĶÏģÎ³á¿³": 6456,
      "Î¹ÎºÏĮÏĤ": 6457,
      "ĠÏĢÎ»Î¿á¿ĸÎ¿Î½": 6458,
      "Ġá¼ĲÎ»ÎµÏħ": 6459,
      "Ġ57": 6460,
      "ĠÏĦÎ¿Î¹Î¿ÏįÏĦÎ¿Ïħ": 6461,
      "ÏĥÎµÏİÏĤ": 6462,
      "ÏĮÏĥÎ¿Î½": 6463,
      "Î»Î·ÏĦÎ±Î¹": 6464,
      "Ġá¼ĲÎ¾Î±Î¹": 6465,
      "ÏįÎ²": 6466,
      "ĠÏĦá½°Î½": 6467,
      "ĠÏĦÏħÏģÎ¬Î½": 6468,
      "Î¹ÎºÎ±á½¶": 6469,
      "ĠÏĢÏģÎ¿ÏĥÎ·Î³": 6470,
      "ÏĩÏī": 6471,
      "Î¼Î±Î¯": 6472,
      "ÎºÏĮÏĦÏīÎ½": 6473,
      "Î½ÎµÎºÎ±": 6474,
      "ĠÏĥá½°Î½": 6475,
      "ĠÎļÏģ": 6476,
      "Ġá¼ĢÎ¸Î¬Î½Î±": 6477,
      "ĠÎ¸ÎµÏīÏģÎ·": 6478,
      "ÎµÏĥÏĥÎ¹Î½": 6479,
      "ĠÎ¸ÎµÎ¯ÏīÎ½": 6480,
      "ĠÏĩÎ¸Î¿Î½": 6481,
      "Ġá½ĳÏĢÎ¿ÏĢ": 6482,
      "Ġá½ĳÏĢÎ±ÏģÏĩ": 6483,
      "ÎŃÎ½Î±Î½ÏĦÎ¹": 6484,
      "ÏģÎ¹ÎºÎ¿á¿¦": 6485,
      "Ġá¼ĢÎ»Î³": 6486,
      "Ġá¼ĲÎºÎ¬": 6487,
      "ĠÎ¼á¿ĨÎ½": 6488,
      "ĠÎ½ÎŃÎ±": 6489,
      "Î®Î»ÏīÎ½": 6490,
      "ÎµÏģÎ½Î®ÏĥÎµÏīÏĤ": 6491,
      "ĠÎ¼Î¬ÏĦÎ·Î½": 6492,
      "ÏĮÎ´á¿³": 6493,
      "ĠÎļÏįÏĢ": 6494,
      "ÎŁÎ¥ÎĽ": 6495,
      "Ġá¼ĢÎ³ÏīÎ³á¿ĨÏĤ": 6496,
      "ĠÏĥÏĦÎµÏĨÎ¬Î½": 6497,
      "Ġá¼ĶÎ»Î±Î²Î¿Î½": 6498,
      "Î²Î¬Î»Î»ÎµÎ¹Î½": 6499,
      "ÏĦÏģÎ±Î½": 6500,
      "ÏĦÏģÏīÎ½": 6501,
      "ĠÏĦá¼ĢÎ½": 6502,
      "35": 6503,
      "Ġá¼¤ÏģÏĩ": 6504,
      "ĠÎ¿á¼´Îºá¿³": 6505,
      "Ġ41": 6506,
      "Î²Î±Î»Îµá¿ĸÎ½": 6507,
      "Ġá½ĦÏĢÎ¹ÏĥÎ¸ÎµÎ½": 6508,
      "Ġá¼ĢÎ½Î¸ÏģÏİÏĢá¿³": 6509,
      "Ġex": 6510,
      "Ġá¼¸ÏĥÏģÎ±Î®Î»": 6511,
      "Ġá¼¡Î¼ÎµÏĦÎŃÏģ": 6512,
      "Î¬ÏĥÏī": 6513,
      "ÏįÏģÎ¿Ïħ": 6514,
      "ĠÏĦÎµÏĦÎ¬Ïģ": 6515,
      "Ġ52": 6516,
      "ĠÎ³Î±Î»": 6517,
      "Î®Î³Î±Î³Îµ": 6518,
      "Î½Î¿Î¯Î±ÏĤ": 6519,
      "Î»Î±Î¯": 6520,
      "ĠÎ´Î¿Ïģ": 6521,
      "ĠÏĥÏħÎ¼Î²ÎµÎ²": 6522,
      "Ġá¼ĢÎ¼ÏĨÎ¹Ïĥ": 6523,
      "ĠÎ³Î»Î±": 6524,
      "Ġá¼¹ÎµÏģÎ¿Ïĥ": 6525,
      "ĠÎ²Î¹Î±": 6526,
      "Ġá¼ģÎ¼Î±ÏģÏĦÎ¬Î½": 6527,
      "ÎŃÎ³ÏģÎ±": 6528,
      "ĠÎłÎ»á½´Î½": 6529,
      "Ġá¼Ń": 6530,
      "ÏĮÏĦÎ¿ÏĤ": 6531,
      "ĠÎºÎ¬Î»Î»Î¿ÏĤ": 6532,
      "ĠÏĥÏĨÎ¿Î´Ïģ": 6533,
      "ĠÎĳÎ¡ÎĻÎ£Î¤": 6534,
      "ĠÏĢÏģÏīÏĦÏĮ": 6535,
      "ĠÎºÎ»Î¬": 6536,
      "Ġá½£ÏĤ": 6537,
      "ÏĪÎ¿Î½": 6538,
      "ĠÏĦÎ¿ÏĥÎ±": 6539,
      "ĠÎ¼Î·Î´ÎŃÎ½Î±": 6540,
      "Ġx": 6541,
      "ÎµÎ¯Î¿ÏħÏĤ": 6542,
      "ĠÎ¼ÎµÏĥ": 6543,
      "Î¿Î³ÎŃÎ½": 6544,
      "ĠÏĢÎ¿ÏģÎµÏħ": 6545,
      "ĠÎºÎ¿Î¹Î½á¿ĩ": 6546,
      "ÏĥÎµÎ»": 6547,
      "ĠÏĥÏħÎ¼ÏĨÎŃÏģÎ¿Î½": 6548,
      "Î±ÏģÏĢ": 6549,
      "Ġá½ķÎ¼Î½": 6550,
      "ĠÏĥÎºÎ¿ÏĢá½¸Î½": 6551,
      "ĠÎ¼ÏĮÎ½á¿³": 6552,
      "ÎĳÎĿÎĶ": 6553,
      "ĠÎ´Î¹Î±Î¹Ïģ": 6554,
      "ĠÏĢÎ±ÏĦÎŃÏģÏīÎ½": 6555,
      "Î¸Îµá¿ĸÏĥÎ±Î½": 6556,
      "ĠÏĦÏģÏħÏĨ": 6557,
      "Ġá¼ĢÏĢÎ¹ÏĥÏĦ": 6558,
      "Î¡Îķ": 6559,
      "ÏĥÎ¼Î¿Î½": 6560,
      "ĠÎ³Î¬Î¼Î¿Ïħ": 6561,
      "ĠÏĢÎ¯Î½": 6562,
      "ĠÎŁá½ĲÎ´á½²": 6563,
      "Ġá¼ĢÏĢÎ±Î»Î»Î±Î³": 6564,
      "Î»Î¿Î½ÏĦÎ¿": 6565,
      "Ġá¼ĲÏĢÎ¯ÏĥÎºÎ¿ÏĢÎ¿ÏĤ": 6566,
      "á¼Ī": 6567,
      "ĠÎĶÎµÎ»ÏĨ": 6568,
      "ÎŃÏģÏĩÎ¿Î½ÏĦÎ±Î¹": 6569,
      "ĠÎ´Î¹Î±Î½Î¿Î¯Î±ÏĤ": 6570,
      "ĠÎ¸ÏģÎ·ÏĥÎº": 6571,
      "ÏģÎ¹ÏĥÎº": 6572,
      "ĠÎ±á¼°ÏĦ": 6573,
      "Î¼Î¿Î¯": 6574,
      "ĠÎºÎ»Ïį": 6575,
      "Î³ÎµÎ³": 6576,
      "ĠÏĦÎŃÏīÏĤ": 6577,
      "Ġá¼ĶÎ´ÏīÎºÎµ": 6578,
      "ĠÏĨÎ¬ÏģÎ¼Î±": 6579,
      "ĠÎ¸ÏħÏĥÎ¹Î±": 6580,
      "ĠÎ´Î¿ÏħÎ»ÎµÏį": 6581,
      "ÏĦÎ¿Î¹ÏĥÎ¹": 6582,
      "ĠÎ½Î¿á¿¦": 6583,
      "ÏĥÏĦÎ·ÏĥÎµ": 6584,
      "ÏħÎ¼Î±Ïĩ": 6585,
      "Ġá¼ĪÎ¸Î·Î½Î±á¿ĸÎ¿Î¹": 6586,
      "Ġá¼ĢÏĢÏĮÏĨÎ±ÏĥÎ¹ÏĤ": 6587,
      "ĠÎ²Î¹Î²Î»Î¯Î¿Î½": 6588,
      "Î´Î¹ÎºÎ¿Î½": 6589,
      "ĠÎ¿á½ĲÎ´Î±Î¼á¿¶ÏĤ": 6590,
      "Î±Î¯Î¿Ïħ": 6591,
      "Î¬Î½Î·Î½": 6592,
      "ÏĥÎ¸ÎŃÎ½ÏĦÎ¿ÏĤ": 6593,
      "ÏĥÏĩÎ¿Î½": 6594,
      "ĠÎķÎĻÎ£": 6595,
      "Ġá¼ĲÎ½Î¯Î¿ÏĦÎµ": 6596,
      "Î®ÏĥÎ¿ÏħÏĥÎ¹Î½": 6597,
      "ÏĥÎ¼ÏĮÎ½": 6598,
      "Î®ÏĥÏīÏĥÎ¹Î½": 6599,
      "ÏĦÎ¹Î¿Î¹": 6600,
      "ĠÎ±á¼°ÏİÎ½ÏīÎ½": 6601,
      "ĠÎºÏįÏģÎ¹": 6602,
      "á¿ĨÎ»Î¿Î½": 6603,
      "Ġá½ĢÏĨÎµÎ¯Î»": 6604,
      "Ġá¼ĲÎ½ÎµÏģÎ³ÎµÎ¯Î±ÏĤ": 6605,
      "ÏĥÎµÏĥÎ¸Îµ": 6606,
      "Ġá¼ĲÎ»ÏĢÎ¯Î´Î±": 6607,
      "Ġá¼ĲÎ»Î»ÎµÎ¯": 6608,
      "ĠÎ¼ÎµÏĦÎ±Î²Î¿Î»": 6609,
      "Î¬ÏīÎ½": 6610,
      "Ġá¼ĢÎ³Î±Î¸á½¸ÏĤ": 6611,
      "Î¬Î¼Î¿Ïħ": 6612,
      "Ġá¼ĢÎ´ÎµÎ»ÏĨá¿¶Î½": 6613,
      "Ġá¼±ÏĥÏĦÎ¿ÏģÎ¯Î±ÏĤ": 6614,
      "ĠÏĦÏįÏģÎ±Î½": 6615,
      "ĠÎ»ÏĮÏĨ": 6616,
      "ĠÎĿÎķ": 6617,
      "ĠÎ³Î¯Î³Î½ÎµÏĥÎ¸Î±Î¹": 6618,
      "Î»Î·ÏĪÎ¹Î½": 6619,
      "Ġá½ķÏĪÎ¿ÏĤ": 6620,
      "á¼µ": 6621,
      "ĠÏĨÏīÎ½á¿ĩ": 6622,
      "Ġá¼ĢÎ½Î±Î¹Ïģ": 6623,
      "Ġá¼ĲÎ¾Î±Î¯": 6624,
      "Ġá¼¸ÏĦÎ±Î»": 6625,
      "ĠÏĢÎŃÏģÎ±ÏĤ": 6626,
      "ĠÎłÎ±ÏĦÏģá½¶": 6627,
      "ÏįÎ·": 6628,
      "Î»Î¯ÏīÎ½": 6629,
      "ÏģÎµÏĢÎµ": 6630,
      "Î®Î¼Î¿Ïħ": 6631,
      "Ġá½ĻÏĢ": 6632,
      "Ġá¼ĦÎ³Îµ": 6633,
      "ÏģÎ¬ÏĤ": 6634,
      "Ġá¼ĢÎ³Î±Î¸ÏĮÎ½": 6635,
      "ĠÏĢÎ¬ÏģÎµ": 6636,
      "ĠÎ´Î¹Î±ÎºÎ¿Î½": 6637,
      "ĠÎºÎ±Î¸Î·Î³": 6638,
      "ĠÎºÎ¯Î½Î´ÏħÎ½Î¿Î½": 6639,
      "Î¼Î±ÏĤ": 6640,
      "Ġá¼ĶÎ½Î¸ÎµÎ½": 6641,
      "ĠÏĥÏĢÎµÏį": 6642,
      "ĠÎĳÏģÎ¹ÏĥÏĦ": 6643,
      "Î´á¿ĥ": 6644,
      "ĠÎ´Î¹ÎºÎ±ÏĥÏĦÎ®ÏģÎ¹Î¿Î½": 6645,
      "Î®Î¼ÏīÎ½": 6646,
      "ÎĳÎ¸Î®Î½Î±Î¹ÏĤ": 6647,
      "ĠÏĦÎŃÏĩÎ½Î·Î½": 6648,
      "ĠÏĥÏĦÎµÏģ": 6649,
      "ÎµÎ¸": 6650,
      "Î¬ÏģÎ·": 6651,
      "á½ķ": 6652,
      "Ġá¼ĦÏģÏĩÎµÎ¹Î½": 6653,
      "Ġá¼ĳÏĢÎ¿Î¼ÎŃÎ½ÏīÏĤ": 6654,
      "ĠÏĢÎ¿Î¹Î®ÏĥÎ±ÏĤ": 6655,
      "ÏĩÏİÏģÎ·": 6656,
      "Ġá¼±ÏĥÏĦÎ¿Ïģ": 6657,
      "ĠÎ±á½ĲÎ¾": 6658,
      "Ġá¼ĢÎ¼ÏĨÏĮÏĦÎµÏģÎ±": 6659,
      "ĠÏĦÏĮÏĢÎ¿ÏħÏĤ": 6660,
      "Î¬ÏģÎ¿Ïħ": 6661,
      "Ġá¼¤Î¸ÎµÎ»ÎµÎ½": 6662,
      "ĠÎ¸ÎµÎ¿": 6663,
      "Ġá¼¦ÏĦÎ¿Î½": 6664,
      "Ġá¼¡Î³ÎµÎ¼": 6665,
      "ĠÎ¼Î·ÎºÎŃÏĦÎ¹": 6666,
      "Î¼Î¹ÏĥÏħ": 6667,
      "Ġá½ĢÎ½ÏĮÎ¼Î±ÏĦÎ¿ÏĤ": 6668,
      "Ġá¼ĶÏĥÏĩÎ±": 6669,
      "ĠÏĨÏģÎµ": 6670,
      "ĠÏĥÏĨá¾¶ÏĤ": 6671,
      "ÏĥÎµÏĥÎ¹": 6672,
      "ÏĦÎ¹Î¬": 6673,
      "Î¿Î¸ÎŃ": 6674,
      "ĠÎ½ÏħÎ¼ÏĨ": 6675,
      "ÏĢÎ¿Î»Î¯": 6676,
      "ĠÎºÎ±ÏĦÎ¹": 6677,
      "ĠÏĦá½¶ÏĤ": 6678,
      "Ġá¼ĲÏĢÎ¹ÏĥÏĦÎ¬": 6679,
      "Ġá½ĢÎ³": 6680,
      "Ġá½įÏĦÎ±Î½": 6681,
      "ĠÎ²Î±ÏĥÎ¹Î»Îµá¿ĸÏĤ": 6682,
      "ĠÏĢÎŃÎ»": 6683,
      "ÏģÎ±Î¾": 6684,
      "Î´Î¯á¿³": 6685,
      "000": 6686,
      "ĠÏĥÏħÎºÎ¿ÏĨ": 6687,
      "Ġá¼ĲÎ¾Î±Îº": 6688,
      "ÎµÎ»Î¸ÏĮÎ½ÏĦÎµÏĤ": 6689,
      "Ġá¼±ÎµÏģÎ±": 6690,
      "ÏĦÎ¹Îºá¿·": 6691,
      "Ġá¼ĲÎºÏģÎ¬": 6692,
      "ĠÎ»Î¿Ïĩ": 6693,
      "ĠÎĿá½°": 6694,
      "ĠÏĪÎ¹Î»": 6695,
      "ĠÎ²Î¿á¿¶Î½": 6696,
      "Ġá¼ĳÏĦÎŃÏģÎ±ÏĤ": 6697,
      "ÏİÏĦÏīÎ½": 6698,
      "ĠÎĳÏĢ": 6699,
      "ĠÏĦÏģÎ±ÏĢÎŃÎ¶": 6700,
      "ÎĻÎĻ": 6701,
      "ĠÏĦÏĮÏĦ": 6702,
      "ĠÏĦÎŃÎºÎ½ÏīÎ½": 6703,
      "ĠÎĺÎµÎ¿Î´": 6704,
      "Ġá¼¥Î»Î¹Î¿Î½": 6705,
      "ĠÏĥÎ¹Î´Î·": 6706,
      "ĠÏĥÏĨÎ¯ÏĥÎ¹": 6707,
      "Î»Î¸á½¼Î½": 6708,
      "Î»Î·ÏĥÎ¹ÏĤ": 6709,
      "Ġá¼ĢÎ½Î±Î³Î½Ïİ": 6710,
      "ÏįÎ»á¿³": 6711,
      "ÎĻÎĳÎĿ": 6712,
      "ĠÏĢÎŃÏģÎ±": 6713,
      "Ġá¼´Î´Ïī": 6714,
      "Ġá½ĳÏĢÎ·ÏģÎŃ": 6715,
      "ÎµÏģÎ½": 6716,
      "Î¯Î¶ÎµÏĦÎ¿": 6717,
      "Î¯Î¿ÏħÎ½": 6718,
      "ÏģÎµÏĦÎ±Î¹": 6719,
      "Î»ÎµÏħÏĥ": 6720,
      "ĠÎ¼ÏĮÎ½Î·Î½": 6721,
      "ĠÎ½ÎŃÎ¿ÏĤ": 6722,
      "ĠÎµá½ĶÏĩ": 6723,
      "ĠÎłÎ»Î±": 6724,
      "Î¿ÏħÏĥá¿¶Î½": 6725,
      "Ġá¼ĢÏĢÎ¿ÏĥÏĦÎµ": 6726,
      "Î¯ÏĥÎ±ÏĤ": 6727,
      "ÏĮÎºÎ»Î·": 6728,
      "ÎŃÎ¼ÎµÎ½": 6729,
      "ĠÎĳÎĺ": 6730,
      "ÏįÏģá¿³": 6731,
      "ÍĤ": 6732,
      "Ġá¼ĶÎ»Î±Î²ÎµÎ½": 6733,
      "ĠÎ³Î¬Î¼Î¿Î½": 6734,
      "te": 6735,
      "ĠÎ²Î¯Î¿ÏĤ": 6736,
      "ĠÎ¼ÎµÏģá¿¶Î½": 6737,
      "Ġá¼½": 6738,
      "Ġá¼ĶÎºÎ±": 6739,
      "ĠÏĦÎµÏĦÎ±Î³": 6740,
      "ÏħÏģÏī": 6741,
      "ÏĩÎ¸Î±Î¹": 6742,
      "Ġá¼ĶÎ½Î¹": 6743,
      "Î¡ÎĳÎ¤": 6744,
      "Ġá¼ĢÎºÎ¿ÏįÎµÎ¹Î½": 6745,
      "ĠII": 6746,
      "ÏĨÎ¸Î±Ïģ": 6747,
      "Î»Î»Î¿Ïħ": 6748,
      "Î¸ÎµÎ½ÏĦÎ¿": 6749,
      "ĠÎµá¼¶Î´Îµ": 6750,
      "ĠÏĦÎ±Ïģ": 6751,
      "ĠÏĦá¿¶": 6752,
      "ÏİÏģÎ¿Ïħ": 6753,
      "ÏħÎ¼Î½": 6754,
      "Ġá¼ĲÎ»ÎµÏħÎ¸ÎµÏģÎ¯Î±ÏĤ": 6755,
      "Î¯Î½Î¿ÏĤ": 6756,
      "ĠÏĢá½¼ÏĤ": 6757,
      "ĠÏĢÏģÎ¬Î¾ÎµÏīÎ½": 6758,
      "Î»Î¬ÏĩÎ¹ÏĥÏĦÎ¿Î½": 6759,
      "he": 6760,
      "ĠÎ¿á½ĲÎ´ÎµÎ½á½¶": 6761,
      "Ġá¼ĲÏĢÎ¹Î¼": 6762,
      "ĠÎºá¼ĢÎ½": 6763,
      "ĠÎ£ÏħÏģÎ¯": 6764,
      "Î¹ÏĥÎ¼á½¸ÏĤ": 6765,
      "ĠÎłÎ±ÏįÎ»Î¿Ïħ": 6766,
      "ÏĥÏĦÎ¹Îºá½¸Î½": 6767,
      "ĠÎ¸ÎµÎ¯Î±Î½": 6768,
      "ĠÏĥá¿¶": 6769,
      "Ġá¼ĲÏĢÎ¯ÏĥÏĦÎ±": 6770,
      "Î´ÎµÎ´": 6771,
      "ĠW": 6772,
      "ÏĥÏĦÎ±ÏĦÎ¿Î½": 6773,
      "Ġá¼ĲÎ³ÎµÎ¯": 6774,
      "Î»Îµá½ºÏĤ": 6775,
      "ÏģÎµÎ¼": 6776,
      "ĠÏĥÏĨÎ±Î³": 6777,
      "ÏĢÎ»Î¬Î³": 6778,
      "ÎķÎ»Î»Î·Î½": 6779,
      "ĠÎ´ÏĮÎ¾á¿ĥ": 6780,
      "Ġá¼ĶÎ¾Îµ": 6781,
      "ĠÎ¼ÎµÎ³ÎŃ": 6782,
      "ÏĦÎ¿ÏįÏĤ": 6783,
      "ĠÎ»á¿ĥ": 6784,
      "ĠÎ£ÎºÏį": 6785,
      "ĠÎĶÎĹÎľ": 6786,
      "Ġá½ķÎ»Î·ÏĤ": 6787,
      "ĠÎ¼ÎµÎ»Îµ": 6788,
      "ÏħÏĥÏĦ": 6789,
      "Ġá¼ĦÎ¼ÏĨÏī": 6790,
      "ĠÎºÏĦá¿Ĩ": 6791,
      "ĠÎµá¼°ÏĥÎ±": 6792,
      "ÏĢÎ»Î¬": 6793,
      "Ġá¼ĦÎ³ÎµÎ¹Î½": 6794,
      "ĠÎ³ÎŃÎ³ÏģÎ±ÏĢÏĦÎ±Î¹": 6795,
      "ĠÎ±á½ĲÏĦÎ¿": 6796,
      "ĠÎ£Î¯Î¼ÏīÎ½": 6797,
      "Ġá¼ĲÎºÎµÎ¯Î½á¿ĥ": 6798,
      "ĠÎ¼ÎŃÎ»Î¹": 6799,
      "],": 6800,
      "ĠÏĥÏħÎ½ÏĦÎ¬": 6801,
      "ĠÏĢÎ»Î¿á¿ĸÎ±": 6802,
      "Î»Î»Î·": 6803,
      "ÎĻÎ©ÎĿ": 6804,
      "Ġá¿¥Î¯Î¶": 6805,
      "ĠÎ£ÏīÏĦá¿ĨÏģÎ¿ÏĤ": 6806,
      "ĠÎ³Î½ÏīÏĥÏĦ": 6807,
      "ĠÎļÎ»ÎŃ": 6808,
      "Ġá¼ĢÎ³Î½": 6809,
      "ÏİÎ½ÏħÎ¼Î¿Î½": 6810,
      "Î²Î¿": 6811,
      "Î®Î¼Î·": 6812,
      "ĠÏĢÎ¿Î»á½ºÏĤ": 6813,
      "ĠÎµá½ĲÎ»Î±Î²": 6814,
      "ÏģÎ¹Î½Î¸": 6815,
      "ĠÎ³ÎµÎ½Î½Î®": 6816,
      "ÏİÏĥÎµÏīÎ½": 6817,
      "Ġá¼ĢÎ³Î³ÎµÎ»": 6818,
      "ĠÏĨÎ·Î¼": 6819,
      "ÏĥÎ¯Î±Î¹": 6820,
      "ÎµÎ²Î»Î·": 6821,
      "ĠÏĢÎ¿á¿ĸ": 6822,
      "ĠÎĿÎ±Ïħ": 6823,
      "ĠÎ¿Î½": 6824,
      "Î¿ÏħÎ¼ÎŃÎ½Î¿Î¹ÏĤ": 6825,
      "Ġ68": 6826,
      "ĠÎ´ÏįÏī": 6827,
      "ÏĦá½²": 6828,
      "Ġá¼ĳÎ²Î´Î¿Î¼": 6829,
      "Ġá¼ĲÏĢÎ¹ÏĦÎµ": 6830,
      "ĠÎºÎ¬Î¸Îµ": 6831,
      "ÏĦÎ±Î³Î¼Î±": 6832,
      "ĠÏİ": 6833,
      "ĠÏĦá¿ĩÎ´Îµ": 6834,
      "ĠÎķÎ¾": 6835,
      "Ġá¼ĶÎ¸Î½Î¿ÏħÏĤ": 6836,
      "ÎĻÎľ": 6837,
      "ĠÏĦÏģÎ¿ÏĢ": 6838,
      "Ġá¼ĲÏĢÎ¬Î½Ïī": 6839,
      "Ġá¼±ÏĢÏĢÎ¿": 6840,
      "Î¬ÏĥÏĥÎ¿Î½": 6841,
      "ÏĥÎµá½ºÏĤ": 6842,
      "ĠÎ¼ÏĮÎ½Î¿Ïħ": 6843,
      "ÏĦÏģÎ±ÏĤ": 6844,
      "ĠÎĪ": 6845,
      "ĠÏĢÏģÎ¿ÏĨÎ®ÏĦÎ·ÏĤ": 6846,
      "Î³Î½Ïİ": 6847,
      "ĠÏĢÏħÏģá½¶": 6848,
      "ĠÏĥÏĨÏģÎ±Î³": 6849,
      "ÏĮÎ½Î¿Î¹Î±Î½": 6850,
      "á¿¶Î½ÏĦÎ±": 6851,
      "ĠÎĺÎ®": 6852,
      "Ġá¼°ÎŃÎ½Î±Î¹": 6853,
      "ĠÎºÎ±Î¹ÏģÎ¿á¿¦": 6854,
      "Î¸ÏįÎ¼ÏīÏĤ": 6855,
      "Ġá¼ĲÏĢÎ¹ÏĦ": 6856,
      "Ġá½¨": 6857,
      "ÏĥÏĢÎ±": 6858,
      "ĠÏĦÏħ": 6859,
      "ĠÏĢÏĦ": 6860,
      "ÏĥÏį": 6861,
      "Î±Î»Î¼Î±": 6862,
      "Ġá¼ĶÏģÎ³Î¿Î¹ÏĤ": 6863,
      "Î¯Î½ÎµÏĥÎ¸Î±Î¹": 6864,
      "Ġá¼ĢÎ³Î³ÎŃÎ»ÏīÎ½": 6865,
      "ĠÏĢÎ±Î¸á¿¶Î½": 6866,
      "Ġá¼ĲÎ¼á½´Î½": 6867,
      "ĠÎľÏīÏĥ": 6868,
      "Ġá¼ĶÎ½Î½Î¿Î¹Î±Î½": 6869,
      "ĠÎ±á¼°Îµá½¶": 6870,
      "ÏĥÏĦÎ±Î½ÏĦÎ±Î¹": 6871,
      "ĠÎ¼ÏħÎ¸": 6872,
      "ĠÎ´ÎµÏĩ": 6873,
      "ĠÏĢÎµá¿ĸ": 6874,
      "Ġá½Ŀ": 6875,
      "ÏĢá¿ĥ": 6876,
      "Ġá¼ĳÎ±ÏħÏĦá¿ĨÏĤ": 6877,
      "Î»Î¿ÏĨ": 6878,
      "Ġá¼ĲÏĢÎ¬": 6879,
      "ĠÎ±á¼°ÏĦÎ¯Î±": 6880,
      "ÏĢÎµÎ¹ÏĦÎ±": 6881,
      "ĠÎ½Î¿Î¼Î¿Î¸ÎŃ": 6882,
      "Ġá½ĢÏĨÎµÎ¹": 6883,
      "40": 6884,
      "Î»á½´Î¼": 6885,
      "Ġá¼ĲÏĢÎ¹ÎºÎ±Î»": 6886,
      "ĠÏĦÎ¬ÏĤ": 6887,
      "Ġá¼ĶÏĥÎ¿Î½ÏĦÎ±Î¹": 6888,
      "Ġá¼±ÎµÏģá½°": 6889,
      "ÎµÎ»Î»": 6890,
      "Î¿á¿ĨÏĤ": 6891,
      "50": 6892,
      "Ġá¼ĢÎ»Î»Ê¼": 6893,
      "ÏĥÎ¼ÎŃÎ½Î·": 6894,
      "ĠÎ²Î»Î±ÏĥÏĨÎ·Î¼": 6895,
      "22": 6896,
      "ÏĨÎ¹Î»": 6897,
      "ÎºÏĦÎ±Î¹": 6898,
      "ĠÎ¼ÎŃÎ½ÎµÎ¹Î½": 6899,
      "á¼Ĩ": 6900,
      "ĠÎ£ÏĦÏģÎ±": 6901,
      "ÎŃÎµÎ¹": 6902,
      "Ġá¼ĲÏĢÎ¹ÎµÎ¹Îº": 6903,
      "ĠÎ¼Î±ÎºÎ±Ïģ": 6904,
      "Î¯Î½Î±ÏĤ": 6905,
      "ĠÎĽÏį": 6906,
      "ĠÎ±á½ĲÏĩ": 6907,
      "ĠÎ¼Î±Î³": 6908,
      "ius": 6909,
      "Ġá¼ĢÏĦÎ¹Î¼": 6910,
      "ĠÎ¶ÏİÏīÎ½": 6911,
      "Î¥Îļ": 6912,
      "Ġá¼ĢÎ½Î±Î»Î¿Î³": 6913,
      "Ġá¼ĲÎ½Î¸Î¬Î´Îµ": 6914,
      "ĠÏĦÎ±á¿¦ÏĦÎ¬": 6915,
      "ÏĦÎ¿ÏħÎ½": 6916,
      "ÏİÎ¼ÎµÎ½Î¿Î½": 6917,
      "Ġá¼ĢÏģÎ³ÏħÏģ": 6918,
      "Ġá¼ĦÎ¸": 6919,
      "Ġá½ĳÏĢÎ¿ÎºÎµÎ¹": 6920,
      "Î´Î±Î¹": 6921,
      "Î¹Î¶Îµ": 6922,
      "Î²Î¿Î½": 6923,
      "ÏĦÎ¯á¾³": 6924,
      "ĠÏĦÏįÏĩÎ·ÏĤ": 6925,
      "ÏĮÎ½Î¿ÏħÏĤ": 6926,
      "Ġá¼ĲÎ²Î±ÏĥÎ¯": 6927,
      "ÏĦÎµÎ¯": 6928,
      "Ġá¼ĢÏĢÎŃÎºÏĦÎµÎ¹Î½": 6929,
      "ÎĳÎĿÎ¤": 6930,
      "Ġá¼ĲÎ²Î¿Ïį": 6931,
      "ÏĥÏĦÎŃÎ¿Î½": 6932,
      "Ġá¼łÎº": 6933,
      "Ġá¼¥Î¼Î¹ÏĥÏħ": 6934,
      "Î¿Î»Î¿Î³Î¯Î±": 6935,
      "ĠÎ½Î®ÏĥÎ¿Ïħ": 6936,
      "ÏĨÎ±ÏĥÎ¹Î½": 6937,
      "ĠÎ³ÎµÎ³ÏĮÎ½Î±": 6938,
      "ĠÏĥÏĦÏģÎ±ÏĦÎ¹ÏīÏĦá¿¶Î½": 6939,
      "ÏĦÎ±ÏģÎ¬": 6940,
      "ĠÎļÎ¿Ïħ": 6941,
      "Î»Î±Î²Î¿Î½": 6942,
      "Î±Î½Î¹": 6943,
      "ĠÏĢÏģÎ¬Î¾ÎµÏīÏĤ": 6944,
      "Î¯á¿ĥ": 6945,
      "Î»Î»ÎµÎ½": 6946,
      "ÎŃÎ½Î±ÏĤ": 6947,
      "ĠÎºÎ±ÏĦÎ±Î½": 6948,
      "ĠÎ³Î±Î¼": 6949,
      "ÎµÎ½ÎµÎ³": 6950,
      "Ġá¼ĶÏĢÏģÎ±": 6951,
      "ĠÎ³ÎŃÏģÏīÎ½": 6952,
      "ĠÎ¸ÏģÎ±Ïĥ": 6953,
      "ĠÏĢÎ±ÏģÎ±ÏĥÏĦ": 6954,
      "ĠÏĥÏĨá¿¶Î½": 6955,
      "Ġá½ĢÏĨÎ¸Î±Î»Î¼á¿¶Î½": 6956,
      "ĠÎ³Î´": 6957,
      "ÏģÎ¿ÏĢ": 6958,
      "ĠÎ³ÏīÎ½": 6959,
      "ÎºÎ±á¿ĸÏĤ": 6960,
      "Ġ100": 6961,
      "ĠÎĿÎŃ": 6962,
      "Ġá½ĢÎ½ÎµÎ¹": 6963,
      "Î¼á½¶": 6964,
      "ĠÎºÎ¿ÏĢ": 6965,
      "Ġá¼ĢÎ³Î±Î½": 6966,
      "ĠÏĢÏħÎºÎ½": 6967,
      "ĠÎĿÎ¿": 6968,
      "Ġá¼ģÎ³Î½": 6969,
      "ĠÏĦÏĮÎ½Î´Îµ": 6970,
      "ÏĦÏĦÎ¿": 6971,
      "ĠÏĦÎ±ÏģÎ±Ïĩ": 6972,
      "ĠÏĨÎ¹Î»Î¿ÏĦÎ¹Î¼": 6973,
      "ÏħÎ½Îµ": 6974,
      "Î¹Î¶ÏĮÎ¼ÎµÎ½Î¿ÏĤ": 6975,
      "ĠÏĢÏĦÎµÏģ": 6976,
      "Ġá½ĢÎºÏĦ": 6977,
      "ĠÎµá¼´ÏĤ": 6978,
      "ĠÏĢÎµÎ½ÏĦÎ±": 6979,
      "ÏĦÎ·ÏģÎ·": 6980,
      "Ġá½¡Î¼": 6981,
      "Î´Î¯ÎºÏīÎ½": 6982,
      "Ġá¼ĢÎ´ÎµÎ»ÏĨá½¸Î½": 6983,
      "Ġá¼ĲÏĢÎ¿Î¯Î·ÏĥÎ±Î½": 6984,
      "Î¿Î¹Î¼Î¹": 6985,
      "Ġá¼ĢÏģÎ¹ÏĥÏĦ": 6986,
      "ÏĨÎ¯": 6987,
      "ĠÎłÎ¿Î¼": 6988,
      "Î¶Î¿Î¼ÎŃÎ½ÏīÎ½": 6989,
      "ĠÎºÎ±Î¸Î¿Î»": 6990,
      "Î´Î¯Î´Ïī": 6991,
      "ÏĢÎ¿ÏħÏĤ": 6992,
      "ÏĦÎ¹Î¸ÎŃ": 6993,
      "ÏĬÎ¿Î½": 6994,
      "Î¹Î¼Î¿Î½": 6995,
      "Ġá¼ĢÎºÎ¿": 6996,
      "ĠÏĢÎ±ÏĦÎ®Ïģ": 6997,
      "ĠÎºÎ±Î¯ÏĢÎµÏģ": 6998,
      "ÏģÎ¹ÏĢÎ¯": 6999,
      "ĠÏĥÏĦÏĮÎ¼Î±ÏĦÎ¿ÏĤ": 7000,
      "ĠÎ³Ïħ": 7001,
      "Ġá¼ĲÏĢÎ±Ïį": 7002,
      "Ġá¼ĲÏĥÏī": 7003,
      "ÏĮÎ³Î¿Ïħ": 7004,
      "Ġá¼¤ÏģÎ¾Î±ÏĦÎ¿": 7005,
      "ĠÎºÎ±ÏģÎ´Î¯á¾³": 7006,
      "Î®Î¸ÎµÎ¹Î±Î½": 7007,
      "ĠÎ¼Î¹á¾·": 7008,
      "Î®ÏĥÎµÏĥÎ¸Î±Î¹": 7009,
      "á¾¶ÏĥÎ±": 7010,
      "ĠÎļÎ±Î¯Ïĥ": 7011,
      "ib": 7012,
      "ĠÎ´ÏħÏĥÎº": 7013,
      "Ġá¼ĲÏĢÎ¹ÏĦÏģÎŃ": 7014,
      "ĠSch": 7015,
      "21": 7016,
      "ÎŁÎ¥Îļ": 7017,
      "ĠÎĴÎµÎ½": 7018,
      "ĠÏĦÎ¿Î¹Î±á¿¦": 7019,
      "ĠÎļÎ¿ÏģÎ¯": 7020,
      "ÎµÎ¹ÏģÎ±Î¹": 7021,
      "Î¬ÎºÎ·ÏĤ": 7022,
      "Î¼ÎŃÎ½á¿ĥ": 7023,
      "ĠÎ²Îµ": 7024,
      "Ġal": 7025,
      "Ġá½ĢÎ½ÏĮÎ¼Î±": 7026,
      "ĠÎ¼Î½Î®Î¼Î·Î½": 7027,
      "Î¿á¼±": 7028,
      "Î¿Î½Î±": 7029,
      "ĠÏĨÎ±Î¯": 7030,
      "Ġá¼łÏĢÎµÎ¯": 7031,
      "ĠÎķá¼¶Î½Î±Î¹": 7032,
      "Ġá¼ĢÏĢÎŃÏĩ": 7033,
      "ĠÎºÎ±ÏĦÏĮÏĢÎ¹Î½": 7034,
      "ĠÎºÎ±ÏĢÎ½": 7035,
      "Î½á¿³": 7036,
      "ÎķÎ½": 7037,
      "Î¼Ïī": 7038,
      "Ġ186": 7039,
      "ÏĥÎŃ": 7040,
      "ÏĮÏģÎ·": 7041,
      "Ġá½ĢÎ»Î¯Î³ÏīÎ½": 7042,
      "ĠÏĢÎ±Ïĩ": 7043,
      ",âĢĿ": 7044,
      "Î¼Î¹Î½": 7045,
      "Î±á¿ĸÏģÎµ": 7046,
      "ÎµÏģÎ³ÎŃ": 7047,
      "ĠÏĢÎ±Î¯": 7048,
      "Î±Î³á½¼Î½": 7049,
      "ĠÎ¤Î¿ÏħÏģÎº": 7050,
      "ĠÎ¸Î±Ïį": 7051,
      "Ġá½ģÏģá¿¶": 7052,
      "ĠÎľÎ¹ÏĩÎ±": 7053,
      "Ġá¼¡Î»Î¹ÎºÎ¯Î±ÏĤ": 7054,
      "Ġá¼Ĳá¿¤á¿¥": 7055,
      "ĠÏģÎ¯": 7056,
      "ĠÏĥÏĨÎ¯ÏĥÎ¹Î½": 7057,
      "Ġá½ħÏĢÎ»ÏīÎ½": 7058,
      "Î¿Î»Î¿Î³Î¯Î±Î½": 7059,
      "ÏĥÎºÎŃ": 7060,
      "Ġde": 7061,
      "ÎŃÏĥÏĦÎµ": 7062,
      "Ġá½ħÏģÎº": 7063,
      "ÏĢÏĦá¿³": 7064,
      "ĠÎ½Î±ÏħÎ¼Î±Ïĩ": 7065,
      "Ġá¼ĻÎ²ÏģÎ±": 7066,
      "Î»Î¿ÏħÏĤ": 7067,
      "Ġá¼¥ÎºÎ¹ÏĥÏĦÎ±": 7068,
      "ÏįÎ½Î·Î½": 7069,
      "ĠÎ¿á¼¶Î´ÎµÎ½": 7070,
      "Ġá¼ĲÏĢÎ¹ÏĦÏħÏĩ": 7071,
      "Ġá¼ĢÎ½Î±ÏĩÏīÏģ": 7072,
      "ÎµÏĥÎ±Î½": 7073,
      "ĠÏĪÎ±Î»Î¼": 7074,
      "ĠÎ³Î»á¿¶ÏĥÏĥÎ±Î½": 7075,
      "ĠÏĨÎ±Ïĥá½¶": 7076,
      "ĠÎĿÎ±Î¯": 7077,
      "Ġá¼´ÏĥÏĩ": 7078,
      "ÏĦÎŃÎ¸Î·": 7079,
      "ĠÎ»ÎµÏħ": 7080,
      "ÏĩÎµÏĦÎ¿": 7081,
      "Ġá¼ĶÏĢÎ¹": 7082,
      "ĠÏĥÏĦá½°": 7083,
      "Î¬Î¶Î¿ÏħÏĥÎ¹": 7084,
      "ĠÏĢÎ»Î·ÏģÎ¿ÏĨ": 7085,
      "ÏĦá½´": 7086,
      "Ġá½ħÎ»Î¿Ïħ": 7087,
      "Îºá½¼ÏĤ": 7088,
      "ĠÏĢÎ±ÏģÎ®": 7089,
      "Ġá¼ĢÎ½Î±Î¯": 7090,
      "ĠÎ³ÏģÎ¬ÏĨÎµÎ¹": 7091,
      "ĠÏĦÎµÏĦÏģÎ¬": 7092,
      "ÏģÎ¹á¿¶Î½": 7093,
      "ĠÏĥÏĦÎŃÏĨÎ±Î½": 7094,
      "Ġá¼ĲÏĢÎ±Î³Î³ÎµÎ»": 7095,
      "ĠÏĦÏĮÎ´": 7096,
      "ÏĦÎ¹ÎºÎ¿á½ºÏĤ": 7097,
      "ĠÎ±á¼°ÏīÎ½": 7098,
      "ÏįÎ³ÏĩÎ±Î½": 7099,
      "ÏĦÎ±Î¾ÎµÎ½": 7100,
      "ĠÎłÎ¹": 7101,
      "Î»Î»ÎµÎ¹": 7102,
      "ĠÎ¿á½ĲÎ´ÎµÎ¼Î¯Î±": 7103,
      "Ġá¼ĢÏĢÎ¿ÎºÏģÎ¯": 7104,
      "ÎŃÎ»Î»ÎµÎ¹": 7105,
      "Î¿ÎºÎ»á¿ĨÏĤ": 7106,
      "ÏĦÎ®ÏģÎ¹Î±": 7107,
      "ĠÏĦÏģÎ¿ÏĨá¿ĨÏĤ": 7108,
      "ĠÏĢÎ±Ïĥá¿¶Î½": 7109,
      "Ġá¼ĲÏĨÎµ": 7110,
      "Ġá¼ĲÎºÏĦÎµÎ»ÎŃ": 7111,
      "ĠÏĥá¿ĨÏĤ": 7112,
      "Î¿Î»Î¬": 7113,
      "ĠÏĢÎµÎ¯Î¸": 7114,
      "ĠÏĦÏįÏĢÎ¿Î½": 7115,
      "ÏĢÎµÏģá½¶": 7116,
      "45": 7117,
      "Ġá½ĦÏģÎ¿ÏħÏĤ": 7118,
      "Ġá¼µÏĢÏĢÎ¿Î½": 7119,
      "ĠÎºÎ»Î¹": 7120,
      "ÏĥÏĦÎ®ÏĤ": 7121,
      "ÏĥÎ·Î½": 7122,
      "ÏİÏĥÏī": 7123,
      "ĠÎ»Ïħ": 7124,
      "Ġá½łÎ½ÏĮÎ¼Î±": 7125,
      "ĠÎ´Îµá¿¦ÏģÎ¿": 7126,
      "ĠÏĩÎµÏģÏĥá½¶Î½": 7127,
      "ĠÎ±á½ĳÏĦá½¸Î½": 7128,
      "ĠÏĢÎ»Î·ÏĥÎ¹": 7129,
      "ĠÎ´Î¹Î±ÏĨÎŃÏģÎµÎ¹": 7130,
      "Ġá¼ĶÏģÎ³Î¿Ïħ": 7131,
      "ÏĥÎ¸ÎŃÎ½ÏĦÏīÎ½": 7132,
      "ĠÏĦÏħÎ³ÏĩÎ¬Î½ÎµÎ¹": 7133,
      "Î»Î±Î²ÎµÎ½": 7134,
      "ĠÎ¸Îµá¿ĸÎ¿ÏĤ": 7135,
      "ĠÎ»Î±á¿¶Î½": 7136,
      "Ġ66": 7137,
      "ĠÎ»Î±Î²ÏĮÎ½ÏĦÎµÏĤ": 7138,
      "ÎŃÎ³Î½Ïī": 7139,
      "ÏĨÎ·Î¼": 7140,
      "ÏĦÎ¿Î»Îµ": 7141,
      "Ġá¼ĳÏĦÎŃÏģá¿³": 7142,
      "ÏģÎ±ÏĦÎ¿": 7143,
      "Î»ÎµÎ¾Î±Î½Î´Ïģ": 7144,
      "ÏĦÎ¿Î»Î¹Îº": 7145,
      "Î²Î¬Î»Î»ÎµÏĦÎ±Î¹": 7146,
      "ĠÎºÎ±ÎºÎ¿": 7147,
      "ĠÎ¼Î·Î´ÎŃ": 7148,
      "Ġá¼ĢÎ½Î±ÏĦÎ¿Î»": 7149,
      "ĠÎ»Î¬Î²á¿ĥ": 7150,
      "Î¼Î¿Î½Î±ÏĤ": 7151,
      "Î®ÏĥÎ±Î½ÏĦÎ¿": 7152,
      "ĠÏĢÏħÎ¸": 7153,
      "Î´Î·Î»": 7154,
      "ÏİÏģÎµÎ¹": 7155,
      "ÏĢÎ¿Î½ÏĦÎ¿": 7156,
      "ĠÎ½ÏįÎ¼ÏĨ": 7157,
      "ÏĩÎ¿Î¹": 7158,
      "Ġá¼ĲÏĢÎ¯Îº": 7159,
      "Ġá½ĢÏĨÎ¸Î±Î»Î¼Î¿á½ºÏĤ": 7160,
      "ĠÎºÎ±Î»ÏĮÎ½": 7161,
      "Ġá¼ĢÎ¼Ïį": 7162,
      "ĠÎ½ÎŃÏīÎ½": 7163,
      "ĠÎ¸Î·ÏĥÎ±ÏħÏģ": 7164,
      "Ġá¼ĲÎºÎ´": 7165,
      "ĠÎ£Î¿Ïħ": 7166,
      "Ġá¼ĢÏģÏĩÎ¹": 7167,
      "Ġá¼ĲÎ½Î±Î½ÏĦÎ¯Î±": 7168,
      "Î»ÎµÎ¯Î¿Ïħ": 7169,
      "ĠÎºÎ½": 7170,
      "ĠÎĶÏī": 7171,
      "Î´Î¹á½°": 7172,
      "Ġ69": 7173,
      "Ġá½ĢÎºÏĦá½¼": 7174,
      "ĠÎĶÎ·Î¼Î®": 7175,
      "ÏĥÎ¼Î±ÏĦÎ¿ÏĤ": 7176,
      "Î´ÏģÏīÎ½": 7177,
      "Ġá¼ĲÎºÏĦÎŃÎ»Îµ": 7178,
      "Î»Î·ÏĢ": 7179,
      "Î·Î¼ÎŃÎ½Î¿ÏĤ": 7180,
      "ĠÎ½Î±Î¿á¿¦": 7181,
      "Ġá¼ĶÏĩÎ¿Î½ÏĦÎ¿ÏĤ": 7182,
      "ĠÎµá¼¶ÎµÎ½": 7183,
      "Î¿á¿¦ÏĦÎ¿ÏĤ": 7184,
      "á¿ĨÎºÎ¿Î½": 7185,
      "Ġá¼ĲÎ¾Î¿ÏħÏĥÎ¯Î±ÏĤ": 7186,
      "Î¯Î´ÎµÏĤ": 7187,
      "Î¼á½¸ÏĤ": 7188,
      "ĠÎĺÏģ": 7189,
      "Î¸ÏģÏī": 7190,
      "ĠÎ½Î±á½¸Î½": 7191,
      "ĠÎ´Î¹Î±ÏģÎº": 7192,
      "ĠÎłÏį": 7193,
      "ĠÎ¤ÏģÎ±": 7194,
      "ĠÏĦÎµÏĥÏĥÎ±Ïģ": 7195,
      "Ġá¼ĢÎ½ÏĦÎŃ": 7196,
      "ÏĥÎ¯Î¿Î¹ÏĤ": 7197,
      "Ġá¼ĢÏĨÎµÎ»": 7198,
      "ĠÎºÏģÏħ": 7199,
      "Î¿Ïĩá½´Î½": 7200,
      "Î¹ÏĥÏĥÎ±": 7201,
      "Î±Î½Î¿Ïħ": 7202,
      "ÎŃÎ¸": 7203,
      "ĠÏĢÎ¿Î¹Î®ÏĥÎµÎ¹": 7204,
      "ĠÎĳÏģÏĩ": 7205,
      "ĠÏĢÎ¿Î»Î»Î±á½¶": 7206,
      "Ġá¼ľÏĥÏĦÎ¹": 7207,
      "Ġá½¦Î½": 7208,
      "ĠÎ½ÏįÎº": 7209,
      "ÏĮÏĥÎ¿ÏĨ": 7210,
      "ÏĮÏģÎ¿ÏĤ": 7211,
      "Ġá¼ģÎ¼Î±ÏģÏĦÎ¯Î±Î½": 7212,
      "Ġw": 7213,
      "Ġ63": 7214,
      "Î»Î·ÏĤ": 7215,
      "Î´ÎµÎºÎ¬": 7216,
      "Î¡ÎŁÎ£": 7217,
      "Î»Î±Î²Îµá¿ĸÎ½": 7218,
      "ĠÎļÎĳ": 7219,
      "Ġá¼±ÎµÏģÎµá¿ĸÏĤ": 7220,
      "ĠÎºÎ±ÏĦÎ±Ïģ": 7221,
      "Ġá¼ĢÎ´ÎµÎ»ÏĨá½¸ÏĤ": 7222,
      "Ġ187": 7223,
      "Îµá¿ĸÏĥÎ¸Îµ": 7224,
      "ĠÎ³Î½ÏīÏģÎ¯": 7225,
      "ĠÏĢÏģá¾¶Î¾Î¹Î½": 7226,
      "ĠÏĦÏģÏĮÏĢÎ¿ÏĤ": 7227,
      "ĠÏĢÎ»Î®Î¸Î¿ÏħÏĤ": 7228,
      "ÎĳÎ½ÏĦÎ¯": 7229,
      "Î½ÎµÏĥÎ¹Î½": 7230,
      "Ġá¼ĢÏĨÎ±Î¹Ïģ": 7231,
      "ĠÎ´Î¯ÎºÎ±Î¹Î¿ÏĤ": 7232,
      "ĠÎ³Î½á¿¶": 7233,
      "Ġá¼ħÎ³Î¹Î¿ÏĤ": 7234,
      "ÏħÏĦá¿·": 7235,
      "ĠÎ´Î·Î¼Î¿ÎºÏģÎ±": 7236,
      "Ġá¼ĢÏĢÏĮÏĨÎ±ÏĥÎ¹Î½": 7237,
      "Ġá¼ĶÎ¿Î¹ÎºÎµÎ½": 7238,
      "ĠÏĥá½´Î½": 7239,
      "ĠÏĢÏģÏĮÎºÎµÎ¹ÏĦÎ±Î¹": 7240,
      "ÏĨÏİÎ½": 7241,
      "Ġá¼ĢÏĢÎ¿ÏĥÏĦÏĮÎ»ÏīÎ½": 7242,
      "Ġá½ķÎ»Î·Î½": 7243,
      "ÏģÎ¿ÏĦÎ¬": 7244,
      "Ġá¼ĢÎºÎ¹Î½": 7245,
      "Ġá¼ĳÏĦÎ±á¿ĸ": 7246,
      "ĠÎľÎµÏĥ": 7247,
      "ÏĦÎ¿ÏħÏĥÎ¹": 7248,
      "ĠÎ³ÏģÎ±": 7249,
      "ĠÏĢÏģÎ¿ÏĦÎµ": 7250,
      "Î¿Î´Î¹": 7251,
      "ÏĥÏĦÎ·ÏĥÎµÎ½": 7252,
      "ĠÎĶÎĻ": 7253,
      "Î¿ÏĥÏįÎ½Î·ÏĤ": 7254,
      "ÏĦÏģÎ¿ÏĨ": 7255,
      "ÏĥÎ¼ÏĮÏĤ": 7256,
      "Î¬ÎºÎ¹": 7257,
      "ĠÎ¿á½ĶÎ¸": 7258,
      "ĠÎ¿á¼°ÎºÎµÎ¹": 7259,
      "ĠÏĨÎ¹Î»Î¿ÏĥÏĮÏĨ": 7260,
      "ia": 7261,
      "Ġá¼¡ÏĦ": 7262,
      "ĠÎ¦Î¯Î»Î¹ÏĢÏĢÎ¿ÏĤ": 7263,
      "ĠÎ²Î¹Î²Î»Î¯Î±": 7264,
      "ĠÎĻÎ£Î¤": 7265,
      "Ġá¼¡Î¼ÎµÏģ": 7266,
      "ĠÎ£ÏĢÎ¬Ïģ": 7267,
      "ĠÎ¼á¿ĨÎºÎ¿ÏĤ": 7268,
      "ĠÎ£Î·Î¼": 7269,
      "ĠÏĥÏħÎ½ÎŃÎ²Î·": 7270,
      "Ġ75": 7271,
      "ĠÏĢÏģÎ¿ÏĦÎ¹Î¼": 7272,
      "ĠÎĮ": 7273,
      "Î±ÏģÏĩÎ¿Î½": 7274,
      "ĠÏĦÎ¿Î¹Î¿ÏįÏĦÎ¿ÏħÏĤ": 7275,
      "Î¯Ïĥá¿ĥ": 7276,
      "ĠÎ»Î¿Î½": 7277,
      "Î´á½¼Î½": 7278,
      "ĠÏĢÎ¬Î½ÏĦ": 7279,
      "á¿ĦÎµÎ¹": 7280,
      "Î´Î¿ÏĥÎ¹ÏĤ": 7281,
      "Ġá¼ģÏģÏĢ": 7282,
      "ĠÎ¸Î¿Ïģ": 7283,
      "Î³Î¿Ïį": 7284,
      "Ġá¼ķÏĦÎ¿Î¹": 7285,
      "ÏįÏģÏī": 7286,
      "ĠÏĦÎ¿ÏĢ": 7287,
      "Î»Î±Î¼Î²Î±Î½": 7288,
      "Î¬ÏĥÎ¸Î·": 7289,
      "Ġá½ĢÎº": 7290,
      "Ġá¼ĦÎ¼ÎµÎ¹Î½Î¿Î½": 7291,
      "á¿¶Î½Î¹": 7292,
      "ĠÎ´Î¹ÎºÎ±Î¹Î¿ÏĥÏįÎ½Î·Î½": 7293,
      "ĠÎµá¼¶Î´ÎµÎ½": 7294,
      "Ġá¼ĲÎ³Î³Ïį": 7295,
      "Ġá¼ĦÎ»Î»Î±Î¹": 7296,
      "ĠÏĢÎ±ÏģÎ±Î¹Î½": 7297,
      "Ġá¼ĢÏĢÎ±Î½": 7298,
      "Î¼Î¹Î¿Î½": 7299,
      "Ġá¼ĶÎ¿Î¹ÎºÎµ": 7300,
      "io": 7301,
      "ĠÏĦá½¸ÏĤ": 7302,
      "ĠÏĢÏģÏĮÏĥ": 7303,
      "ĠÎ¿Ïį": 7304,
      "Î¼ÎŃÎ½ÎµÎ¹": 7305,
      "Ġá¼ĢÏĢÎ¿Î¶": 7306,
      "Î¸ÎŃÏĤ": 7307,
      "ĠÎ¿á½ĲÏģÎ±Î½á¿¶Î½": 7308,
      "ĠÏĨÏīÎ½á½´": 7309,
      "Ġadd": 7310,
      "ĠÏĢÏģÎ¿ÏĥÏĦÎ¬": 7311,
      "Î¿Î¸Îµ": 7312,
      "ĠÎ¿á¼°ÎºÎ¿Î³ÎµÎ½": 7313,
      "Ġá¼ĳÎ±ÏħÏĦá½´Î½": 7314,
      "Ġá¼¤Î¸ÎµÎ»Î¿Î½": 7315,
      "ÏħÎ¼Î²": 7316,
      "ĠÏĦÎµÎ»ÎµÏħÏĦÎ±á¿ĸÎ¿Î½": 7317,
      "Ġá¼¶": 7318,
      "ĠÎ´Î¹Î±ÏĦÎ±Î³": 7319,
      "ĠÎ¼ÎµÏĥÎ·Î¼": 7320,
      "ĠÏĥÏħÎ½Î±Î»Î»": 7321,
      "ĠÎµÏĢ": 7322,
      "ĠÏĢÎ»Î·Ïģ": 7323,
      "ÎµÏįÎ¸ÏħÎ½": 7324,
      "Î½Î·ÏĦÎ±Î¹": 7325,
      "ĠÏĢÎ·": 7326,
      "ÏħÏĥá½¶": 7327,
      "ÏĥÎ¯Î¿ÏħÏĤ": 7328,
      "ĠÏĦÎŃÏĦÎ±Ïģ": 7329,
      "ĠÎºÏĦÎ¹": 7330,
      "ÏĥÎ¯á¿³": 7331,
      "ĠÎļÎ¿ÏģÎ¯Î½": 7332,
      "ĠÎ¼Î¹ÎºÏģÎ¿á¿¦": 7333,
      "ĠÎ»Î±Î½": 7334,
      "ĠÏĢÎµÏģÎ¹ÎµÏĩ": 7335,
      "ÏĦÏħÏĢ": 7336,
      "ĠÏĨÎ±Î¹": 7337,
      "ĠÎµá½ĲÏĥÎµÎ²ÎµÎ¯Î±ÏĤ": 7338,
      "Î¬Î´Î±ÏĤ": 7339,
      "Ġá¼łÎ´": 7340,
      "Î¥Îĵ": 7341,
      "ÎĳÏĩ": 7342,
      "Ġá¼ĦÏģÏĩÏīÎ½": 7343,
      "ĠÎ¸Î±Î½Î¬ÏĦá¿³": 7344,
      "Î¬Î³Î¿Ïħ": 7345,
      "á¼ĳ": 7346,
      "ĠÏĦÎ·Î»Î¹Îº": 7347,
      "Ġá¼ĢÎ»Î®Î¸ÎµÎ¹Î±": 7348,
      "ĠÎ£Î±Î²": 7349,
      "ÏģÎ¬ÏĨÎ·": 7350,
      "ÏĦÎµÏĦÎ¿": 7351,
      "Ġá½ĢÏģÎ³á¿ĨÏĤ": 7352,
      "ĠÎ»ÎŃÎ³Îµ": 7353,
      "ĠÎºÎ±ÏģÎ´Î¯Î±": 7354,
      "ÏģÎ¹Î¿Î¹": 7355,
      "ĠÎ³ÎµÎ½Î¿Î¼ÎŃÎ½ÏīÎ½": 7356,
      "ĠÎ¼ÏħÏģÎ¹Î¬": 7357,
      "Ġ70": 7358,
      "Ġá½ģÎ»ÏĮÎºÎ»Î·": 7359,
      "ĠÎ³ÏģÎ±Î¼Î¼Î¬ÏĦÏīÎ½": 7360,
      "ĠÎ¸Î±Î»Î¬ÏĦ": 7361,
      "ĠÏĢÎ¿Î»Î¹ÏĦÎµÎ¯Î±Î½": 7362,
      "Î»Î®ÏģÏī": 7363,
      "ĠÎµá¼·": 7364,
      "Ġá½ĳÏĢÎ®": 7365,
      "Ġá¼ĲÏĢÎ¹ÏĦÏģÎŃÏĢ": 7366,
      "Ġá¼ĲÎ´á¿¶": 7367,
      "ĠÎļÏīÎ½ÏĥÏĦÎ±Î½ÏĦÎ¹Î½Î¿ÏħÏĢÏĮÎ»ÎµÏīÏĤ": 7368,
      "ĠÎºÎ»ÏĢ": 7369,
      "ĠÏĢÎµÏģÎ¹Îº": 7370,
      "ĠÏĦÏħÏģÎ±Î½Î½Î¯": 7371,
      "ÏįÎ½Î±ÏĤ": 7372,
      "Ġá¼±ÏĢÏĢÎµá¿ĸÏĤ": 7373,
      "Ġá¼ĦÎ³Î³ÎµÎ»Î¿ÏĤ": 7374,
      "Ġá¼ĢÎ½Î®Ïģ": 7375,
      "ĠÏĢÎ»Î®Î¸ÎµÎ¹": 7376,
      "ĠÎĳá¼´Î³ÏħÏĢÏĦÎ¿Î½": 7377,
      "ĠÎŁá¼¶": 7378,
      "ĠÎ»Î¯Î¼Î½": 7379,
      "ÏĥÎ¬ÎºÎ¹ÏĤ": 7380,
      "Ġá¼µÏĢÏĢÎ¿Î¹": 7381,
      "Ġá¼ĢÎ½Ïī": 7382,
      "ĠÎļÎ±ÏĦ": 7383,
      "Îµá¿ĸÎ¿Î¹": 7384,
      "á½Ĺ": 7385,
      "ÎŃÎµÏĤ": 7386,
      "Î¹ÎºÎ¿ÏĤ": 7387,
      "ÎºÎ¿Î½ÏĦÎ¿ÏĤ": 7388,
      "Î¯Î´Î¹": 7389,
      "ĠÎ£ÏħÎ¼Î²": 7390,
      "ĠÎĶÎ¹ÏĮÏĦÎ¹": 7391,
      "Î¼Î¿ÏħÏĤ": 7392,
      "ĠÎłÎŃ": 7393,
      "Î¿Î¼Î¹": 7394,
      "ĠÎ²Î¿ÏħÎ»ÎµÏħ": 7395,
      "ĠÎĽÏĮÎ³Î¿Ïħ": 7396,
      "Ġá¼ģÏģÎ¼Î¿Î½": 7397,
      "ÏĮÎ½Î´Îµ": 7398,
      "ĠÏĢÎŃÏģ": 7399,
      "ab": 7400,
      "ĠK": 7401,
      "ÎŃÎ²Î±Î»Î¿Î½": 7402,
      "ĠÎľÎ·ÏĦ": 7403,
      "ÏĢÎ±Î¯": 7404,
      "ĠÏĪá¿Ĩ": 7405,
      "ĠÎ±á½ĳÏĦá¿·": 7406,
      "ĠÏĢÏģÎ¿ÏĥÎ®ÎºÎµÎ¹": 7407,
      "ĠÏĥÏĦÏģÎ±ÏĦÎ¿ÏĢÎŃ": 7408,
      "Ġá¼ĦÎ¾Î¹Î¿ÏĤ": 7409,
      "ĠÎ³Î±Ïģ": 7410,
      "Ġá¼ĢÏĢÎ¿Î¸Î½Î®ÏĥÎº": 7411,
      "ĠÏĥÏĦÎŃÏģ": 7412,
      "Ġá¼ĦÏĥ": 7413,
      "Ġá¼ĢÏĥÏĨÎ¬Î»": 7414,
      "Ġá¼ĢÎ½ÏĦÎ¹ÎºÎµÎ¹": 7415,
      "ĠÎĳÏĩÎ±Î¹": 7416,
      "ĠÏĢÎ±Î¹Î´ÎµÏį": 7417,
      "ĠÏĢÎ±Î¹Î´Î¯Î¿Î½": 7418,
      "ĠÎĻÎµÏģ": 7419,
      "ÏĥÎ±ÏĨ": 7420,
      "ĠÎ´Î¿Î»": 7421,
      "ĠÎ¶á¿ĩ": 7422,
      "ÏĮÎ»Î¿ÏĤ": 7423,
      "ĠÎºÎµÎºÏĦÎ·": 7424,
      "ĠÎ¦Ïī": 7425,
      "Î®ÏĥÎ±ÏĥÎ±": 7426,
      "ÏĦÎŃÏģá¿³": 7427,
      "ÎĳÎĶ": 7428,
      "Ġá¼ĶÎ¼ÎµÎ»Î»Îµ": 7429,
      "Ġá¼ĲÎºÎµÎ¯": 7430,
      "ÏĢÎ¿ÏĦÎ±": 7431,
      "que": 7432,
      "Ġá¼´Î´Î¹Î±": 7433,
      "ĠÏĥÏħÎ»Î»Î±Î²": 7434,
      "ĠÏĦÏħÏĩÎµá¿ĸÎ½": 7435,
      "Î²Î±ÏĥÎ¹ÏĤ": 7436,
      "Î®ÏģÎ±": 7437,
      "ĠÎºÎ±ÏĦÎ±Î»Ïį": 7438,
      "Î´ÏģÎ±Î½": 7439,
      "Ġá¼ģÎ³Î¯á¿³": 7440,
      "Î¬Î¶Î¿ÏħÏĥÎ¹Î½": 7441,
      "ĠÏĢÎµÎ´Î¯Î¿Î½": 7442,
      "ÏĮÎ²": 7443,
      "ĠÎ´ÏįÎ½Î±Î¹": 7444,
      "ĠÎµÏħ": 7445,
      "ĠÎłÎ¿Î¹": 7446,
      "Ġá½ķÏĢÎ±Ïģ": 7447,
      "ĠÏĥÏĦÏģÎ±ÏĦÏĮÏĢÎµÎ´Î¿Î½": 7448,
      "Î´á¿³": 7449,
      "ĠÎ¦ÏīÎº": 7450,
      "Ġ85": 7451,
      "Ġá¼łÏģÏİ": 7452,
      "ÎµÎ¯Î¼ÎµÎ½Î±": 7453,
      "ĠÎ´ÏħÎ½Î¬Î¼ÎµÏīÎ½": 7454,
      "ĠÏĥÎµÎ²Î±": 7455,
      "ĠÎ´Î¹Î¬ÏĨÎ¿ÏģÎ±": 7456,
      "á¿·Î¿Î½": 7457,
      "ĠÎ»ÎŃÎ¾Î¹Î½": 7458,
      "ÏĮÏĢÎ¿ÏħÎ»Î¿ÏĤ": 7459,
      "ĠÏĥÎºÏĮÏĦÎ¿ÏĤ": 7460,
      "ĠÏĥÏĦÏģÎ±ÏĦá½¸Î½": 7461,
      "ĠÎ³Î½ÏİÎ¼Î·": 7462,
      "Ġá¼¡Î¼Î¹": 7463,
      "ÏĮÏģÎ¸": 7464,
      "ĠÎłÎµÎ»Î¿ÏĢ": 7465,
      "ÎµÎ¯Ïī": 7466,
      "ÏĪÎ±ÏĥÎ¸Î±Î¹": 7467,
      "Î¸Î®ÎºÎ·": 7468,
      "ÏĬÎ½": 7469,
      "Ġá¼ĢÏĢÎŃÏĥÏĦ": 7470,
      "Î¸á¿¶ÏĥÎ¹Î½": 7471,
      "ĠÎ²ÏģÎ¬": 7472,
      "ĠÎłÎµÎ¹ÏģÎ±Î¹": 7473,
      "ĠÎ½á¿ĨÏĥÎ¿Î½": 7474,
      "ÎºÏĮÏĦÎ±ÏĤ": 7475,
      "ĠÎ³Î¹Î³Î½ÏİÏĥÎº": 7476,
      "ĠÎ¼Î·Î´ÎµÎ½á½¸ÏĤ": 7477,
      "ÏĦÏģá¿³": 7478,
      "ĠÏĥÏĢÎŃÏģÎ¼Î±": 7479,
      "ĠÎļÎ¿ÏģÎ¹Î½Î¸": 7480,
      "ĠÏĨÏīÏĦá½¸ÏĤ": 7481,
      "ĠÏĦÏĮÎ»": 7482,
      "ÏĦÎ¿Î¹Î¿": 7483,
      "Ġá¿¥á¿ĨÎ¼Î±": 7484,
      "Ġá¼°Î´Î¹Î¿Îº": 7485,
      "ĠÎ¸ÏįÏģÎ±ÏĤ": 7486,
      "ÎµÎ¯Î½á¿ĥ": 7487,
      "Î¿ÏĩÎ¿Î½": 7488,
      "ĠÏĢÎ¯ÏĥÏĦÎ¹ÏĤ": 7489,
      "ĠÏĥÏħÎ½Î¿Î¹Îº": 7490,
      "ÏĮÎ´ÏīÏģÎ¿ÏĤ": 7491,
      "Ġá¼ĢÎ¸ÏģÏĮ": 7492,
      "ĠÏĥÎ·Î¼Îµá¿ĸÎ±": 7493,
      "ĠÎ¸ÏħÎ¼á½¸ÏĤ": 7494,
      "Ġá¼ĢÎ³Î¬ÏĢÎ·Î½": 7495,
      "ĠÎ²ÎŃÎ»ÏĦÎ¹Î¿Î½": 7496,
      "Ġá¼ĶÏĥÏĩÎµ": 7497,
      "Î¼ÎµÏĦ": 7498,
      "Ġá¼ĲÏĢÎ¹ÎºÏģÎ±": 7499,
      "Î¬Î´ÎµÏĤ": 7500,
      "Î¿Î½Î¿ÏĤ": 7501,
      "Ġá¼ĢÏĢÎ¯": 7502,
      "ĠÎºÎµÎ¯Î¼ÎµÎ½Î¿Î½": 7503,
      "ÎŃÎ²Î·ÏĥÎ±Î½": 7504,
      "ĠÎ³ÎµÎ³Î¿Î½ÎŃÎ½Î±Î¹": 7505,
      "ĠÏĢÎ»Î¿á¿¦ÏĦÎ¿Î½": 7506,
      "ĠÎłÏĦÎ¿Î»Îµ": 7507,
      "ĠÏĥÏĦÏģÎ±ÏĦÎ¹á¿¶ÏĦÎ±Î¹": 7508,
      "Ġá¼ĢÏĢÎ¿Î´Î¹Î´": 7509,
      "Ġ67": 7510,
      "Î¿ÏģÎµÏħ": 7511,
      "ĠÏģÎµ": 7512,
      "ÎµÏħÎ³": 7513,
      "ÏįÎµÎ¹Î½": 7514,
      "ĠÎºÎ¿Î¹Î½Î¿á¿¦": 7515,
      "Ġ0": 7516,
      "Ġá¼ĢÎºÎ¿Î»Î¿Ïį": 7517,
      "ÏĢÎ¿Î»Î¹ÏĤ": 7518,
      "Î¯Î½Îµ": 7519,
      "ĠÏĩÏģá¿ĨÏĥÎ¹Î½": 7520,
      "Î»ÎµÎ¿Î½": 7521,
      "ĠÏĥÏĢÎµÎ¯": 7522,
      "ĠÎ¼Î±Î¶": 7523,
      "Ġcon": 7524,
      "Ġá¼ĺÏĢ": 7525,
      "ĠÏĢÎ¬Î¸Î¿ÏħÏĤ": 7526,
      "ĠÏĢÎ±ÏģÎ±Î³ÎµÎ½": 7527,
      "Ġá¼ĶÎ¸Î¿ÏĤ": 7528,
      "ÏİÎ´ÎµÎ¹ÏĤ": 7529,
      "Ġá¼ĲÏĢÎ¹ÏĥÏĦÎ±": 7530,
      "Ġá¼ĲÎ¼á¿ĨÏĤ": 7531,
      "ĠÎ»Î±Î³": 7532,
      "Ġá¼¡Î¼ÎµÏĦÎŃÏģÎ±ÏĤ": 7533,
      "á½Ģ": 7534,
      "ÏĦÎµÏģÏĮ": 7535,
      "ĠÎµá¼°ÏģÎ®": 7536,
      "ĠÎ¦Î¹Î»Î¯ÏĢÏĢÎ¿Ïħ": 7537,
      "ĠÎĻÎ£Î¤ÎŁÎ¡": 7538,
      "Ġá¼ĢÎ½Î¿Î¼": 7539,
      "ÏĦÏģÎ¯Î²": 7540,
      "ĠÏĢÎ¬ÏĦÎµÏģ": 7541,
      "Ġá¼ĲÏĢÎ¹ÏĥÎºÏĮÏĢÎ¿Ïħ": 7542,
      "Ġá½ģÏĢÎ»": 7543,
      "Ġá¼ĲÏĨÎ¬Î½Î·": 7544,
      "ĠÏĢÎ»Î¿Î¯": 7545,
      "ÏģÎ¿Î²": 7546,
      "ĠÏĦÎ¿Î¹Î¿ÏįÏĦÎ¿Î¹ÏĤ": 7547,
      "ÏĪÎ·": 7548,
      "Ġá¼ĦÎ³Î±Î½": 7549,
      "á¿ĨÏĥÎ±Î½": 7550,
      "Î±Î³Î³ÎŃÎ»Î¹Î¿Î½": 7551,
      "ĠÎļÎ¿Î»": 7552,
      "Î¬ÎºÏģÎ¹": 7553,
      "ĠÎ´Î®Î¼á¿³": 7554,
      "ÏİÏĦÎ·ÏĤ": 7555,
      "ĠÏĨÎ¬Î»Î±": 7556,
      "ĠÎ´Î¹ÎºÎ±ÏĥÏĦÎ·ÏģÎ¯Î¿Ïħ": 7557,
      "Ġá¼ĢÏĢÏĮÎ´ÎµÎ¹Î¾Î¹Î½": 7558,
      "ĠÎłÎ½ÎµÏįÎ¼Î±ÏĦÎ¹": 7559,
      "ÏģÏħÎ½": 7560,
      "ÏĥÎ¿ÏħÏĤ": 7561,
      "Î¸ÎµÎ¿Î½": 7562,
      "ÏĦÎ¯Î¸ÎµÏĦÎ±Î¹": 7563,
      "ĠÎ¸ÏħÏĥÎ¯Î±ÏĤ": 7564,
      "ĠÎ´Î¹Î±Ïģ": 7565,
      "Î¼ÏĢÎ¿Ïģ": 7566,
      "ĠÎ¾Îµ": 7567,
      "ĠÏĢÎ±ÏģÏĮÎ½ÏĦÎ±": 7568,
      "Ġá¼ĲÎ³Î¯Î½ÎµÏĦÎ¿": 7569,
      "ÏĮÎ´Î¿ÏħÏĤ": 7570,
      "Î¸ÎµÎ¿ÏĤ": 7571,
      "Ġá¼ĲÎ¾ÎµÏĦ": 7572,
      "ĠÎłÎµÎ»Î¿ÏĢÎ¿Î½Î½": 7573,
      "ĠÏĥá¿ĸ": 7574,
      "ĠÎĻÏīÎ¬Î½": 7575,
      "ĠÎ±á¼°ÏĥÎ¸Î·": 7576,
      "ÏİÎ¼á¿ĥ": 7577,
      "ĠÏĥÏħÎ¼ÏĢ": 7578,
      "ĠÎ½Î±Ïį": 7579,
      "ĠÏĨÏģÎ¿Ïį": 7580,
      "ĠÎ¼Î¬ÏĩÎµÏĥÎ¸Î±Î¹": 7581,
      "ĠÎ¸ÏģÏĮÎ½Î¿Ïħ": 7582,
      "Ġá¼ĲÎ¾ÏīÏĦÎµÏģÎ¹Îº": 7583,
      "Î»ÎµÏħÏĥÎµÎ½": 7584,
      "á¾¶ÏĥÎ±Î¹": 7585,
      "ĠÎ´Î±Î¹Î¼Î¿Î½": 7586,
      "Î·ÏĦá½¸Î½": 7587,
      "ĠÎ²Î¿ÏįÎ»ÎµÎ¹": 7588,
      "ĠÎĶÏĮ": 7589,
      "ĠÎ¿á¼¶Î´Îµ": 7590,
      "ĠÎ¶Î·ÏĦÎ®": 7591,
      "ĠÎĳá½ĲÏĦá½¸ÏĤ": 7592,
      "ÏĨÏģÏīÎ½": 7593,
      "Ġá¼ĺÏĢÎ¯": 7594,
      "ent": 7595,
      "ĠÎ£ÏīÎºÏģÎ¬ÏĦÎ·ÏĤ": 7596,
      "Î¹Î¹": 7597,
      "Î¾Ïį": 7598,
      "ĠÎ¼á¿ĨÎ½Î±ÏĤ": 7599,
      "ĠÏĦÏħÏĩá½¸Î½": 7600,
      "Î·ÎºÎµ": 7601,
      "ÏĦÎ¹ÏĥÏĦÎ¿Î½": 7602,
      "ĠÏĢÎµÏĢÏģÎ±Î³": 7603,
      "ÏĥÎµÏįÏĤ": 7604,
      "Î¬Î³á¿ĥ": 7605,
      "ÏĮÎ½ÏīÏĤ": 7606,
      "ÏĦÎ¹ÎºÎ®Î½": 7607,
      "Ġá½ĦÏģÎ³": 7608,
      "Ġá½ĢÎ½Î¿Î¼Î¬ÏĦÏīÎ½": 7609,
      "ĠÎ¿á¼°ÎºÎµÎ¯ÏīÎ½": 7610,
      "ÏİÏĦÎµÏģÎ¿Î¹": 7611,
      "ĠÎłÎ¿Î»Î¹": 7612,
      "ĠÎ¸Î±ÏħÎ¼Î±ÏĥÏĦ": 7613,
      "ĠÎºá¼ĢÎº": 7614,
      "ĠÎ´Î¹Î´Î±ÏĥÎºÎ±Î»Î¯Î±ÏĤ": 7615,
      "ĠÎ¾ÏħÎ³": 7616,
      "Î¸Î®ÎºÎ±ÏĤ": 7617,
      "Ġá¼ĢÏĢÎ¿ÎºÏģÎ¹": 7618,
      "ĠÎ¼ÎŃÎ½Î¿ÏĤ": 7619,
      "Î¹ÎºÎ®Î½": 7620,
      "ĠÎ¶ÏīÎ³": 7621,
      "ĠÎºÏħÏģÎ¯á¿³": 7622,
      "ĠÎ´Î¹Î±ÏĦÎµ": 7623,
      "ÎŃÎ½ÏĦÏīÎ½": 7624,
      "ÏĨÎ¸á¿ĩ": 7625,
      "ĠÎ³ÎµÎ¯": 7626,
      "Ġá¼ĢÎ»Î·Î¸ÎµÎ¯á¾³": 7627,
      "Ġá¼ĢÏĢÏĮÎ»": 7628,
      "Ġá¼ĢÏģÎ³ÏįÏģÎ¹Î¿Î½": 7629,
      "Î´Îµá½¶ÏĤ": 7630,
      "ĠÏĢÎµÏģÎ±Î¹": 7631,
      "Ġse": 7632,
      "ÏĥÏĩÎ¹Î»": 7633,
      "ĠÎ¼ÎµÎ½Î¿ÏĤ": 7634,
      "ÎĻÎĶÎĹÎ£": 7635,
      "ĠÎĵÎµÏİÏģÎ³": 7636,
      "ĠÎ£ÎµÎ»": 7637,
      "ĠÏĦÏįÏĩá¿ĥ": 7638,
      "ĠÏĥÎ¿ÏĨÎ¯Î±Î½": 7639,
      "Ġá¼°ÏĥÏĩá½ºÎ½": 7640,
      "ĠÏĥÏĦÎµÏģÎµ": 7641,
      "Ġá½ģÎ»Î¿": 7642,
      "ĠÎ½ÏħÎ½á½¶": 7643,
      "Ġá¼ĦÎ½Î±Î¾": 7644,
      "Î»ÎµÏĤ": 7645,
      "ĠÏĢÏħÎ½": 7646,
      "Î¹ÏĥÎ±Î½": 7647,
      "Ġá¼ĲÎ³Î½Ïİ": 7648,
      "ae": 7649,
      "ĠÎ¤ÏģÎ¹Îº": 7650,
      "ÏĥÏĥÎ¹Î½": 7651,
      "ĠÎ¼ÎŃÎ½ÏīÎ½": 7652,
      "ĠÏĥÏħÎ¼Î²Î¿ÏħÎ»ÎµÏį": 7653,
      "ĠÎºÎ»Î·ÏģÎ¿": 7654,
      "Ġá¼ĳÏĦÎ¿Î¹": 7655,
      "ĠÎŁÎ¹": 7656,
      "ĠÎ¿á¼´Î½Î¿Ïħ": 7657,
      "ĠÎ§Î±": 7658,
      "ĠÏĩá¿¶": 7659,
      "ĠÏĢÎ±ÏģÏĮÎ½ÏĦÏīÎ½": 7660,
      "ĠÎ´Î¹Î±ÏĦÎµÎ»": 7661,
      "ĠÏĦÏģÎ¬ÏĢÎµÎ¶": 7662,
      "ÎŃÏģÎ¿Ïħ": 7663,
      "Î³ÏģÎ±ÏĨá¿ĨÏĤ": 7664,
      "ĠÏĦÎ¿Î¹ÏĤ": 7665,
      "ÏħÎ»Î»": 7666,
      "Ġá¼ĲÎ³Î³Ïħ": 7667,
      "Ġá¼ĢÎ¿Î¹": 7668,
      "ÏĥÏĦá¿³": 7669,
      "Ġá¼ĢÎ»Î»Î±ÏĩÎ¿á¿¦": 7670,
      "ÏīÎ¸ÎµÎ½": 7671,
      "Ġá¼¡Î»Î¹ÎºÎ¯Î±Î½": 7672,
      "ĠÏĥÏĦÏģÎ±ÏĦÎ¹ÏİÏĦÎ±ÏĤ": 7673,
      "ÏĮÎ¼ÏīÏĤ": 7674,
      "ĠÏĦÏħÏģÎ±Î½Î½": 7675,
      "ĠÎ¼ÎµÎ¯Î¶Î¿Î½Î±": 7676,
      "ĠÏĦÎ¿ÏĥÎ±á¿¦ÏĦÎ±": 7677,
      "ÏĦÎ¿ÏĢ": 7678,
      "Ġá¼ĢÏĢÎ¿á¿¤á¿¥": 7679,
      "ĠÎ»Î¬Î¼": 7680,
      "ÏĦÎ¯á¿³": 7681,
      "Ġá¼ĢÎ¸Îµ": 7682,
      "ĠÎ´Î±Î¹Î¼ÏĮÎ½ÏīÎ½": 7683,
      "ĠÎ¸ÎµÎ¿ÏĨ": 7684,
      "ÎĻÎļÎĳ": 7685,
      "Î¬Î»Î¹Î½": 7686,
      "Î²Î¿Î»Î¿Î½": 7687,
      "Ġ185": 7688,
      "ĠÏĦÎ®": 7689,
      "Ġá¿¥Î®Î¼Î±ÏĦÎ±": 7690,
      "Ġá½ĦÏģÎ·": 7691,
      "ĠÎ³ÏħÎ¼Î½Î±": 7692,
      "Î¬ÏĦÎ·Ïģ": 7693,
      "Î³Î¼Î±ÏĦÎ±": 7694,
      "Î¿ÏħÏĥÎ¯Î±": 7695,
      "ĠÎ´Î¹ÎºÎ±Î¯ÏīÎ½": 7696,
      "ĠÎ´Î¹Î´ÏĮÎ½Î±Î¹": 7697,
      "ÏĦÎµÎ»á¿Ĩ": 7698,
      "Î¿ÏģÎµ": 7699,
      "á¼¢": 7700,
      "ÎķÎ¥Î£": 7701,
      "ĠÎ³Ïģ": 7702,
      "ĠÎºá¿¦": 7703,
      "Ġá¼ĢÎ¼ÎµÎ¯Î½": 7704,
      "**": 7705,
      "ÎŁÏĦÎ¹": 7706,
      "ĠÎ²Î±ÏģÏį": 7707,
      "Ġá¼¡Î½Î¯ÎºÎ±": 7708,
      "ĠÎ¼ÎµÎ³Î¬Ïģ": 7709,
      "Î®ÏģÏħ": 7710,
      "Ġá½ħÎ»Î¿Î¹": 7711,
      "Ġá¼ĶÎ»Î¸á¿ĥ": 7712,
      "ÏħÏģÎ¯ÏīÎ½": 7713,
      "ÏĦÎµÏģÎ¿": 7714,
      "Ġá¿¥á¾´": 7715,
      "ÏĥÏĦÎ±ÏĤ": 7716,
      "Ġá¼ĦÏģÏĩÎ¿Î½ÏĦÎµÏĤ": 7717,
      "á¿¶ÏĦÎ¿ÏĤ": 7718,
      "Î»ÎŃÏīÏĤ": 7719,
      "Ġá½ĦÎ¼": 7720,
      "ĠÎ¼ÎµÎ¯Î¶ÏīÎ½": 7721,
      "ĠÎĽÎ±ÏĦ": 7722,
      "ĠÏħá¼±ÏĮÏĤ": 7723,
      "ÎŃÎ»Î¿ÏĤ": 7724,
      "unt": 7725,
      "ĠÎµá¼¶Î½": 7726,
      "ÏģÎ·Î¼Î±": 7727,
      "Ġá¼ĢÎ³Îº": 7728,
      "Î¸Î¿Î¹ÏĤ": 7729,
      "ĠÎ¶á¿´": 7730,
      "ÎµÏģÎ¬": 7731,
      "Î¿ÏĥÏįÎ½Î·Î½": 7732,
      "ÎµÎ½Î½": 7733,
      "ĠÎ´á¿ĨÎ¸ÎµÎ½": 7734,
      "ĠÎ³ÏħÎ½Î±Î¹Î¾": 7735,
      "ĠÎłÏģÎ¹": 7736,
      "ĠÎľÎ¹Î»": 7737,
      "Ġá¼¤Î³Î±Î³": 7738,
      "ĠÎµá¼´ÏĢá¿ĥ": 7739,
      "Î¿ÏħÏĩ": 7740,
      "ÏīÎ¼ÎŃÎ½Î¿ÏħÏĤ": 7741,
      "Î¼Î·ÏģÎ¿ÏĤ": 7742,
      "Ġá¼ĦÏĢÎ¿": 7743,
      "ÎºÏĮÏĦÎ¿ÏĤ": 7744,
      "ÏĮÏģÎ¿Î¹": 7745,
      "ĠÎ´Î¹Î·Î½": 7746,
      "Ġá½ĢÏĨÎµÎ¹Î»ÎŃ": 7747,
      "ĠÎ²Î±ÏĥÎ¹Î»ÎµÎ¯Î±": 7748,
      "ĠÏĨÎ±ÏģÎ¼Î¬": 7749,
      "24": 7750,
      "ĠÎĳá½": 7751,
      "ĠÎ³ÎµÎ½Î¿Î¼ÎŃÎ½Î¿Ïħ": 7752,
      "ÏĥÏĥÏīÎ½": 7753,
      "ÎºÏģÎ¯": 7754,
      "Ġá¼ĦÏģÏĦÎ¿Î½": 7755,
      "ĠÏĢÎ»Îµá¿ĸÎ¿Î½": 7756,
      "ĠÏĥÏħÎ³ÎºÎ±ÏĦÎ±": 7757,
      "ĠÏĩÏīÏģÎ¯Î±": 7758,
      "ĠÎĵÎµÏīÏģÎ³": 7759,
      "ĠIV": 7760,
      "ĠÎ¾á½ºÎ½": 7761,
      "Ġá¼ĶÎ»Î±ÏĦÏĦÎ¿Î½": 7762,
      "ĠÎºÎ±Î¸á½°": 7763,
      "Ġá¼ĢÎ³Î¿ÏģÎ±": 7764,
      "ĠÏĥÏĦÎµÏĨÎ±Î½": 7765,
      "ĠÏĢÏģÎ¿ÏĨÎ·ÏĦá¿¶Î½": 7766,
      "ÏįÎ½ÎµÎ¹Î½": 7767,
      "á¾¶ÏĥÎ¹Î½": 7768,
      "ÏīÏĦÎŃÏģÎ±Î½": 7769,
      "ĠÏĦÎ¿ÏĥÎ¿ÏįÏĦá¿³": 7770,
      "ÏĥÎºÎ±": 7771,
      "ĠÎºÎ±ÏģÏĢá½¸Î½": 7772,
      "Î´ÏĮÎ¸Î·": 7773,
      "Î·ÏĦÎ±": 7774,
      "ĠÎĽÎŃ": 7775,
      "Ġá¼ĢÎ½Î¬Î»": 7776,
      "Ġá¼±ÎºÎ±Î½á¿¶ÏĤ": 7777,
      "ÏįÎ½ÏīÎ½": 7778,
      "ĠÎ´á½¶ÏĤ": 7779,
      "ĠÏĢÎ»ÎµÎ¹ÏĮÎ½ÏīÎ½": 7780,
      "ĠÏĦá¿¶Î½Î´Îµ": 7781,
      "Î¸ÎŃÎ½ÏĦÎ¹": 7782,
      "ĠÎºÏģÎµá¿ĸ": 7783,
      "ÏīÏĦá¿¶Î½": 7784,
      "ÏĦÎ¿ÎºÎ¯Î¿Î½": 7785,
      "ÎµÎ¯Î²": 7786,
      "Ġá¼ķÎºÎ±ÏĥÏĦÎ±": 7787,
      "ĠÎłÏģÎ¿Ïĥ": 7788,
      "ĠÏĢÏĮÏĦ": 7789,
      "ĠÎ£ÏįÎ½": 7790,
      "Ġá¼ĳÏĦÎŃÏģÎ¿Î¹ÏĤ": 7791,
      "ĠÎ¼Î±Î¸Î·ÏĦá¿¶Î½": 7792,
      "ĠÎļÏįÏģÎ¿Ïħ": 7793,
      "Ġá¼ĲÏĢÎ¿Î¯ÎµÎ¹": 7794,
      "ĠÎ³Î¹": 7795,
      "Î¿Î¯Î¼Î·Î½": 7796,
      "Ġá¼ĢÎºÏĦ": 7797,
      "Î´Î¹Î½": 7798,
      "Ġá¼µÏĥÏĦÎ±": 7799,
      "ĠÎ¿á¼´ÎºÎ±": 7800,
      "Î¸Î½Î·": 7801,
      "ĠÎºÎ±ÏĦÏİ": 7802,
      "Ġá¼ĢÏģÏĩÎ±Î¯ÏīÎ½": 7803,
      "ĠÎºÎ®Ïģ": 7804,
      "ÎŁÎĽÎŁÎĵ": 7805,
      "Ġá¼¡Î´Î¿Î½á¿ĨÏĤ": 7806,
      "ac": 7807,
      "ĠÎ¼Î¹ÏĥÎ¸á½¸Î½": 7808,
      "ÏĪÏįÏĩ": 7809,
      "Î·Ïį": 7810,
      "ĠÏĦÎµÎºÎ¼Î®": 7811,
      "ÏĦÏĦÎµÎ¹Î½": 7812,
      "ĠÎ±á¼°Î³": 7813,
      "ĠÎ´ÏħÎ¿á¿ĸÎ½": 7814,
      "Ġá¼ĢÎ¾Î¯Î±ÏĤ": 7815,
      "ÏģÎµÏĦÎ¿": 7816,
      "ĠÏ²": 7817,
      "23": 7818,
      "ÏĨÎ¿Ïģá¾¶ÏĤ": 7819,
      "ĠÎ³ÎŃÎ½Î·": 7820,
      "Î¼ÎµÏĦÏģ": 7821,
      "Ġá¼ĢÎ´ÎµÎ»ÏĨÎ¿á½¶": 7822,
      "ĠÎºÎ±ÏĦÎ±Î¹": 7823,
      "ĠÏĥÏħÎ½ÎµÎ¹": 7824,
      "ÏİÎ½ÏīÏĤ": 7825,
      "27": 7826,
      "ĠÏĢÏįÎ»Î±ÏĤ": 7827,
      "ÎŃÎ³Î³": 7828,
      "ÏįÎ¼Î±": 7829,
      "ÏĦÎ¹ÎºÎ±á½¶": 7830,
      "ĠÏĩÎµÏģÏĥá½¶": 7831,
      "Ġá¼ĢÎ½Î±Î³Î¹Î½ÏİÏĥÎº": 7832,
      "Ġá¼ĢÏĢÎ¿Î´ÎµÎ¹ÎºÎ½Ïį": 7833,
      "gn": 7834,
      "ĠÏĨÎ¹Î»ÏĮÏĥÎ¿ÏĨ": 7835,
      "Î¿ÏįÎ»Î¹Î¿Î½": 7836,
      "ĠÎ³ÎµÎ¹": 7837,
      "ĠÏĢÏģÎ¿ÏĥÏī": 7838,
      "Î¯ÏĥÎ¼Î±ÏĦÎ¿ÏĤ": 7839,
      "ÎºÎ¿Î½ÏĦÎµÏĤ": 7840,
      "Î¶ÎµÏĦÎ¿": 7841,
      "ĠÎ£Î¿Î»": 7842,
      "Î¹Î¶Î¿Î½": 7843,
      "Ġá¼ĲÏĥÎ¸Î¯": 7844,
      "ĠÎ¸ÎµÎ¹": 7845,
      "Î¯Î¶Î¿Î½ÏĦÎµÏĤ": 7846,
      "ĠÎķá½ĲÏģÎ¹ÏĢÎ¯": 7847,
      "Ġá½ģÏģá¾¶Î½": 7848,
      "ÏĦÎ±ÏĥÎ¹ÏĤ": 7849,
      "Îµá¼¶": 7850,
      "ĠÏĢÏģÎ¬Î³Î¼Î±ÏĦÎ¹": 7851,
      "ĠÏĢÎ¿Î¹Î·ÏĦá½´ÏĤ": 7852,
      "Î¸ÎŃÏĥÎµÎ¹": 7853,
      "Ġá¼ĢÏĢÎ®Î½": 7854,
      "ĠÎ£Î±Ïģ": 7855,
      "Ġá¼ĢÏģÏĩÎ®Î½": 7856,
      "ĠÏĨÏģÎ¿Î½Îµá¿ĸÎ½": 7857,
      "Î¿Î¼Î¿ÏĤ": 7858,
      "ĠÏħá¼±Î¿á½ºÏĤ": 7859,
      "ĠÎ²Î±ÏĥÎ¯Î»ÎµÎ¹": 7860,
      "ĠÎ¼Î·Î½á½¸ÏĤ": 7861,
      "ÏĥÎ±ÏĥÎ¸Îµ": 7862,
      "Î¯ÏĥÎ±ÏĥÎ¸Î±Î¹": 7863,
      "Î¡ÎĳÎ¦": 7864,
      "ÏģÏĮÏĦÎµÏģÎ¿Î½": 7865,
      "Ġá¼ĢÏģÎ¹Î¸Î¼á½¸ÏĤ": 7866,
      "Î®ÏĥÎ±Î¼ÎµÎ½": 7867,
      "ĠÎ´ÎµÎ¹Î½á½°": 7868,
      "ĠÎłÏĦÎ¿Î»ÎµÎ¼Î±": 7869,
      "Î»Î¸Îµá¿ĸÎ½": 7870,
      "ie": 7871,
      "Ġá½ģÏģÎ¹ÏĥÎ¼": 7872,
      "Î¸Î±ÏĤ": 7873,
      "ĠÎºÎ±ÎºÎ¬": 7874,
      "ĠÎłÎµÏģÏĥ": 7875,
      "Ġá¼ĢÏĢÎŃÎ½Î±Î½ÏĦÎ¹": 7876,
      "ĠÎºÎ±Î¸Î¹ÏĥÏĦ": 7877,
      "ÏĦÎµÎ¯á¾³": 7878,
      "Ġá¼ĲÏĢÎ¹ÏĥÏĦÏģÎŃ": 7879,
      "ÏīÏĩ": 7880,
      "ÏĥÏĦÏģÎ¬": 7881,
      "ÏģÎ¿ÏĥÏįÎ½Î·Î½": 7882,
      "ĠÏĢÏģÎ¿ÏĥÎ´Î¹": 7883,
      "ĠÎ³Î·": 7884,
      "ĠÎ¤ÏģÎ¿": 7885,
      "ÎļÎ±á½¶": 7886,
      "ÏĦÎ¿ÏĢÎ¿Î¹": 7887,
      "ÏįÎ½ÏĦÏīÎ½": 7888,
      "ĠÎ¸ÏģÏĮÎ½Î¿Î½": 7889,
      "ad": 7890,
      "ĠÏĢÏģÎ¿Î±Î¹": 7891,
      "ĠÏĨÎ±á¿¦": 7892,
      "Ġá½ķÎ´Î±ÏĦÎ¹": 7893,
      "ÏĦÏĦÎµÎ¹": 7894,
      "ĠÎ³Î¬Î»Î±": 7895,
      "ÏĨÎ½Î·ÏĤ": 7896,
      "Î¿Î¹Î½ÏīÎ½": 7897,
      "28": 7898,
      "ĠÎ±á¼°Î¸": 7899,
      "Î¿ÏįÏĥÎ¹Î¿Î½": 7900,
      "ĠÎ¤Î¿á¿ĸÏĤ": 7901,
      "ĠÎ¸ÎŃÎ»ÏīÎ½": 7902,
      "Ġá¼ĲÎ½Î¿Ïĩ": 7903,
      "ĠÎ£ÏħÎ»Î»": 7904,
      "ĠÏĥÎ¿Î¯": 7905,
      "ĠÎ´Î¹Î¿ÏģÎ¸": 7906,
      "Î¸ÏģÏīÏĢÎ¿ÏĤ": 7907,
      "ĠÎŁá½ĲÎ´á½²Î½": 7908,
      "Ġá½ģÏģá¾·ÏĤ": 7909,
      "Î¬Î¶Î¿Î½ÏĦÎ¿": 7910,
      "ĠÎļÎķÎ¦ÎĳÎĽÎĳÎĻÎŁÎĿ": 7911,
      "Ġá¼¦ÏģÏĩ": 7912,
      "ÏİÎ²": 7913,
      "ÏģÎ¯Î²": 7914,
      "'Â·": 7915,
      "ĠO": 7916,
      "Î¬Î´ÏīÎ½": 7917,
      "ĠÏĢÎ¿Î»Î»á½´": 7918,
      "ĠÏĨÎ±Ïĥá½¶Î½": 7919,
      "Ġ88": 7920,
      "Ġá¼ħÏĢÎ±ÏĥÎ¹": 7921,
      "ĠÎ¤ÏģÏī": 7922,
      "Ġá¼ĢÎºÏģÏĮ": 7923,
      "Î¯ÎºÎ·ÏĤ": 7924,
      "Ġá¼ĦÎºÏģÎ¿Î½": 7925,
      "Ġá¼ĲÏģÎ³Î±ÏĥÎ¯Î±ÏĤ": 7926,
      "ĠÎ±á¼°ÏĩÎ¼Î±Î»Ïī": 7927,
      "Î¸Î·Î¼Î±": 7928,
      "Î¯ÏīÎ½Î¿ÏĤ": 7929,
      "ĠÎºÏģÎ±ÏħÎ³": 7930,
      "ĠÎĻÎ©": 7931,
      "ÏĦÎ·ÏĦÎ±Î¹": 7932,
      "Ġá½ĢÎ¼": 7933,
      "ĠÏĢÏĮÎ½ÏīÎ½": 7934,
      "Ġá¼ĳÏĦÎŃÏģÎ¿ÏħÏĤ": 7935,
      "ĠÎ´Î¹Î¿ÏģÎ¯": 7936,
      "ĠÏĦÎ±Î½": 7937,
      "Î±Î³Î³ÎŃÎ»Î»": 7938,
      "Î¸Î·ÏĥÎ¹": 7939,
      "ĠÎĽÏĮÎ³Î¿Î½": 7940,
      "ĠÎºá¼Ħ": 7941,
      "Î¯Î½Î¿Î½ÏĦÎ¿": 7942,
      "ÏĦÎµÏĩÎ½": 7943,
      "Ġá¼ķÏĦÎµÏģÎ¿Î¹": 7944,
      "Ġá¼ĲÏĢÎ¹ÏĦÎ¹Î¼": 7945,
      "ĠÎ¼ÎŃÎ»Î»Î¿Î½ÏĦÎ±": 7946,
      "ÎķÎ©Î£": 7947,
      "ÏĮÏĦÎµÏģÎ¿ÏĤ": 7948,
      "ĠÏĦÎ¬Î¾ÎµÎ¹": 7949,
      "Î»Î¿Î³Î¿Î½": 7950,
      "ĠÎłÎ¬Î½ÏĦÎ±": 7951,
      "ÎµÎ¯Î´Î·": 7952,
      "ĠÎļÎĽ": 7953,
      "Ġá¼ĲÎ»ÎµÏħÎ¸ÎµÏģÎ¯Î±Î½": 7954,
      "Ġá¼ĢÏĢÎ¬Î½": 7955,
      "ĠÏĥÏħÎ³Î³ÏģÎ¬Î¼": 7956,
      "26": 7957,
      "ĠÏĢÎ±ÏģÎ¸ÎµÎ½": 7958,
      "Î´ÎµÎº": 7959,
      "Î²Î±Î»á½¼Î½": 7960,
      "ĠÏĦÎ¿Î¹Î±ÏįÏĦÎ±ÏĤ": 7961,
      "Ġá¼¸Î¿ÏħÎ´Î±á¿ĸÎ¿Î¹": 7962,
      "ĠÎµá½ĳÏģÎ¯ÏĥÎºÎµÏĦÎ±Î¹": 7963,
      "ĠÎµá½ĲÎ»ÏĮÎ³": 7964,
      "Ġá¼ĶÏĨÏħÎ³": 7965,
      "ĠÏĢá¿Ĩ": 7966,
      "Ġá¼ĲÎ½Î±Î½ÏĦÎ¹": 7967,
      "ĠÏĢÎ±ÏģÎ¹ÏĥÏĦ": 7968,
      "ĠÏĦÏģÏĮÏĢÎ¿Ïħ": 7969,
      "Ġá¼ĲÏĥÎ¸á¿Ĩ": 7970,
      "ĠÎ¤ÏģÏİÏīÎ½": 7971,
      "Ġá¼½Î½Î±": 7972,
      "ph": 7973,
      "ĠÎłÎ¿á¿¦": 7974,
      "ĠÎ»ÎµÎ³ÏĮÎ¼ÎµÎ½Î±": 7975,
      "á½Ħ": 7976,
      "ÏģÎ±Î¹ÏĤ": 7977,
      "ÏĦÎ¹á¿¶Î½": 7978,
      "Ġá½ĳÎ»Î¹Îº": 7979,
      "ĠÎ¿á½ĲÏģÎ±Î½á¿·": 7980,
      "ĠÎ´Î±ÏĢÎ±Î½": 7981,
      "Î¸á¿ĥ": 7982,
      "ÏĥÎ¯ÏĤ": 7983,
      "Ġá¼ĢÎ´ÎµÎ»ÏĨÎ¿á¿¦": 7984,
      "Î´Î±Î¼á¿¶ÏĤ": 7985,
      "ĠÏĦá¼Ĩ": 7986,
      "Ġá½ĳÏĢÎµÏģÎ²Î¿Î»": 7987,
      "ĠÎ¸ÏħÎ³Î¬ÏĦÎ·Ïģ": 7988,
      "ĠÏĩÏİÏģÎ±": 7989,
      "Î»Î±Ïį": 7990,
      "ĠÎŁÎĻ": 7991,
      "Ġá¼ĲÏģÏħ": 7992,
      "ÏģÎ¹Î´": 7993,
      "Ġ90": 7994,
      "Ġá¼ĢÎ³Î¬ÏĢÎ·": 7995,
      "ĠÎļÎ±Î¯ÏĥÎ±ÏģÎ¿ÏĤ": 7996,
      "ÏĦÎ¿Î½ÏĦÎ±": 7997,
      "Ġá¼ĢÏĢÎµÏģ": 7998,
      "ĠÎĶÎ±Î½Î±": 7999,
      "Ġá¼łÎ´ÏħÎ½": 8000,
      "Î¼Î±ÏĦÏĮÏĤ": 8001,
      "Ġá¼±ÎµÏģÎµá½ºÏĤ": 8002,
      "Ġá¼ĢÎºÎ¿Î»Î¿Ïħ": 8003,
      "ĠÎ±á¼°ÏİÎ½Î¹Î¿Î½": 8004,
      "ĠÎ»Î±Ïĩ": 8005,
      "ĠÎľá½°": 8006,
      "ĠÏĨÎ¸Î¿Î½": 8007,
      "ĠÎ´Î¹Î±ÏĨÏĮÏģÎ¿ÏħÏĤ": 8008,
      "ÏĥÎ¼á¿·": 8009,
      "Ġá¼°Î´Î¯Î¿Ïħ": 8010,
      "ĠÏĢÎ±ÏģÎ¬Î´ÎµÎ¹Î³Î¼Î±": 8011,
      "ĠÎķÎ¡Îľ": 8012,
      "ĠÏĢÏģÎ¿Î¸ÏįÎ¼ÏīÏĤ": 8013,
      "ĠÎķÎ¥": 8014,
      "ĠÏĢÎµÏĢÎ¿Î½": 8015,
      "ÎŃÎ²Î±Î»ÎµÎ½": 8016,
      "ÏĮÏģÎ¿Î¹ÏĤ": 8017,
      "ĠÎ·á½Ĳ": 8018,
      "Ġá¼ĪÏģ": 8019,
      "ĠÎľÎķ": 8020,
      "Î±ÏģÏĩÎ¯Î±ÏĤ": 8021,
      "ĠÏĢÎ¿á¿ĸÎ¿Î½": 8022,
      "Ġá¼ĲÏĢÎµÏģ": 8023,
      "ÏĮÏĦÎ±ÏĦÎ¿ÏĤ": 8024,
      "ĠÎ´ÏħÏĥÏĩÎµÏģ": 8025,
      "ÎŃÎ½ÏĦÎ¿ÏĤ": 8026,
      "ĠÎ¤Î¿ÏįÏĦÏīÎ½": 8027,
      "ĠÎ´ÎŃÏĩ": 8028,
      "ĠÎ¸Î±Î»Î±": 8029,
      "ĠÎµá¼´ÏĥÏī": 8030,
      "ÎºÎ¿Î½ÏĦÎ¿": 8031,
      "Ġá¼´Î´Îµ": 8032,
      "Ġ64": 8033,
      "Ġá¼ĲÎ¾Î±Î³": 8034,
      "ĠÎ¸ÏħÏĥÎ¯Î±Î½": 8035,
      "Ġá¼ĢÏĨÎµ": 8036,
      "ÏĢÎ±Î»": 8037,
      "ĠÏĨÏĮÎ²Î¿ÏĤ": 8038,
      "ÏģÎ¹ÏĥÏĦÎ¿Î½": 8039,
      "ĠÏĦÎ±á½ĲÏĦá½°": 8040,
      "ĠÏĢÎ¬Î¼": 8041,
      "Ġá½ĦÏĪÎµÎ¹": 8042,
      "Ïģá½¶": 8043,
      "Ġá¼ĲÎ½Î±ÏģÎ³": 8044,
      "ĠÎľÎ±ÏĦ": 8045,
      "Ġest": 8046,
      "Î¯ÏĥÏĦÎ¿Ïħ": 8047,
      "ĠÎ¼ÎµÏĥÎ·Î¼Î²": 8048,
      "ÏĮÎ½ÎµÎ¹": 8049,
      "ÏĮÎ¼Î¿Î¹ÏĤ": 8050,
      "Ġá½ĦÏĨÏģÎ±": 8051,
      "Ġá¼ĢÏĢÎ±Î³Î¿ÏģÎµÏį": 8052,
      "ÏīÎ¸á¿ĨÎ½Î±Î¹": 8053,
      "ĠÎ´ÎµÏĥÏĢÎ¿": 8054,
      "ĠÎ²Î¬ÏģÎ¿ÏĤ": 8055,
      "Ġá¼ĲÎºÏĢÎµ": 8056,
      "Ġá¼¹ÎµÏģÎ¿ÏħÏĥÎ±Î»Î®Î¼": 8057,
      "ĠÎ´Î¹ÎµÏĥ": 8058,
      "ĠÎ´Î¯ÎºÎ±ÏĤ": 8059,
      "Î»ÎµÏħÏĦ": 8060,
      "Ġá¼ĲÏĢÎ¹ÏĥÏĦÎ®Î¼Î·ÏĤ": 8061,
      "á½ī": 8062,
      "ĠÎ²Î¿Î®Î¸ÎµÎ¹Î±Î½": 8063,
      "ĠÎ´Î¿á¿¦Î»Î¿ÏĤ": 8064,
      "ÎµÎ½ÏĮ": 8065,
      "Î±Î¯ÏģÎµÏĥÎ¹Î½": 8066,
      "ĠÏĢÎµÏģÎ¹Îµ": 8067,
      "ÏĮÏģÎµ": 8068,
      "Ġá¼¥Î½": 8069,
      "ĠÎ½ÏĮÎ¼Î¿Î¹ÏĤ": 8070,
      "ĠÏĢÎ±ÏģÎµÎ¼Î²": 8071,
      "Ġá½ĪÎ»ÏħÎ¼": 8072,
      "Î·ÎºÎµÎ½": 8073,
      "ÏĨÎ¿Ïħ": 8074,
      "Ġá¼ĲÏĨÎ±ÏģÎ¼ÏĮ": 8075,
      "ĠÎłÎµÎ¹": 8076,
      "Ġá¼ĲÎ¾Î±Î½": 8077,
      "Î¬Î»Î¿ÏħÎ½": 8078,
      "ĠÏĥÏĦá¿Ĩ": 8079,
      "Î·Î³Î¿Ïģ": 8080,
      "ĠÏĢÎ¿Î»ÎµÎ¼Î¯Î¿Î¹ÏĤ": 8081,
      "ÏģÎ¹ÏĥÏĦÎµ": 8082,
      "Î¸ÎµÎ¯Î·": 8083,
      "29": 8084,
      "ĠÏĪÎµá¿¦": 8085,
      "Îµá¼°ÏĤ": 8086,
      "ub": 8087,
      "á½ºÎ¾": 8088,
      "Ġá¼ĦÏĢ": 8089,
      "Î´Î¿ÏĦÎ±Î¹": 8090,
      "ÏħÎ¿Î½": 8091,
      "Î¯Î½Î¿ÏħÏĤ": 8092,
      "Ġá½ģÎ´á½¸ÏĤ": 8093,
      "ĠÎ¿á½ĲÏĥÎ¹": 8094,
      "Ġá¼ĳÏĥÏĢÎŃ": 8095,
      "ĠÎŁá½ĶÏĦÎµ": 8096,
      "Ġá¼ĲÏĦÏįÎ³ÏĩÎ±Î½": 8097,
      "Ġá¼ĦÏģÎ¹ÏĥÏĦÎ±": 8098,
      "ĠÏĨÎ¯Î»Î¿Î¹ÏĤ": 8099,
      "ĠÏĢÎµÎ¹ÏģÎ¬": 8100,
      "Ġá¼ĢÎ½Î±ÏĢÏĦ": 8101,
      "ÏĥÎµÏĥÎ¹Î½": 8102,
      "Î¾Î¿Ïħ": 8103,
      "ĠÎ¼ÎµÎ»á¿¶Î½": 8104,
      "Î·ÎºÎŃÎ½Î±Î¹": 8105,
      "ĠÏĩÎ±Î¯ÏģÎµÎ¹Î½": 8106,
      "ĠÎºÎµÎ¯Î½": 8107,
      "Ġá½ħÏĦÎ¿Ïħ": 8108,
      "Ġá½ĢÏģÏĩ": 8109,
      "Ġá¼ĢÎ½Î±ÏĨÎµÏģ": 8110,
      "Î¸ÎµÏĦÎ¿Î½": 8111,
      "ÏĢÎ¹ÏĤ": 8112,
[...]
